[CLS]
[MASK]
[PAD]
[SEP]
[UNK]
[EOS]
[unused0]
[unused1]
[unused2]
[unused3]
[unused4]
[unused5]
[unused6]
[unused7]
[unused8]
[unused9]
[unused10]
[unused11]
[unused12]
[unused13]
[unused14]
[unused15]
[unused16]
[unused17]
[unused18]
[unused19]
，
的
。
、
.
,
是
了
:
在
-
和
the
“
”
有
)
(
我
为
不
;
也
?
年
to
人
中
of
!
就
1
and
等
上
一
与
a
2
你
对
可以
这
会
都
in
要
到
一个
3
》
他
《
后
我们
个
而
将
公司
/
以
自己
时
工作
还
好
用
于
可
"
5
被
没有
that
能
多
让
4
说
及
市
大
%
s
中国
’
从
is
来
10
下
之
或
就是
很
但
并
小
0
进行
着
产品
去
地
月
发展
日
又
高
##s
for
时间
把
做
'
…
元
其
她
服务
企业
技术
次
什么
on
这个
如果
6
更
所
给
问题
使用
区
因为
it
最
新
看
它
三
需要
里
i
出
内
吃
with
生活
管理
主要
项目
时候
12
过
他们
was
由
情况
再
设计
通过
8
天
这样
省
但是
还是
~
7
很多
所以
*
as
那
11
前
be
市场
生产
得
建设
也是
们
大家
20
二
已经
活动
[
非常
]
如
第一
吗
想
本
已
可能
都是
现在
同时
有限
一种
使
孩子
至
成
要求
专业
县
系统
呢
该
国家
一般
怎么
are
展开
不是
·
无
一些
提供
万
比较
向
选择
开始
一定
没
性
安全
工程
知道
at
水
比
9
起
you
出现
by
30
设备
have
15
文化
治疗
方面
】
以及
环境
【
社会
不能
您
方法
才
点
却
分
from
价格
中心
具有
不同
质量
长
经济
影响
教育
成为
名
人员
作为
大学
吧
这些
重要
作用
this
对于
根据
学习
号
那么
当
较
每
各
还有
not
医院
he
目前
其他
+
世界
应
采用
能力
信息
一起
而且
品牌
2018
2019
则
副
车
人民
家
只
an
效果
相关
岁
t
这种
第
内容
发现
或者
注意
以上
楼
走
功能
其中
喜欢
材料
has
起来
能够
or
提高
基本
学校
方式
像
镇
四
城市
米
不要
者
之后
发生
his
学生
不会
图
过程
ly
为了
研究
处理
路
北京
宝宝
健康
由于
一样
单位
经营
部分
汽车
组织
客户
16
特别
机
经
行业
啊
标准
应该
they
带
建议
村
因
\u
如何
13
一直
14
各种
了解
18
一下
2017
but
建筑
控制
此
实现
we
容易
国际
said
出来
自
请
表示
然后
will
分析
两
第二
希望
所有
介绍
科技
全国
检查
近
>
虽然
看到
结构
销售
式
开
型
五
因此
低
精神
不断
地方
全
00
50
包括
朋友
地区
两个
部门
产业
美国
获得
患者
最后
处
其实
外
直接
|
感觉
完成
17
约
总
基础
投资
自然
按
均
今天
can
their
强
达到
保护
打
100
开展
25
老
合作
历史
分钟
克
关系
政府
more
爱
2016
这里
身体
形成
不过
##e
开发
交通
先
更多
原因
只有
规定
未
左右
太
觉得
增加
解决
生
的话
老师
剩余
医生
帮助
上海
##ing
进入
小时
who
跟
代表
网
创新
即
花
导致
面积
系列
one
all
拥有
集团
应用
得到
种
站
about
认为
安装
=
19
少
来说
之间
out
加
必须
up
#
线
产生
数据
类
买
提升
条
正
21
有效
来自
个人
妈妈
参加
which
传统
were
评论
施工
##d
经过
王
支持
条件
资源
had
would
01
24
存在
一点
造成
问
张
加工
22
简单
咨询
范围
只是
表现
事
空间
旅游
心
金
最大
称
保持
法
入
成功
40
作
结果
运动
钱
正常
平台
最好
like
水平
利用
曾
领导
计划
部
不仅
之一
今年
责任
been
且
公里
受
更加
美
2015
成立
c
快
机构
据
板
全部
现场
关于
共
业务
坚持
努力
是否
便
保证
引起
结合
多少
真的
字
东西
指
制作
位于
发
操作
谁
用户
记者
实施
放
女
家庭
甚至
人们
知识
管
继续
科学
编辑
加入
学院
叫
b
23
丰富
##y
学
章
规划
国内
位置
09
重点
带来
并不
比赛
按照
以后
积极
用于
期
才能
适合
##a
进一步
全面
干
有关
达
良好
银行
皮肤
未来
同
综合
明显
白
量
主任
食物
油
这么
手
严重
段
仅
需求
每天
下来
准备
特色
特点
目标
机械
属于
疾病
##ed
食品
具体
行
方便
作品
日本
08
电子
指导
度
查看
完全
并且
##0
装修
政策
##子
加强
温度
网络
time
双
无法
工业
非
—
there
02
门
推荐
教学
以下
营养
之前
05
so
作者
性能
经验
方案
欢迎
模式
道
价值
28
what
手机
变化
进
只要
见
有些
艺术
组
热
小编
also
行为
相
事情
任何
感
原
培训
分别
不错
法律
片
找
余
第三
##山
书记
我国
发布
n
到了
周
超过
间
减少
状态
许多
十分
03
看看
显示
工艺
people
07
及时
26
黄
when
重
症状
表面
期间
60
领域
over
随着
答
会议
当时
书
除了
06
优势
另
级
若
2014
压力
教师
下面
执行
经常
红
than
易
位
自动
04
连
if
属
its
你们
化
十
决定
整个
建立
喝
方向
考虑
送
为什么
your
店
other
都会
听
调整
稳定
别人
事业
生态
六
打造
实际
re
充分
写
层
真
保障
李
数
27
广东
版
一家
促进
款
some
区域
群众
共同
颜色
长期
做好
do
提出
局
方
m
里面
故事
头
社区
推进
into
大量
每个
不好
just
以来
山东
意见
房
农村
避免
制造
很好
农业
人生
降低
专家
即可
正在
成本
–
连接
极
her
当然
保险
##o
手术
风
##r
面
另外
座
高速
药
品质
马
图片
越
普通
合同
接
them
越来越
系
南
车辆
首先
一切
员工
生命
no
含
整体
my
80
可是
增长
速度
优秀
取得
男
体系
点击
广州
深圳
满足
资金
占
黑
现代
快速
室
干部
半
改革
环保
主
不少
先进
集
抗
持续
详细
29
西
购买
##n
幸福
负责
优质
炒
空气
思想
件
交流
℃
病
平
药物
设置
尤其
选
山
our
职业
真正
人才
医疗
阅读
回
受到
同学
述
理念
哦
等级
只能
常
陈
电
中央
d
设施
说明
鱼
最终
拿
接受
任务
@
器
固定
分享
适用
改变
除
智能
new
‘
深
需
简介
厂家
2013
确定
穿
换
如此
卡
亿
现象
first
住
任
风格
金融
道路
植物
香
比如
率
既
$
200
梦见
现
卫生
玻璃
时代
制度
女人
could
参与
石
团队
收入
包
力量
告诉
土地
打开
程度
过去
完善
组成
北
父母
培养
超
别
检测
端
更好
研发
only
反应
名称
year
高度
很大
物质
取
从而
机会
那些
核心
那个
早
落实
刚
相信
广大
哪些
成绩
after
全球
形式
东
民族
##t
台
动力
two
刘
31
生长
后来
确保
帮
拉
装饰
国
酒
清
措施
茶
死
快乐
申请
锅
转
美丽
基地
符合
##2
办法
边
价
满
肉
法院
金属
㎡
盐
想要
新的
90
力
一位
商业
get
叶
有的
绿色
小区
中华
6月
she
体
增强
子
放入
讲
党
相对
改善
最高
亦
几个
合理
做法
多年
难
仍
70
人体
费用
宣传
2012
行政
##i
画
有点
变
气
来源
消费者
¥
儿童
乡
体验
##er
距离
先生
女性
500
most
资料
不用
##路
发挥
公园
小学
35
运行
饮食
正式
防
平方米
有人
汤
##1
时期
车型
因素
7月
行动
单
感受
风险
具
批准
科
大型
肯定
类型
些
广泛
5月
林
严格
广告
公路
云
粉
从事
来到
贷款
发动机
搭配
它们
当地
场
中文
赞
space
me
一条
报告
正确
文明
光
总是
酒店
建
机关
靠
×
运输
考试
##5
推动
菜
火
例
话
音乐
2020
how
新型
特殊
计算
而是
认真
网友
动物
自身
玩
奖
种植
不到
味道
收藏
口
战略
意识
恢复
多种
求
关键
原则
9月
切
几
媒体
遇到
物
政治
河南
配
做到
him
七
城
阶段
土
啦
成长
党员
意义
男人
龙
防止
依法
困难
目的
配合
步骤
装置
平时
耐
now
because
品种
定
通
##3
制
技能
以前
医师
队
最近
ed
any
届
结束
观看
同样
于是
规模
主题
面对
years
习惯
认识
back
房屋
适量
病情
2000
晚上
亩
装
2011
主义
这次
如今
找到
45
2010
为主
神
差
包装
商品
效率
协会
4月
四川
家里
厅
安排
调查
等等
木
交易
表
海
理论
跑
八
功效
杨
明确
你好
出生
日常
古
享受
节
广场
清洗
眼睛
深入
浙江
远
压
3月
维生素
往
文
连续
经历
干净
某
梦
内部
不足
万元
事故
软件
放在
集中
含有
不锈钢
卷
流
安
300
way
还要
套
平均
even
成员
make
值
轻
实力
球
训练
##6
有着
针对
短
上面
师
洗
##华
##l
居民
com
双方
坐
体育
诗
吸收
阿
曾经
展示
时尚
办
值得
排
感染
相当
证明
分为
怎样
能源
<
尺寸
发表
强度
##8
维护
卖
原来
离
统一
均匀
剂
不可
see
老人
色
细胞
儿子
毕业
these
江苏
项
动
常见
改造
班
美好
倍
下降
##4
爱情
生物
圈
令
监督
此次
委员会
血
房子
块
尽
where
临床
家长
证
人物
故
劳动
折叠
突然
大小
办理
算
食用
空调
中学
小说
何
变成
变得
待
完
##生
铁
一段
篇
工具
观察
加上
九
实践
作业
下午
形象
then
工资
家具
实验
提
煮
配套
being
教
成分
阳光
伤害
创造
蔬菜
##人
液
底
树
成都
治
各类
突出
化学
户
规范
此外
迅速
消费
##7
河北
新闻
草
最新
资产
通常
香港
不得
预防
附近
32
追求
宽
初
理解
采取
##村
终于
进口
逐渐
配置
many
再次
us
称为
天气
读
明
吨
然而
very
每年
爸爸
传
8月
文件
意思
反
学会
水果
对方
母亲
百
微
实用
数量
评价
维修
&
独特
接触
消息
测试
获
街道
抓
厂
几乎
1000
改
须
比例
调
重大
供
联合
供应
创业
著名
原料
根本
身上
不管
公共
启动
根
钢
造型
父亲
一名
##林
心理
调节
赵
well
其它
队伍
白色
人类
味
work
动作
补
塑料
##9
厘米
含量
规格
衣服
特征
管道
举行
those
合
直
吴
全新
首
每次
往往
down
##g
皮
名字
武汉
程序
##明
much
上市
广
污染
记录
女儿
相比
投入
##德
经典
感情
移动
代
室内
来看
立即
物流
慢慢
人口
怀孕
宜
掌握
体现
课程
充满
身
随
冷
神经
灯
形
想到
重新
000
本身
永远
承担
即使
目录
呈
don
报
看着
last
世纪
天津
村民
最佳
自由
贴
开放
罗
负责人
声音
does
呀
唐
一款
倒
should
need
就要
成熟
照片
哪里
心里
南京
舒适
交
翻
眼
元素
驾驶
去年
理想
以为
拍
状
独立
2008
笑
就能
绿
机制
重庆
声
」
##文
两种
养
##城
2009
going
描述
「
推出
处于
垃圾
到底
教授
立
u
哪
off
报道
院
来了
支付
较大
应当
收
清洁
久
##es
before
一体
料
##河
know
千
党委
职工
这款
氧化
各项
中医
周边
加快
made
##m
重视
年代
配件
制品
电脑
盘
食
在于
外观
农民
服
全文
完美
左
文章
台湾
冲
一场
through
股份
定位
湖南
始终
分类
主动
转发
给予
think
不再
身边
刺激
美元
基金
埋
赛
犯罪
担心
如下
game
离开
such
情
宝
铁路
红色
高温
有所
may
use
痛
部位
##头
回家
线路
年轻
批发
秒
星
飞
活
上午
中间
牛
36
本次
知
掉
天下
挂
mm
青年
商务
案件
整理
回来
材质
试验
##斯
毛
清楚
加载
结婚
补充
分布
孔
费
协议
年龄
用品
盖
运用
一件
留
群
地面
怎么办
疼痛
儿
诚信
轮
律师
高级
带着
脸
升级
加盟
膜
皆
贡献
right
事件
##on
唯一
鸡蛋
西安
细
节目
运营
满意
解释
必要
组合
年度
依然
特
宋
鸡
月份
语言
感谢
乐
贸易
确实
德国
记
竞争
总结
先后
电池
太多
真是
美食
适当
尽量
go
态度
毕竟
智慧
多次
英国
上述
不良
成果
##性
各地
输出
事项
干燥
轻松
养殖
第四
曰
循环
强化
绝对
谢谢
33
38
更新
world
相应
感到
##平
苹果
against
人工
零
##龙
酸
今
一只
指标
状况
主席
一份
强大
推广
云南
游
无论
营销
一生
品
医学
背景
雪
两人
玉
相同
苏
good
巨大
still
￥
##c
休息
while
华
致
吸引
顺利
支
糖
天然
制定
危险
涉及
空
一片
自我
##军
猪
市委
互联网
办公室
蓝
之外
take
几年
纤维
具备
举办
##儿
春
下去
公开
近日
角度
服用
做出
指出
消化
乡村
过来
黑色
召开
ve
did
##水
脚
微博
周围
x
德
归
红包
网站
寿命
提前
杭州
混凝土
烧
使得
under
怕
心情
同志
疫情
says
现实
大部分
朱
400
也要
限制
娱乐
住房
want
软
机场
心中
##h
园
徐
症
一步
湖北
团

死亡
开关
房地产
long
晚
好吃
app
可爱
统计
挺
病人
街
好像
55
景区
专用
失败
消防
愿意
此时
man
岗位
l
就业
day
英雄
混合
查
科研
温
也许
表达
same
协调
between
望
采购
主营
装备
150
一路
利益
电源
肌肤
here
微信
留下
孙
电视
架
被告
她们
支撑
步
梦想
照
扶贫
虽
布
登记
大会
基层
休闲
升
佳
真实
么
足
实
人士
安徽
计算机
期待
认证
48
校园
复杂
许
色彩
青
一致
女孩
出口
顶
众多
素
丝
★
government
排名
当前
主体
至今
39
全市
狗
雨
胶
歌
大概
推
回复
公
睡
出去
所谓
地位
产
游戏
服装
委员
停
对象
治理
散
创作
右
题
商
平衡
电动
病毒
保
墙
刀
37
胡
损失
市民
适应
理由
地铁
冠军
化工
居
测量
页
森林
聚
一旦
通知
果
加热
创建
say
回到
集体
优惠
##k
around
trump
一边
几天
34
精
网上
three
兴趣
旧
太阳
实在
情绪
落
state
##ly
构成
纯
全体
→
设
就在
业
高效
韩国
英语
预计
保温
梁
偏
技巧
能量
不够
夏
似乎
厨房
怎么样
漂亮
精彩
家人
used
必
急
定制
藏
赛季
一句
脂肪
愿
建成
team
也就
随后
苦
42
显得
工
##道
血液
之中
记得
防水
硬
河
电机
欧洲
信
意
e
流程
##特
人数
亲
年来
泡
发育
缓解
及其
亿元
楼主
相互
有时
战争
开心
代理
2007
老公
球队
新鲜
信号
圆
紧
投
合适
really
违法
##口
谈
功率
温暖
结
陕西
布局
水泥
un
郑州
覆盖
american
办公
大众
##达
局长
环
##云
添加
大道
当年
专门
至少
知名
当中
铝
头发
进步
明白
股
原理
轴
孕妇
加大
破
夏天
福建
而言
##尔
住宅
景观
专项
##海
优点
素质
仪式
数字
对比
现有
关
依据
高端
各位
融合
呼吸
侧
幼儿园
略
姜
游客
肿瘤
好好
沟通
婚姻
到达
搅拌
详情
##利
part
失去
锻炼
##花
扩大
演员
2006
##一
突破
de
血管
厚
贵
球员
原告
利
不知
错误
区别
##p
own
可见
优化
试
纸
山西
自主
银
诊断
日子
人群
小组
季
财产
广西
词
75
那样
批
作文
明星
地址
例如
乱
表演
注
黄金
##机
和谐
呈现
引导
##国
型号
##者
难以
120
重量
##光
看见
否则
派
both
伤
标志
出版
您好
强调
关注
本人
官
许可
观众
降
样子
很快
##法
青岛
战
##力
女子
更换
令人
湿
提醒
欲
公交
苗
公安
胃
##石
##al
杯
异常
好看
##东
错
贯彻
甜
修
上下
杀
涂
##峰
一张
life
革命
优
放弃
人民币
水分
角色
十二
喜
说是
各个
反映
肌肉
大大
夜
会员
命
官方
俄罗斯
诉讼
性格
江西
选用
考
探索
箱
during
中药
##门
##克
熟悉
实行
end
两年
平方
富
玉米
给你
完整
桥
土壤
沙
言
运
防治
认可
工厂
吹
东莞
公告
质
丁
##心
铜
针
趋势
男子
用来
泵
阀
直到
青春
返回
电力
焊接
辅助
稍
黄色
减肥
手段
军
那种
public
课
刷
地板
局部
女生
内心
施
清理
彻底
夫妻
不如
整
汉
不了
able
##ng
保健
破坏
come
判断
told
监管
很难
蛋白
##成
疼
机器
一块
航空
文字
笔
州
或许
颗粒
力度
脱贫
成就
since
护理
##湖
齐
居住
份
came
开启
资格
法规
古代
顾客
整治
仍然
修复
老板
家居
兼
紧张
角
即将
电压
物业
郑
背
too
挑战
跳
拍摄
不敢
回收
他人
环节
公布
昨天
民警
热情
检验
可靠
公斤
年前
发明
担任
大力
•
资本
慢
保养
部署
参数
身份
##桥
最低
花园
ta
创
模具
那里
特性
鲜
2005
58
蛋白质
园区
围绕
杆
学科
甲
解
注重
99
毫米
一层
ll
记忆
韩
占地
复
red
断
43
##家
君
足够
似
41
腿
##天
折
皇帝
民间
吸
高中
时刻
不想
节能
飞机
国内外
场所
房产
骨
莫
52
借
在此
600
##化
一道
主持
通道
同比
新疆
兄弟
体内
洗净
总经理
p
类似
出版社
熟
末
佛
原创
将会
something
亚
种子
塔
长度
封
权利
法国
46
作出
高考
倒入
超级
密封
喜爱
地点
细节
猫
正是
江
妻子
°
多个
行驶
收获
电器
上升
尚
f
讨论
another
准确
参观
##江
44
关心
透明
业主
年级
风景
请问
低于
奶
圣
指数
郭
纷纷
损伤
随时
鼓励
史
肾
##u
论
合格
或是
售
田
东方
最多
found
用途
概念
set
苏州
文学
福
贵州
声明
看来
65
故障
51
定期
校
##红
密度
月经
策划
##线
有机
气体
事实
口感
睡觉
后面
展现
专
回答
吃饭
大多数
尽管
亮
一项
对手
这位
依
意外
system
典型
感冒
面前
深度
##b
哪个
饭
奖励
next
缺乏
传播
显
美容
粉丝
零售
things
离婚
带领
本文
种类
寻找
高新
马上
few
房间
少年
high
便宜
销量
羊
界
读书
防控
地理
计
never
上涨
56
3000
听到
危害
##里
49
戴
play
东北
高校
best
湖
领先
小孩
餐饮
设有
different
home
季节
执法
胜
夹
every
睡眠
each
called
阴
唱
净
口味
坏
冬天
评估
美观
##x
停止
增
舒服
禁止
玩家
##园
音
place
秋
辣椒
源
观
早上
共和国
本来
购物
less
引进
47
很高
船
履行
谢
面议
校长
考核
租赁
朝
v
iphone
总体
致力
女士
餐厅
保存
部队
might
##马
清水
##风
退
物品
一线
显著
确认
全省
招
常用
有利于
本科
切实
博士
印度
这时
2月
千万
薄
烟
财务
展
示范
众
人家
##安
弄
\\
##大
一座
刚刚
一套
调研
等待
消除
斤
委
深刻
赔偿
lot
秦
old
##中
season
牛奶
抢
仪器
分子
路线
思
加速
800
春天
形状
基
考察
每日
放心
复合
弱
又是
including
www
2004
搞
生存
石油
污水
牌
##阳
案
扣
部件
液压
首次
●
性质
氛围
食材
济南
秀
##学
转移
规律
##王
驱动
练习
point
报名
报价
维持
led
便利
竟然
盛
高压
祝
反复
橡胶
##玉
联
地下
高兴
司机
1月
精准
一批
说话
53
不宜
渠道
输入
效益
##金
近期
路上
印象
逐步
慢性
横
绿化
带动
当天
欣赏
瞬间
国外
粗
腐蚀
负
54
所在
假
第五
签订
冰
接近
更大
领
周期
流行
不但
竹
95
时光
show
r
形态
卫
滑
锁
义务
今日
允许
出行
泥
学历
好评
观点
钙
##地
强烈
look
测
是我
million
变形
世
数学
59
引
help
##科
语
新区
样
厚度
腰
依旧
without
床
美味
##兰
美术
齐全
追
面临
##f
旋转
示
按摩
就算
距
瓶
岛
春节
很少
好了
共有
学术
##县
版本
较为
思考
专利
同意
研究生
2003
财政
院长
书法
number
物理
直径
港
好处
健身
招聘
有时候
超市
养生
产权
蒸
①
great
术
宫
##波
牛肉
发出
平安
引发
说的
精品
经理
电流
印
鉴定
涂料
多数
工人
分离
电缆
联盟
小型
冬季
85
常常
碗
大师
擦
列
祝福
司
动态
早期
海洋
消毒
大约
袋
现代化
气候
变更
松
前后
淡
一流
象
准
园林
魅力
长沙
气温
凭借
药品
脸上
咳嗽
一半
前往
曲
鞋
祖国
凉
载
视觉
##月
财富
group
got
陶瓷
辆
country
better
播放
夏季
肝
后期
优良
case
进去
碳
support
little
ask
##伟
##宝
个性
57
反而
营造
赢得
审批
主人
更高
肌
data
两侧
考生
充电
监测
week
表明
伟大
滴
攻击
通风
摄影
痛苦
left
清晰
蛇
生日
防护
肚子
产量
够
紫
下载
5000
把握
o
1日
灵
吉
消失
为你
##z
到位
一是
人大
董事长
电路
明天
抑制
##氏
走进
激光
配备
大于
付出
law
应急
旁
志
铺
糖尿病
##强
摄
售后
设立
地球
power
菌
基于
子女
过多
视
肺
烤
伙伴
尊重
②
军事
哈
find
般
案例
轴承
选手
宣布
查询
360
普遍
货物
矛盾
不得不
不含
槽
武
认定
一行
##庄
包含
抽
##英
隔
丸
灰
g
胜利
轻轻
##源
城区
会计
照顾
较好
人均
用地
脑
保留
##面
##an
寒
尝试
车身
姐姐
撒
free
联系
外面
集成
共享
利润
冲击
##气
意味着
速
家中
剧
沈
炸
职责
虚
活力
兰
出席
男性
兔
讲话
别墅
生意
传承
舞台
##板
信心
主治
思维
欧
didn
障碍
##星
整合
善
长大
钟
荣誉
put
康
大气
全身
using
创意
陆
补偿
失
出血
percent
top
减轻
情感
句
我家
豆腐
棒
硕士
差异
k
闻
漆
补贴
h
终
县委
挡
坐车
砖
整改
少许
中共
实际上
盒
无数
武器
耳
police
存
想法
回事
暗
自治区
见到
杜
过敏
托
是你
收集
社
守
收到
减
##春
总部
适宜
##木
厦门
战斗
斯
line
其次
##州
发行
细菌
雷
不行
无论是
second
仔细
far
##美
对此
金额
气质
机动车
走向
大赛
养老
合成
灵活
地上
公众
传说
搭
98
一颗
演出
寺
甚
一方
简称
院校
based
要是
炎
per
##拉
change
周年
客厅
牙
2002
积累
民
习近平
核
大学生
小米
肥
喷
理
向上
五金
层次
实验室
证书
家族
融资
全程
波
##田
记载
华为
妈
收益
控
液体
免疫
至于
城乡
罪
乡镇
释放
以免
梅
辽宁
三大
婴儿
##卡
权
天天
博物馆
毒
关闭
精华
说法
精心
麻烦
出发
体重
啥
却是
##杰
不易
摆
道德
海南
舞
回忆
两次
护
招生
论坛
辐射
奶奶
虾
丈夫
big
更为
损害
严
估计
好多
累计
汉族
##民
蛋
处罚
新时代
学位
义
宝贝
##行
用药
沿
充足
豪华
宗旨
爱心
鸟
拒绝
难度
约定
流量
虎
想象
方可
康复
歌曲
国务院
women
临
关节
弹性
长江
母
司法
##辉
景
##飞
不大
曹
足球
away
延长
新车
永
手工
常规
邀请
论文
农
礼
ng
南方
浓度
获取
一级
师范
挑
据悉
切成
成交
前面
united
池
客
北方
我市
粒
开拓
乃
馆
饮料
过滤
沙发
画面
点评
极大
证券
##us
车主
抱
兴
current
大陆
##w
why
##君
命运
证据
赏
冰箱
库
精致
链
打击
men
company
拿到
2001
奋斗
一辆
幼儿
兵
流动
当事人
money
委托
哭
所需
十一
磨
##之
插
目
制成
承诺
自动化
之下
##森
学员
规则
天空
人力
采访
独
手动
story
风水
顺
混
information
本着
city
背后
今后
一带
差不多
主管
高达
穴
already
引领
词条
前期
已有
予以
冷却
旗下
部长
分配
受伤
5万
亚洲
凭
always
生肖
##兴
各级
瓦
碎
多久
高于
发酵
making
##台
股票
250
对应
four
谷
格
转载
##乐
精度
again
企
年轻人
患
自信
持
钢管
葱
城镇
##长
##南
沈阳
懂得
买了
免
称号
手续
程
##v
thing
二十
队员
浅
攻坚
最为
厉害
茶叶
出售
发放
爆
戏
口腔
牙齿
name
树立
晒
信用
敢
坐在
省级
##西
遇
suv
run
公安局
户型
采
互相
模型
小心
一支
跟着
懂
later
搜索
##清
常委
货
y
咖啡
纹
巴
##格
便是
仿佛
少数
全力
之路
大队
溶液
妇女
冬
一把
阳
合金
汁
胎儿
##会
友
公主
录取
解答
##不
思路
砂
通信
嘴
内饰
佛山
脱
忘记
止
大多
属性
无限
##夫
排除
拟
省委
蓝色
尾
饮
去除
岁月
盆
改进
顾
预算
心脏
##业
高铁
建造
剑
判决
什么样
招标
透
##元
炉
large
市区
为何
取消
粘
清新
免费
coming
迎来
路口
级别
接着
##宇
照明
一对
造
##丽
文物
培育
旁边
乘
important
转变
成型
户外
64
财
##福
放松
著
一部
合肥
树脂
诸
电梯
消
转让
职务
简直
饲料
though
百姓
旅行
88
纠纷
mr
在家
京
高血压
##和
##兵
家乡
##基
消耗
收费
男孩
real
心灵
输送
▲
置
并非
到来
转化
隐患
看出
上班
棉
房价
葡萄
传感器
甘肃
68
究竟
南北
交警
博
海外
土豆
截至
##荣
中山
使命
容量
新城
虫
挖
静
煎
é
蛋糕
一面
对外
感动
信任
版权
西北
吉林
粥
昆明
老婆
过度
发病
构建
##ion
编制
净化
出色
魏
剪
family
犯
少女
党组
柳
互动
害怕
fact
浓
least
小伙伴
体会
##点
租
生育
##信
火锅
must
自行
##车
体质
景点
招商
轮胎
燃烧
days
英
电视剧
舞蹈
雅
同一
家用
坚定
意大利
监控
异
发热
入口
两天
奇
赶紧
面试
72
备用
##器
涨
同事
心态
##溪
课堂
加油
练
胡萝卜
机器人
提取
长安
缺点
形势
斜
带有
由此
宁
口服
##新
单元
医药
专注
建材
轨道
放置
本书
water
enough
##en
西南
股东
无需
商家
ever
##方
塞
会长
公寓
大图
各自
##场
额
大连
临时
贫困
防火
坚决
原本
##管
听说
##寺
水中
working
三分
竟
期限
现金
柱
##香
##亚
配方
业绩
删除
固
十大
露
此处
确诊
眼前
全县
场景
洞
防腐
凡
地产
墙面
少量
小朋友
外形
某些
##ers
仙
图案
身材
##网
刮
电话
优美
鲁
political
天地
蜂蜜
联赛
忌
道理
##多
体积
暖
相似
进攻
策略
备
q
##le
果实
收购
新建
酱
子宫
指挥
待遇
应对
敌人
深化
几十
伊
季度
##湾
印刷
美女
大便
一人
一声
##公
安置
##发
180
哥哥
从此
##树
非法
##青
地块
until
专题
爷爷
鬼
辣
叶片
识别
start
激素
仅仅
器材
外科
拓展
座椅
初中
公益
野
past
##体
不然
##堂
员
##式
哥
此前
婆婆
啤酒
标签
物料
合法
提到
江南
一看
钻
附
扎
停车
一周
took
枝
举
起点
排水
抓住
恶
渐渐
负担
##神
怀
府
担当
##梅
full
投资者
窗
讲解
讲述
平米
范
玩具
依靠
观念
通用
缺
穿着
基因
斗
面膜
发达
延伸
obama
won
暂
节日
粮食
车间
一篇
##三
话题
##尼
人文
热水
浸泡
深受
热量
调理
宁波
共产党
团结
官网
随意
##恩
国产
尽快
出租
切割
频率
三种
瘦
助
忙
often
太大
东风
汇
刺
气息
而已
积
形容
累
转换
actually
前来
不住
优先
##志
西部
智
times
66
请求
居然
加重
签约
become
展览
ted
享
以外
支出
定义
墨
军队
多么
give
设计师
井
热爱
谓
模块
十八
side
缝
利率
清除
付
news
奉献
面粉
办学
疲劳
路面
排放
瑞
各界
##泉
群体
高等
姑娘
镜
营业
拆
一台
喂
名单
高层
分解
110
同步
可谓
不开
hard
恋爱
传递
过于
level
games
##根
电商
堂
62
small
纪律
不停
煤
##鱼
下列
media
火车站
而来
浪漫
doing
不见
小于
决策
代码
新增
阳台
奶粉
对待
炎症
##声
1500
工程师
##片
给他
然
order
猪肉
j
奥
功
档
according
注射
president
有助于
驻
双手
损坏
重复
境内
维
嫩
竞争力
审核
report
微笑
场地
布置
麻
退休
摸
电气
白天
am
宝马
正规
运势
淀粉
w
化妆品
试试
分泌
上去
non
途径
密
这类
出门
##通
弹
十五
优雅
卧室
##街
##书
术后
报警
school
爱你
和平
前提
售价
颗
人间
代谢
辖
普
汇报
给了
线条
附属
图书
five
keep
格局
稳
承受
打算
call
跨
浪费
尿
前景
76
hand
狗狗
设定
因而
##松
攻
尖
##泽
锅炉
怪
电影
##武
边缘
刑事
care
法定
##仁
神秘
冯
桶
公积金
63
底部
十几
一日
seen
仪
争
##语
直播
鼻
十足
##宁
半年
纪念
都市
遍
货币
open
柜
市政府
平面
摆放
票
疗效
children
融入
骑
##塔
night
乙
拆迁
俱乐部
族
有用
本院
研究院
研究所
剩下
从来
小镇
毕业生
党建
③
##权
救
连载
乘坐
四大
国有
former
today
甘
师傅
最早
##奇
生成
栽培
彼此
小吃
珍惜
head
奔驰
荣获
株
一本
秉承
早已
known
搭载
修改
卫生间
血压
面向
不在
内蒙古
衣
文艺
评为
作风
艾
绕
险
瓷砖
##色
宗
香味
参考
敏感
讲究
酱油
缘
乳
屏幕
##义
##祥
赴
上来
手中
went
进度
##or
吊
既然
蒜
围
嘛
本地
节约
拆除
科目
players
男生
审查
顾问
early
##布
暂时
蔡
志愿者
即便
权益
whether
生产线
好友
解放
辉煌
having
大桥
初步
温馨
酶
地图
##良
发电
health
一口
警察
总裁
刻
开工
象征
镜头
大门
必然
手指
姓
辛苦
##师
聪明
曝光
##量
大全
有力
##思
民事
sure
作战
营
据说
大地
done
republican
醋
国家级
##店
别的
福利
自行车
several
炖
废
争取
隔离
university
温柔
氧
血糖
次数
要有
▼
摩托车
地震
78
赢
生理
视频
可用
乌
post
利息
耐磨
便于
影响力
旺
警方
便秘
一代
第六
为此
提交
之所以
ing
标
稳定性
预测
男女
1999
business
の
想起
自觉
feel
赚钱
##日
资讯
师生
输
圆形
缴纳
每月
##上
继承
排出
注册
辈子
验收
通讯
激烈
不仅仅
讯
卓越
example
节奏
青少年
之处
##川
采集
教练
##沟
来电
指定
尔
伴
湿度
礼物
person
醉
念
门口
孕
垫
##芳
海鲜
达成
授权
急性
坚强
利亚
活性
蒙
##敏
吐
传动
campaign
携带
##眼
}
人气
饰
love
分公司
擅长
##宗
灵魂
透露
↓
移
用量
细腻
预
##威
枪
kind
斗争
腹部
嘉
协助
##瑞
67
俩
将军
开水
states
快递
住院
挑选
灭
有趣
不久
屏
中午
神奇
爬
house
最美
宝妈
我会
落地
节省
评
继
##友
book
错过
垂直
桥梁
迎
进出口
开花
type
真空
纳
依托
process
close
派出所
市长
热门
清热
体制
系数
西方
效应
变速箱
一体化
##正
差距
下方
农产品
half
##立
揉
日前
{
war
申报
等于
客服
不适
句话
厕所
现状
##下
陶
超越
均价
对照
扎实
course
楼盘
let
机遇
一次性
当你
within
研制
支架
york
once
门窗
69
months
kg
柔软
单独
挤
等你
限
看过
video
party
地质
海拔
壳
钢筋
光滑
学者
桃花
很强
however
解除
进展
酒精
future
无人
among
certain
实体
##康
商场
促
模拟
班子
书画
润
诗人
##雨
86
等到
志愿
##队
穿越
黑龙江
61
冠
花椒
―
点赞
福州
再也
绝
秘密
4000
喊
yet
校区
一番
供应商
口碑
丨
山水
收缩
之类
泰
possible
list
##万
杂
工商
##言
宠物
餐
锌
石头
means
难道
物资
容器
精密
店铺
人人
1998
宽度
医
党支部
叶子
用心
5日
益
control
不怕
承包
开车
借款
哈哈
深深
一会儿
早餐
##手
回去
线下
胎
烦恼
款式
咸
寻
屋
说说
扫
辖区
助力
大火
民主
铝合金
昨日
膏
##房
##音
多家
咬
local
稍微
残
威胁
齿轮
川
审理
表情
剧情
股权
大脑
事物
##建
community
##罗
拌
常务
兰州
肠
将于
税
叫做
en
升高
所属
##ic
真诚
month
登
理财
##胜
回归
拼
栋
野生
赚
social
亲自
沉
human
8日
遗产
偶尔
试点
##事
不多
几次
洪
##然
两位
不必
across
接口
一根
面包
主角
隧道
##世
债务
160
不论
##00
始
反馈
杂志
得以
老化
陌生
抹
reported
激发
县城
十九
取出
犬
遭遇
违反
thought
便捷
半个
算是
转型
研
读者
面部
茎
巨
英文
三十
##度
##迪
无奈
暨
低温
comes
油耗
潘
融
肺炎
携手
о
踩
十三
弟弟
不懂
留言
快捷
烫
given
贾
导向
广播
路段
感恩
堆
条例
董
赤
熊
善于
胸
前进
转动
某某
浏览
健全
咱们
吕
岩
年底
磷
合并
太阳能
烹饪
asked
卢
believe
身份证
枚
熬
一身
makes
民生
侯
##士
bit
荣耀
紧急
封闭
魔
增大
有害
难题
脉
颜值
market
gb
效
一首
机电
others
麦
单纯
编
可惜
爆发
大人
钢板
课题
##楼
色泽
members
板块
getting
档案
彩
漏
##灵
对接
享有
不变
水库
忘
富有
预期
john
养护
##泰
电动车
##博
客人
伤口
live
处置
矿
公平
百科
2万
风光
语文
白酒
浮
桩
89
赛事
problem
##叶
邓
替
动脉
纪委
##娜
机组
征收
氯
##ce
玫瑰
护栏
小儿
鸭
聊
平稳
袁
能否
耐心
静脉
匹配
鼻子
流通
身高
pay
连锁
原始
当代
成品
简约
秋天
尼
婚礼
解梦
将来
泰国
花卉
壁
哈尔滨
头部
代替
7日
##数
霜
蒋
石家庄
##岭
绝缘
##rs
寸
不出
长城
买房
灯光
92
内涵
购
舒
几种
##油
##白
利于
体检
安静
硬度
america
耳朵
全方位
82
标准化
窗口
噪音
弯
水利
胖
particular
另一
繁殖
振
芯片
孟
惠
黄河
木材
尼龙
如同
网易
行走
700
脂
仪表
##本
idea
传奇
looking
硬化
诸多
病变
打印
留学
去世
win
划
激励
响
妹妹
键
飞行
火灾
弹簧
issue
百年
生涯
承
回应
养成
这部
##忠
螺旋
轿车
朵
密切
向前
##角
肖
发作
老年人
雄厚
总统
渐
series
若干
ago
榜
运动员
信誉
凯
改装
救援
游泳
无疑
##图
作家
96
做成
started
available
幅
有序
氢
拜
嫌疑人
赶
攻略
##勇
日报
history
绘画
##员
nba
龙头
question
南宁
彭
冲洗
篮球
一杯
大幅
简
220
教室
##塘
的确
复制
洛阳
抓好
资质
无锡
惊喜
八字
##涛
显然
73
非洲
货车
振兴
看上去
初心
##期
胶囊
导演
##ies
导师
泡沫
小火
这条
远离
房源
精细
◆
almost
奥迪
专科
clear
觉
鼓
##市
花生
##高
喝水
只需
##工
影
move
following
零件
料酒
副作用
风机
74
颇
##雅
预示
帮忙
生气
外出
##丝
坑
吾
总书记
市政
pre
face
罐
直线
##衣
class
贷
钠
pc
together
手法
130
84
买卖
多大
钥匙
珠
帮扶
##粉
##哥
评分
trying
security
西藏
可能性
选购
##制
拍照
视野
##亮
拔
一阵
9日
71
tax
小时候
答案
再生
得知
湾
77
势
豆
家园
为止
伴随
晋
闹
演
恨
产后
厂房
摇
顺序
饰演
开发商
水质
摩擦
框架
崔
job
初期
along
腔
##景
一处
recent
也就是说
record
专辑
成效
说到
职位
##te
焊
农户
edit
工地
film
眼镜
危机
form
饼
read
area
检察院
帝
斑
辛辣
焦
用法
飘
不利
尤
容
##伦
承认
当初
等人
##ne
频繁
腹泻
决赛
勿
isn
其余
##区
御
81
6日
总会
旗
珍珠
导弹
发型
爆炸
experience
储存
多样
丰
两者
3d
教材
共计
职能
try
电视台
##秀
翻译
饮用
怀疑
秩序
added
走了
类别
遵守
##吉
79
辛
耐用
耕地
洽谈
±
燃气
拖
码
car
雕刻
编号
公示
deal
个体
##斌
83
行情
major
空中
遂
##纳
立体
白糖
靠近
##品
销
3日
西瓜
恩
匀
信息化
project
二人
善良
未经
风味
1997
签
库存
##素
佛教
纳入
中有
钾
沟
上传
##庆
遗憾
丹
##雪
##丰
锦
陪伴
供电
成语
歌手
球迷
##维
疏
食欲
anything
瓜
滚
海军
芯
为人
##某
潮
南昌
穷
原有
军人
经销商
##物
旗舰
后果
大奖
外界
提问
服饰
潜力
过后
st
老百姓
light
实习
生姜
激动
故意
夫
##骨
提起
说道
数控
兴奋
呕吐
勤
走到
走出
片区
事实上
young
高档
1200
主办
狼
填
周末
加拿大
筋
外部
##号
##部
东南
贫困户
雾
一组
淘宝
磨损
面板
记住
欢乐
晓
白云
喝酒
##皮
己
极为
楚
优异
鼠
模
正好
内科
弯曲
客观
saying
命名
疯狂
强制
家电
满满
火车
足以
##远
fire
运转
愉快
局面
购房
列车
停车场
立刻
接待
介质
本品
缺陷
寄
曲线
存款
尚未
压缩
没事
〔
这场
出台
振动
矣
拿着
反对
脾
威
链接
4日
精选
##为
替代
彩色
控股
turn
实地
翡翠
车站
140
统筹
询问
到处
##st
地处
烂
co
〕
随便
##in
开通
扩张
头痛
裂
解毒
五行
温州
##二
贝
草原
low
taken
着力
##合
敷
若是
染
偷
wanted
老年
main
富含
恒
账户
previous
##man
化合物
禁
除外
肝脏
这家
实木
china
上方
泪
姚
用力
behind
二手房
会上
至上
pro
military
发射
太原
肠道
##果
##宫
扬
响应
##草
物体
尊
1万
qq
以往
担保
##盘
丰田
3万
必备
大方
single
做事
供给
村里
乘客
百货
87
body
一点点
探讨
肠胃
##岛
碱
被告人
打破
cm
player
1996
林业
齿
秘书长
新年
甲醛
用人
领取
study
年纪
##俊
嘉宾
大厦
离子
职
##火
rather
宇宙
管理局
≤
air
那时
才有
占据
亮点
north
访问
350
延续
一群
遵循
court
strong
好用
东部
毫无
遭
同期
癌症
订单
woman
通行
作物
周公
之日
测定
渗透
平常
原材料
检
观赏
bad
转向
来讲
水晶
上级
摄入
探
全年
##球
最小
钢铁
black
添
model
是从
村庄
违规
拿出
情形
骨折
中毒
以内
现任
电阻
宗教
##鹏
service
肩
##有
缓慢
^
紧密
组建
bring
##字
幸运
真心
办事处
长得
遇见
笔者
policy
导
97
室外
纵
clinton
回报
汗
##诺
情节
存储
侧面
遗址
夜间
上学
长春
开设
板材
凤
无线
##昌
小姐
主力
政协
立足
春季
西班牙
厂商
入住
姐妹
气氛
功夫
阀门
气血
二手
脾胃
someone
##流
##虎
reason
接到
洛
最初
积分
搭建
氏
##病
下跌
不忘
电磁
竭诚
说了
##如
诞生
program
扶
taking
珍贵
犹
恒大
大街
全世界
plan
生动
膨胀
聚集
##意
一同
举措
93
##率
national
线上
监察
星座
用水
增多
夫人
方针
潮流
财运
菩萨
##米
质地
##燕
入选
很久
发言
钓
民营
阵容
浇
大自然
风情
审计
一刻
班级
三星
short
wide
荣
相处
受理
nothing
一股
points
汽油
中小
参
冒
涂抹
愈
持有
痰
保湿
二级
劲
陪
防守
##岩
正面
士
刹车
俱
进程
团体
筑
anti
钻石
front
直销
信念
##团
和你
5g
自从
索
建筑物
six
##都
逢
渣
多多
##歌
##智
小麦
运作
第七
凤凰
器官
柴油
狂
退出
land
家属
probably
以此
踏
明年
完毕
生于
汪
争议
诚
之上
互
烧烤
澳大
宿舍
颜
参赛
堵塞
千年
奉
写作
告知
竞赛
投诉
车子
楼梯
细致
91
洗澡
协同
权威
凌晨
浓郁
假如
姿势
牢固
日益
疗法
短期
##来
隐藏
蒸汽
诺
越南
安全性
克服
射
##佳
主导
##无
全自动
##able
##洋
丽
教程
筒
防范
分局
牌子
脱落
终端
见过
治愈
无比
逆
whole
四季
内外
补助
放下
黄瓜
##谷
臂
按钮
峰
码头
流传
create
协作
公务员
国民
尝
##刚
圆满
##局
湿地
true
不止
解析
##ation
主持人
图书馆
影视
旅客
礼品
6000
排查
国土
贺
弘扬
事务
理工
##ble
马力
white
政
授予
##费
有益
光泽
乳房
萧
1995
新款
а
迷
般的
涵盖
落后
key
washington
嗯
通报
third
##群
特定
光明
火箭
频道
action
配送
公元
##相
##茶
得了
一时
rights
重试
床上
指示
起诉
框
either
引入
death
场合
due
##厂
挖掘
精美
mean
前行
搬
外表
##霞
##站
所在地
静电
划分
古城
隐私
之人
壮大
战士
截止
精英
不起
##曼
免疫力
衰老
母乳
主张
极其
人次
工作者
过年
对面
摘
平凡
е
##可
远远
车内
##型
均衡
勇敢
大蒜
research
糯米
##剂
清淡
开业
共赢
##um
驾驶员
顶级
decision
要素
温泉
公交车
硅
缴费
伏
清华
羊肉
误
##超
##运
树木
纪
##雷
##身
##贤
饱满
food
皇后
本质
##客
当下
一类
制冷
之际
出处
result
币
##盛
浇水
病例
中级
移民
微量
缩短
预约
红枣
癌
合作社
申
四周
接头
á
抵
惊
墓
战胜
陆续
结论
爱国
hit
##界
想着
脏
燕
tv
钩
稀
##才
创始人
##ch
阴阳
wrote
后续
缸
繁华
姓名
命令
stop
党组织
##小
串
##帝
pvc
征
普及
妙
闲
疫苗
紧紧
纺织
##开
燃料
裤
全区
新加坡
##剑
乃至
孤独
lv
失眠
主流
机体
可怕
腹
8万
毫升
office
宾馆
进而
古老
含义
赋
相反
碧
一大
federal
默默
害
魂
金钱
further
发布会
我校
全村
everything
南部
发烧
赖
转速
桃
牺牲
学期
溶
这时候
修建
伊朗
水面
##晓
蜜
誉为
attack
差别
社保
分开
民国
艺
常委会
见证
导航
##集
香蕉
这份
势力
精力
化妆
蛮
matter
issues
遭到
镀锌
产能
朝阳
涉嫌
一遍
周岁
##九
石材
分散
散发
包裹
质感
听取
高峰
悬挂
只会
依照
看法
总之
春秋
实时
多项
供水
掌
phone
大批
平行
乐观
想想
seems
得分
##表
前列腺
为准
旅
value
萝卜
吉利
一一
第1
任意
评选
新兴
##姆
tell
饭店
工序
风雨
硬件
贫血
仓库
调料
乔
##菜
注入
童年
##丹
交叉
降温
聊天
不受
早晨
协商
##亭
##池
热烈
录
role
不妨
致富
依赖
北部
主演
term
佩戴
邪
充
劳
吃完
##传
进来
无效
舍
released
油脂
洒
companies
facebook
步行
##ry
勇士
手里
使人
权力
机油
er
是用
庆
##联
上线
小小的
running
实惠
寒冷
目光
125
元件
各国
south
cost
扶持
活跃
上半年
甲状腺
走访
开口
大夫
view
中部
一眼
test
组长
润滑
比喻
##战
al
古典
帅
一侧
陷入
行车
美白
走过
恶心
浆
hold
一分
炮
##ve
有钱
勇气
##na
图像
common
信赖
上门
监
outside
students
伸
above
卫星
鞋子
增生
核桃
庄
发动
单一
轻易
块钱
平板
爱好者
操
备案
搬迁
制造业
沉淀
京东
后悔
google
寓意
similar
饲养
桂
##顺
两边
twitter
重要性
身心
##进
began
四年
room
##ment
函数
两岸
播种
饺子
self
依次
officials
hours
之时
return
罚款
之内
94
##沙
愁
生病
面料
无力
草莓
考验
中介
迎接
à
门诊
不让
格栅
复发
对话
整形
演讲
航天
行程
女神
provide
构造
version
科学家
幼
分手
秋季
螺栓
车道
批评
村委会
④
大米
statement
万吨
building
冲突
丑
一会
##玲
每周
器械
体温
遗传
抛
直至
仓
##珠
##名
财经
优越
骄傲
##秋
梨
##仙
户口
捏
forward
定做
吊顶
development
借助
一手
himself
##凤
贵阳
痒
相机
##嘉
说起
access
同行
election
就诊
吸附
薛
evidence
送给
##北
问答
业内
珠宝
郡
天然气
##鑫
艺术家
continue
闪
垂
信用卡
尴尬
认知
##伯
堵
itself
解读
##官
爱上
code
商铺
##府
##女
界面
仁
排骨
万物
lead
多万
兮
星期
不当
id
光线
##洞
良
い
站点
pe
一两
性别
制动
talk
逻辑
数码
themselves
动手
泉
乾隆
一度
##主
一双
##带
##前
走路
外壳
##影
岗
霍
碰撞
月亮
逃
右侧
include
病因
率先
late
general
订
番茄
毒品
百度
age
亮相
美的
simply
排列
雨水
一共
##柱
绝不
特种
saw
countries
南瓜
小学生
音响
##毛
主场
缺少
field
两条
##井
猴
香菇
##静
淋
event
新生
诚实
干扰
release
sense
##宏
near
涉
承办
针对性
##时
剧中
##节
煤炭
水肿
mind
##政
1994
z
萌
枸杞
抵押
##四
层面
##刀
热水器
整齐
捞
抱着
青睐
紫外线
青海
groups
那天
悠久
聚焦
商贸
energy
获悉
活血
final
放到
敬
羡慕
洋
种种
化解
香气
生抽
奇怪
骂
##tion
everyone
##港
禁忌
绝大
隐
材
护士
上课
外墙
温和
拳
幅度
奶茶
##情
加水
1993
min
塑造
盈利
口罩
playing
海上
position
坚守
战场
##汉
黑暗
获奖
especially
最强
悬
乎
##洲
境
模板
可口
度过
负荷
饿
needs
热闹
外国
多人
played
江湖
油漆
##ia
官员
面团
##礼
west
乐趣
织
site
微生物
承载
##萍
认
荐
价值观
撞
教育部
友谊
脆
##干
原文
反正
社交
中医药
世界杯
殿
水电
##药
扬州
徐州
抬
冷冻
休
波动
腻
shows
中原
机床
之家
古人
叠
颈
##洛
视为
躲
随机
不像
败
众人
自家
相连
窗户
前方
三国
似的
below
page
pretty
交换
大棚
扭矩
境界
巩固
燃油
葡萄酒
存放
农药
氨基酸
氟
大海
结算
##院
冻
画家
迁
economic
只不过
##ity
尘
明亮
传媒
总量
骨干
1992
胆固醇
公民
跌
时机
quite
证实
哲学
艰难
扔
册
и
洋葱
平整
##营
天使
se
增添
曹操
调味
常年
企业家
左侧
还款
##ra
看完
入手
##土
吉祥
经费
切除
露出
助理
长久
ii
出场
不算
羽
综合性
不动
鲜明
##室
接收
简洁
农历
march
越野
本案
industry
lost
溶解
##岗
客运
眼泪
庙
难得
陪同
2日
杀菌
实业
巧
西亚
##善
else
灾害
##se
改为
二期
两大
##普
雄
奔
force
##关
宏
腌制
鲜花
总额
##虫
底盘
孤
年限
##诚
ability
dis
商标
online
##定
##ty
滋润
结局
坐落
潮湿
高原
起步
巴西
顶部
私
塑胶
加以
眼中
里程
水箱
年间
决心
held
鸡肉
谨慎
喷涂
报考
深厚
8000
徒刑
辅导
笑容
内分泌
镁
一夜
天生
粮
山药
税务
珠海
比如说
味精
样品
冷水
##族
恐怖
皇
只好
不幸
10000
樱桃
一页
任职
煤矿
十六
广阔
##八
美景
侵权
深处
不清
毛巾
健
节点
凌
概率
##巴
instead
尺
固体
反射
要点
对着
绳
庆祝
丢
度假
第2
宁夏
卵
##隆
迈
##年
创立
发票
tee
螺丝
跑步
发送
剂量
电线
教育局
脾气
shot
景色
富贵
护肤
水管
上火
vote
捞出
祖
member
中等
哪怕
步伐
支队
build
人事
有利
淘汰
漫画
##酒
交付
用料
行人
900
规
食堂
第八
##命
眼里
愿望
农家
首选
芝麻
ct
武装
早日
又名
书籍
亲人
演绎
扩展
像是
座谈会
与其
以便
智能化
私人
工艺品
苏联
无缝
渴望
新浪
工作室
诗歌
鸿
琴
识
来临
气味
脱水
所得
rate
缩
夜晚
sh
最快
刚好
油腻
溃疡
收取
英寸
色素
我省
回头
##凯
讲座
谋
亭
高手
一轮
重庆市
特有
模范
大战
人心
酸奶
关爱
中考
泽
过高
碰到
称之为
住在
磁
旨在
serious
多名
友好
还原
##ie
柴
special
仓储
大灯
敌
滤
br
切片
停留
控制器
门店
民众
返
信仰
一幅
大事
隔热
##后
散热
要么
民俗
##保
recently
烟台
size
##边
跟随
劳动者
童
创办
廉政
##章
墙体
尽可能
春风
换乘
数据库
weeks
肥胖
书写
促销
士兵
ways
舌
下滑
储备
租房
赋予
灰色
june
港口
船舶
玄
高低
唯
##梦
果然
流水
花朵
changes
##希
方向盘
寂寞
斯坦
首都
这边
巴黎
跟踪
不对
执
植株
彰显
税收
科室
间隔
保暖
五大
雕塑
≥
6万
杆菌
电信
传输
鹿
easy
牢记
伞
##五
拉开
星级
臭
瓷
wrong
茄子
头晕
手上
产业链
破碎
灌
longer
力求
understand
区委
朝鲜
历程
department
es
桂林
fight
妊娠
变压器
某种
发光
##健
rest
official
##托
瘤
一所
路边
再来
via
施肥
强势
载体
升降
劝
面条
出自
word
失望
货运
分数
效力
浸
苗木
看似
在内
防御
##加
##报
沿着
少吃
硫
身影
欧美
拿下
万达
##琳
诗词
大胆
窝
words
新人
发起
工会
终身
逼
奥运会
焦虑
##灯
确
固化
很长
酷
不说
撑
钢材
巧克力
保鲜
欠
告
xx
坚实
article
犹如
割
间隙
买到
理事
出国
忽略
鑫
中式
礼仪
##莲
影像
患有
拍卖
child
source
higher
蝴蝶
法治
呵呵
step
定价
当日
三角
potential
西红柿
老家
从未
现货
太子
全民
启
科学院
##动
##锋
父
##珍
首批
老鼠
july
处处
##钢
表彰
孕期
手表
券
脖子
丙
精装
太平
接地
阿姨
哟
腐败
1990
music
亲爱
甜蜜
不满
##铁
邻居
评审
温水
越大
演唱
付款
难受
衣柜
眼神
名人
长寿
蓝天
踢
好转
增速
格外
猛
##莉
产地
##冰
恶性
内地
##顿
期望
加班
留在
体力
对抗
孕育
壮
##商
ai
柔
队长
暴露
浪
列入
予
砂浆
抗日
清爽
最爱
穿过
杂质
ā
隔音
柠檬
一笔
technology
醇
凶
苯
works
ceo
康熙
径
猫咪
全家
造价
思念
##陵
交给
billion
##慧
浓厚
随之
对称
筛
碰
调解
做得
阻止
帝国
results
编织
做人
语音
见面
出资
投票
##丁
王子
services
指南
移植
活泼
交往
肥料
颁发
远程
忽然
个别
##雄
市级
孝
friends
文档
总有
俄
视力
这项
动画
##永
##浩
防晒
##包
original
组件
受损
趁
化学品
田园
韵
当今
private
惠州
警
回顾
助攻
la
痕迹
密码
晚期
cut
花费
毒素
桑
饮水
##派
漫
##处
习
溶剂
不上
灰尘
标识
赠
发货
宝贵
email
##条
好奇
既有
粤
商城
梅花
##尾
山区
采摘
##艺
验证
ic
外地
闭
放大
假期
created
情怀
困扰
龟
应有
给出
豪
玻璃钢
关联
minutes
anyone
暴力
计量
呆
##见
俗称
冠状
share
极高
在职
ps
常州
nation
队友
缓
古镇
王者
god
旋
钢琴
冰糖
复查
##甲
纪录
国防
打工
沾
发自
一下子
脚步
临沂
一头
档次
##琴
之旅
灿烂
黎
份额
饰品
湿润
隆
帽
疏通
洗衣机
解放军
南海
##词
爸
希
寿
环氧
##轩
向往
勺
百万
##空
疑问
眉
湿疹
植
马路
金色
限度
十多
friday
越多
##庙
天上
矿山
贯穿
工伤
数十
整车
sex
只见
不已
吃过
son
悦
播出
伸缩
詹姆斯
询价
事务所
牡丹
红旗
还好
expected
下车
红军
##邦
т
april
##脚
国庆
联动
首届
fans
爱好
##富
褐色
倾斜
孔子
##六
起床
很小
bill
勾
earlier
整洁
播
职称
套装
附件
常识
伤心
粗糙
add
received
н
注定
沪
篮板
酥
##底
##镇
多余
县长
伴有
奠定
soon
有望
戒
熏
麻辣
熟练
向下
##j
轻微
萨
品尝
治安
##喜
晶
务实
谭
快来
##爱
日军
菊花
清香
螺纹
韦
过大
链条
total
刺激性
几率
450
潍坊
女友
极限
仿
预警
problems
震
搓
钉
大规模
##瓦
科普
ground
有毒
蟹
泛
幽
##食
##惠
零食
弃
低调
处分
动员
观光
拼搏
肉质
翠
沙漠
announced
荷兰
粉末
cannot
不愿
卧
直流
守护
首付
hope
gun
interest
##外
传达
寻求
河道
##理
饱
##牌
独自
热点
increase
paul
姿态
russia
好事
铅
氮
插入
呼
额度
##贵
傅
退役
公顷
逐
弟子
题目
着急
醒
launch
薄膜
未能
个性化
壶
101
胸部
san
##坪
人参
ship
窗帘
去皮
手臂
##ar
市面
此后
亲切
è
questions
大豆
取代
罩
排行榜
以人为本
签署
乳腺
后者
血脂
劳务
止痛
重建
匹
滋味
右手
分期
鸣
区分
android
involved
忠诚
馒头
二维码
cd
截
饮酒
国道
##炎
班主任
新品
risk
##肉
泉州
答应
塑
首席
忍不住
##梁
同类
被动
纲
口气
长达
170
response
##七
莲
穿上
中年
一碗
区间
品味
monday
越好
灯具
水上
水泵
沥青
content
清单
橱柜
##nt
小孩子
枢纽
entire
描写
儿女
光伏
添加剂
感应
personal
扩散
台阶
阵
法人
窑
严谨
下次
餐桌
##祖
毛孔
地毯
斩
紫色
排气
抛光
处长
初级
健脾
不下
拨
模糊
高大
南路
legal
停电
历经
关怀
average
熬夜
本田
公式
途中
县级
畸形
阻
inside
##卫
david
修剪
##q
持久
送到
小便
绩效
废水
nearly
突发
严禁
外套
allow
##牙
price
不去
肿
一副
共创
地域
流失
书面
##re
总面积
结晶
源于
狮子
密集
气象
乐园
官兵
易于
living
慰问
全长
时节
tuesday
史上
大厅
##形
督导
纽约
凝聚
扇
涡轮
压缩机
美人
灌溉
摩
尹
河流
草坪
坦克
日用
促使
workers
岳
##升
涂层
可怜
救助
巷
严肃
填充
新颖
延
##堡
leave
##比
清代
防爆
毕
##曲
运气
##服
审美
力争
番
单身
鹅
心血管
cases
岂
顿
合资
director
##史
亲戚
窄
沿海
活着
总监
##艳
屋顶
打磨
楼层
平静
##论
增压
race
真相
沿线
路径
夫妇
105
##寨
##经
扮演
中期
international
塘
住宿
突
聚乙烯
##诗
design
矿物质
##is
■
击
##教
青山
世间
追究
##洁
check
奇迹
倾
晴
##欣
鲜艳
繁荣
新一代
公正
这段
effect
##位
医学院
users
☆
省市
恶劣
扫描
华夏
水稻
起源
published
例子
坡
独家
毛泽东
1988
东路
鲜美
##标
总理
新房
邦
240
纳米
流畅
##ous
津
大致
超高
查处
1984
捧
##豪
适
fall
经济学
takes
采光
红薯
旺盛
爽
芽
锡
借鉴
focus
文献
break
goal
增值税
amount
职场
忽视
抢救
图形
喂养
关键词
菇
肯
不吃
要看
变动
锅里
敲
驾
承接
共建
本土
两端
妻
也都
腐
棵
三人
莱
女孩子
##ton
辞
蘑菇
续
vs
韭菜
因子
填写
馅
水源
4万
化疗
挤压
moment
看好
五十
##能
一百
吃药
避
臣
reports
worked
从业
##勒
阁
要用
选举
立方米
清朝
残留
十四
董事
每人
菜谱
user
##库
##老
发电机
男友
提示
空军
柏
新生儿
image
迷人
丝毫
序
一丝
killed
督查
之心
小小
兽
瓣
捐赠
##其
进食
击败
瑜伽
有期
帅气
小的
调试
join
占用
湘
糊
多元
页面
婚
热带
##作
偶
溪
模样
西湖
竖
艺人
置于
difficult
献花
米饭
谈判
医科
娘
哪家
点缀
##旺
board
商品房
藤
大腿
女排
左手
卫视
脱离
堪称
##仪
坊
terms
日照
隆重
祭
期货
客车
傻
明明
popular
大楼
两国
阻力
地段
因其
安慰
标题
地坪
带给
ip
娃娃
夺
罗马
猜
过户
践行
简书
背部
农场
捡
国王
##黄
1991
街头
平等
首发
financial
短暂
production
开创
september
oil
人格
释
海水
扑
推行
西路
##重
先锋
专业化
watch
籍
协
0t
january
嫁
砸
某个
press
烈士
图纸
词语
透过
占有
外文
好运
异味
处理器
永久
net
相遇
宅
东京
荷
理性
dc
gave
综
流产
额定
如意
加固
知名度
喇叭
goes
拼音
公分
裹
dna
中小学
铸造
走势
照射
意志
娶
服务业
恐怕
按时
欧式
##斗
王朝
天堂
可靠性
character
也好
告别
gdp
过得
##洪
电动机
windows
宣
分割
角落
流域
style
租金
火爆
两只
双向
股价
颈部
战役
宁静
饱和
马来
##竹
光照
崛起
工件
出汗
cc
抗生素
毁
多元化
金黄
携
去掉
高山
妇科
##轮
申请人
勒
低价
握
配料
故乡
大面积
剧烈
##el
遭受
葛
氨
ch
多月
马桶
水温
产物
star
债券
该车
东南亚
²
decided
global
济宁
后排
相继
低压
铺设
ad
赞赏
细心
whose
支部
trade
污
拘留
november
误差
央视
situation
除恶
进球
有名
游玩
病理
专属
turned
头上
μ
警告
支气管
检察
上部
可不
canada
该村
等着
一顿
选项
扫黑
庭院
电网
蚂蚁
european
没人
小康
扣除
畅
simple
栏目
offer
2500
强劲
file
辅料
不等
performance
庭
刚才
冶金
调控
打出
户籍
chance
辅
倡导
##出
泰山
happened
忙碌
补水
办事
庞大
108
习俗
隶属
sent
宿
安心
赶到
拌匀
super
液晶
##ness
献
烘干
更快
审判
消炎
翼
洗涤
绿地
做工
酯
仲裁
情侣
##原
句子
济
built
证件
审
动漫
##航
august
uk
呼吸道
1985
千里
荷花
复习
通透
heart
明朝
统
说明书
保安
用作
í
兔子
之道
比重
第九
看不到
横向
集韵
盲目
有无
##班
四肢
lives
海口
说出
风景区
ac
##ling
操控
花瓣
felt
衣物
ì
棉花
强力
业界
sunday
劳动力
技艺
period
国际化
events
各种各样
就让
早就
亡
##郎
stand
日记
wednesday
怒
投放
苑
精确
中标
不爱
无关
喷雾
资
终点
##翔
噪声
唇
宠
几百
ally
吸烟
##坡
搜
法兰
thursday
##坝
微微
解说
##农
梦境
主机
出于
staff
meeting
筷子
人身
并发症
plans
外用
菜品
##苑
october
华丽
山上
汽
administration
敬业
唐代
杀死
车上
israel
缩小
矫正
质疑
妆
构件
格式
媳妇
装配
注明
teams
忽
##ting
拉伸
经销
符号
不成
上演
柯
溢
california
heard
russian
挂牌
组装
星星
全场
本站
育
##纸
实战
烤箱
##ge
碑
保洁
##架
嘴里
apple
君子
栏
竣工
大片
统治
光源
舰
勇于
制备
抱怨
分成
百合
痘痘
膳食
酸性
净利润
一圈
联想
球场
邱
每当
british
couple
鼎
师资
1989
白菜
123
此类
career
数额
席
北路
骑士
耳机
手感
##th
残疾人
敢于
惹
精湛
congress
胆
引擎
##ts
致使
##步
排队
切换
卵巢
岩石
宣传部
总数
areas
喜悦
肾脏
自制
热线
##同
赠送
穴位
驾驶证
永恒
本届
明代
样式
用到
盐水
##证
主料
##ter
毫克
卓
挺好
清晨
困
蒙古
心思
倾向
平原
洁净
介入
明月
桌
135
pick
狭窄
significant
损
蛋黄
过渡
骗
梳理
省内
复兴
nt
认同
consider
螺
题材
穆
##电
一中
亏损
合一
开学
醒来
亏
自来水
中医院
##全
监狱
态
共产
夏日
##广
出具
伯
千米
account
躺在
演技
range
汉语
首饰
同年
michael
##姓
霸气
抵抗
战术
##鸡
に
1986
胡椒粉
笼
压迫
##ism
本市
保护区
恐惧
##耳
绿豆
栽
numbers
quickly
谱
处在
小事
诠释
督促
嘴巴
冷藏
art
简便
侵犯
钓鱼
贵人
莲花
三月
登上
水位
制药
street
滑动
总局
pass
##得
执着
字母
铸
撤销
暑假
桌子
指甲
聚会
##味
瀑布
europe
绽放
##真
128
郎
大专
present
##落
华南
头脑
生死
##所
##船
石膏
武术
##系
欲望
入学
##印
##舞
##野
战队
护肤品
##案
摆脱
economy
坚固
合影
金刚
代理人
town
cr
姐
考研
做饭
牢
1987
foreign
屈
mother
慈善
donald
摔
地带
爱人
悲伤
website
定时
忍
4s
为之
智力
cause
包子
氧气
老虎
比分
不限
网红
收纳
心疼
医保
用电
##阁
土巴
腹痛
四十
硅胶
dr
裙
航
虚弱
http
base
常态
腰椎
重组
ball
超出
海绵
spent
allowed
丧失
贴心
妖
network
打印机
正如
景象
催
破裂
院士
就医
做起
胃肠
fore
痣
甘草
情景
鉴别
##鸿
勤奋
bly
香油
round
几点
related
跨越
紧凑
天赋
李白
落户
##韵
透气
##振
难忘
mc
##da
挥
growth
置业
movement
游览
源头
##钱
wants
进取
å
##感
胶原
с
墙壁
两名
时常
##术
##彩
内存
讨厌
唱歌
##娟
诱发
included
雷达
##话
皮革
december
##琪
knew
##50
无毒
澳洲
中队
线索
扁
摊
seem
灶
间距
药材
出租车
再度
煲
皮带
上帝
检修
gets
疑
美军
し
帽子
永不
在外
中旬
不予
happen
center
地形
事迹
润滑油
特朗普
国民党
积极性
技
分裂
紊乱
危
抵达
training
弥补
名为
肉类
前沿
##牛
奶油
精灵
芒果
第3
生效
森
完工
大哥
减速
huge
余额
木质
language
population
国籍
削
焉
看得
结石
山楂
extra
立场
好玩
众生
新手
tried
买家
悄悄
attention
morning
诊疗
愈合
取决于
脸部
瑞士
唐山
积水
lower
方位
枕
燃
india
剥
勇
光学
金牌
名义
##辰
修补
花开
过滤器
额外
出身
神话
分明
穗
亲子
议
那边
##饭
覆
looks
立马
凝
从不
宝石
safe
走上
刘备
james
场面
锁定
##ck
加点
杰出
li
perfect
leading
forces
背面
海关
门前
皇家
father
约束
##露
岭
符
昌
诸葛亮
资助
worth
粉碎
various
伦敦
出手
leader
畅销
km
正宗
な
裂缝
监理
##容
medical
闷
会展
百分点
最长
难过
impact
焦点
迪
##单
柔和
澳门
吐槽
304
弦
葫芦
specific
爱吃
命中
`
内在
眼光
绣
南通
暴
观音
配上
参照
何时
逛
越高
##鲁
靠谱
车位
##模
反弹
彼
大理石
赐
懒
pp
清凉
香菜
合计
秋冬
match
曼
搞笑
实物
paper
县政府
分工
分数线
##玛
风采
粽子
brought
不佳
叹
遗
##mm
警示
著作
风湿
##de
##son
##连
##扬
玛
整天
##程
政务
吃到
日期
妹子
总决赛
水产
沥
贵族
镜子
follow
senate
必定
万多
115
首个
法师
束
##润
纠正
忘了
本草
从中
可乐
太过
应力
硫酸
南阳
written
早晚
切断
叔叔
演练
抬头
被子
fun
upon
绿茶
隔断
益气
童话
保定
立案
ー
##坤
综艺
态势
成份
晚会
##ma
##料
储
帖
芹菜
##饼
震撼
心理学
悲
贼
做梦
五月
热度
分管
下雨
过量
惊人
两款
一来
仙女
法官
regular
商店
新陈代谢
210
艘
拆卸
食盐
脚下
门票
廖
月饼
interview
自带
放进
尊敬
转身
帕
た
增收
手套
稀释
电容
systems
问我
素养
answer
家装
喜好
甩
怎
管控
难免
开门
纠结
腾讯
红糖
搞定
后人
魔法
省政府
简易
幻想
杀人
定点
南山
当场
号码
过分
涨幅
倒是
路程
€
失误
三亚
rules
图文
油炸
club
太平洋
三角形
萎缩
##观
囊
##少
收录
价位
address
学士
##母
talking
act
1980
擦拭
列为
身后
触
咱
除去
双重
衔接
quality
外侧
所长
运费
梦中
黄山
商会
千克
皱纹
花纹
变为
变色
候
逾期
授
登陆
##鸟
##死
入户
资深
##于
修养
当归
展会
疾
扭
膝盖
模仿
screen
衰
迟
此事
互利
纱
法庭
摘要
seven
##若
再说
规范化
弓
罕见
土耳其
华人
腰部
少于
自有
炎热
忧
右边
籽
半岛
侦查
惟
堆积
阻碍
london
搬家
活塞
桂花
插座
##臣
latest
翅膀
黑白
毛病
buy
##非
人际
道菜
眼部
通车
features
##馆
不应
拥抱
章节
##针
遍布
传来
偶然
出演
脉冲
光电
补肾
learn
左边
示意图
子公司
挫折
5mm
从严
leaders
要说
county
恋
paid
药用
保守
鱼类
粉尘
friend
mg
面貌
所得税
人性化
parts
颁奖
联合国
##功
心脏病
变革
高尔夫
邻
天才
wise
纪检
defense
裁定
蒸发
辊
钻研
男士
登场
##膜
approach
咽
##户
hands
р
骨头
充实
saturday
福特
减小
的那
裤子
买车
光荣
##朝
高空
人造
自杀
ex
契机
function
渡
绍兴
##芬
供应链
菊
失调
店面
制剂
分之
火焰
中路
##鸣
message
党中央
模特
服务器
澳
报销
关节炎
运动会
咽喉
神仙
批量
幢
矮
230
て
研究员
##百
##ta
欢
劳累
邹
焖
先用
消灭
菜肴
生猪
二手车
乾
暂停
浓缩
正义
开采
钛
决
目的地
出让
针灸
science
##装
##内
举报
罚
不便
锂
煞
环卫
conside
1800
熊猫
清澈
##画
内侧
addition
激活
特产
凸显
痔疮
中外
##铭
防疫
彩虹
individual
路灯
院子
支付宝
产妇
##古
判处
##贝
east
sign
第十
尤为
levels
带头
##奥
惊艳
除非
虽说
中秋
毒性
农田
##莱
机型
##柳
婴幼儿
##怀
下部
守信
膝
螺杆
优选
band
新华
潜在
适中
##圈
大声
欧盟
高贵
烦
朗
竞
顶端
不小
路况
邮政
1983
幸
当成
##圣
菜单
下班
一波
investigation
##屋
心肌
顿时
在意
堡
气势
即是
调动
##分
##入
1982
##实
居家
photo
320
改良
断裂
心得
漏水
speed
##镜
葡萄糖
极致
##哲
calls
防滑
撕
##毅
抵抗力
小龙虾
果树
农作物
text
increasing
数值
修理
韧性
人和
花钱
280
往下
##照
胺
##登
climate
stay
人为
培训班
刑
complete
jobs
落叶
changed
伍
嚼
门槛
货架
粉色
贤
乐器
在线
poor
正当
盖上
road
概况
终止
风扇
底座
绘
##婷
##索
裁判
铸铁
原装
包容
首位
高分子
上网
蹲
蜡
掉了
已是
致辞
轴距
拿起
med
quarter
频
##ley
##目
parents
主编
相传
summer
条款
负载
chinese
煮熟
洁
不懈
奏
usb
自助
violence
正月
商用
一笑
息
椒
责任感
慧
5亿
260
bar
小人
潜
试图
地铁站
##妮
##庭
completely
##益
空白
雕
success
下半年
万亩
drug
万人
温室
##la
气动
卫生院
##less
描绘
et
华东
聚氨酯
底线
远方
淘
丝绸
上诉
缝隙
product
壁纸
る
到期
##鬼
##令
基部
贪
短信
力学
比亚迪
枣
##箱
两面
续航
guy
writing
管委会
majority
##伊
##旭
邵
葱花
ok
despite
拒
达标
##ey
天猫
isbn
搬运
制造商
##种
不准
算法
笑着
鼻炎
小腿
凸
疤痕
疏松
开阔
歌声
教训
汉字
钢丝
长途
尾巴
雪花
综合征
##类
进气
相差
砍
闯
二十四
受益
抓获
store
effort
涌
产业化
write
middle
组织部
attacks
带走
─
gas
名家
耗
##菲
本周
清明
购车
interesting
导轨
牵
希腊
仔
芳
病症
##社
网页
february
必将
始建
不及
##羽
obvious
杜绝
儿科
口水
感悟
一万
哪种
万里
感叹
date
代价
##ive
zhou
集合
牵引
eight
风口
石化
##货
爸妈
养老金
韵会
碱性
##酸
仿真
屁股
本场
park
culture
只想
蓄电池
戏剧
年初
妙招
寨
过硬
枯
biggest
阶级
##存
防潮
樱花
无人机
下属
螃蟹
天涯
##锦
淡淡的
抗体
瘦肉
编写
society
幽默
脆弱
黄豆
偶像
although
中性
俗
按键
web
台风
党校
伸出
带上
乙肝
新华社
##治
##笑
##ted
乙烯
外来
车库
耶
league
王国
南站
补血
娃
claims
##晨
dead
sometimes
同一个
药店
万科
漫长
不明
步入
肺癌
刀具
夸张
mark
期刊
铲
发扬
极端
路过
自驾
growing
历
眼球
白癜风
考古
opportunity
##乡
暴雨
##笔
##修
友情
沙滩
##足
三层
燥
出道
孵化
sound
附加
法制
区块
alone
尾部
集装箱
途经
回合
note
巅峰
女朋友
expect
products
禁毒
呵护
118
##毒
得不到
zh
红外
规矩
晨
摄像头
stuff
好坏
锰
而后
中东
宇
混乱
淄博
这块
菠菜
新村
required
##卿
met
##太
赶快
滤芯
##坑
雷锋
咋
欧元
分支
movie
##冬
随即
特意
销售额
水里
事宜
##办
ready
灵感
不安
质检
律
只为
named
近视
避开
国家队
印发
exactly
described
三四
scene
ī
thinking
超声
几千
基准
合力
北站
玩法
筛选
vip
湖人
使用权
保卫
偿还
豆浆
没什么
入门
cn
棕色
调度
责
fast
红豆
薪酬
商圈
畅通
收拾
practice
壹
众所周知
疗程
和尚
披露
诊治
giving
主打
渔
腿部
△
轮廓
##环
间接
争夺
开幕
century
出院
十七
男篮
『
ap
挖掘机
复古
转账
想必
texas
代表性
闻名
鸡精
美化
脑袋
讨
世人
骨质
happy
唯有
一小
行政村
艳
##菊
佐
酮
卫浴
高清
诱惑
对不起
伪
身为
』
过往
##彬
抗战
囊肿
滨海
##朗
##用
card
玩耍
影片
分行
巧妙
内置
树叶
汽车站
机身
埃
fully
虚拟
太高
多长
深情
网点
烟花
列表
刑法
##恒
出土
natural
一枚
piece
嫁给
阔
touch
逸
looked
开盘
其他人
£
日产
stories
眉毛
finally
等一
沉默
航母
几何
沐浴
necessary
民用
备受
邯郸
##ns
education
朴
止咳
色调
股市
officers
代理商
大树
pm
果汁
汗水
新娘
担
座位
学子
半导体
##悦
sort
details
102
水准
劫
心动
止血
民办
吸入
##蒂
华北
老大
直观
感慨
起伏
好听
清醒
届时
##ist
难点
下肢
宪法
starting
学费
务
极了
aren
先行
fan
余年
multiple
阿里
provided
人性
冒险
油画
二者
gong
气泡
democratic
例外
妇幼
hour
##满
胃炎
再见
丛
风貌
架构
六月
饼干
dly
当作
排毒
引用
不来
stage
此人
视线
box
墙上
inter
演唱会
income
开裂
名牌
层层
数百
骨骼
gone
##10
comments
重型
禅
主观
笔记本
太空
内衣
投产
##ka
不禁
一心
当选
meaning
罢
晕
damage
训
必需
手游
客运站
##记
##凡
开辟
水流
演奏
学到
肛门
蜂
典礼
秸秆
乳头
纹理
独有
丰收
必不可少
岩棉
在校
肚
听见
严厉
##戏
远处
自愿
郝
主线
没错
复印件
处方
烧开
金山
region
女主
lack
泄
祭祀
全都
开封
と
showed
竞技
多层
角质
claim
研磨
我县
奖金
非凡
转型升级
做完
菲
wife
辰
破损
冷静
剩
交汇
7万
汇总
relationship
历代
浑身
perhaps
##卷
歌词
usually
remains
蜀
荒
奖项
骨架
僧
奢华
##冠
译
示范区
choice
坝
选拔
相思
唑
真菌
直达
costs
荔枝
1600
域
同等
泰安
##桂
榜样
车门
各方
哪儿
##勤
##好
hear
两家
增进
磷酸
reading
168
cover
##齿
george
##先
送上
人流
reach
ä
比起
扩
袭击
污染物
上诉人
四方
汇聚
可选
雁
english
包围
好人
集聚
徒
其间
乏力
根部
chief
验
大局
卤
前列
八角
李某
嫌
红烧
策
commit
##浪
接线
died
柄
男朋友
##旗
sexual
散步
eu
beyond
完了
落下
我院
##版
赛场
想去
授课
分会
消肿
脂肪酸
扯
标记
指纹
棚
宴
征地
十月
更名
不尽
continued
账
得出
恐
##调
无情
软化
点火
厨师
增高
##逸
##寿
老是
隐形
刘海
额头
外婆
##姐
乌鲁木齐
宏观
安全感
mis
米粉
入驻
走廊
择
kids
枝条
##妃
foot
哇
color
nice
ones
领导人
th
吃得
缓缓
良性
流出
饮品
指令
search
手册
婚后
不肯
laws
东站
光辉
上都
表皮
热心
眼科
甜美
##熙
##热
baby
meet
遵
支援
来回
肤
显示屏
石墨
狠
green
神器
楼市
大国
设在
##间
主播
江山
##赛
effects
首要
坠
##纹
真皮
颈椎
阻燃
党政
衡量
##自
奔跑
##叔
光芒
漂
说文
title
长远
除尘
冰雪
震动
衬衫
签证
发泡
111
稳步
相声
临近
无私
培
对阵
节气
increased
##娘
小块
drive
三维
委屈
财物
棋
全日制
时空
应聘
##尘
祝愿
student
擅自
芳香
号楼
一斤
##茂
屋面
未成年
一脸
流体
table
遥
丢失
口中
##兹
选取
##提
track
根系
伐
指引
小白
斋
reality
voters
结实
医护
准则
拱
诉
##银
鹤
无机
打扮
发力
亲情
之乡
暗示
驱
大了
写字楼
##打
##et
北大
抓紧
典雅
ab
loss
minister
##豆
speech
偷偷
扒
时装
##冲
核算
泻
boy
踏实
流入
教会
蘸
单价
跃
原油
##难
红茶
概述
瞧
宋代
在哪
翅
立柱
王某
efforts
得多
电镀
中型
designed
年内
吓
下巴
brain
smith
反思
黏
生殖
counter
归来
重心
债
贫
哎
把手
映
梦幻
注意力
增值
繁多
201
eye
腌
黄油
朝廷
宽敞
guys
纳税
口径
king
报纸
为我
##盖
励志
修行
一汽
花期
passed
超强
原子
酒吧
书店
注塑
巡视
figure
动人
重生
预报
厚重
批次
殷
104
博览会
鸡翅
四种
店里
全会
乙醇
下水
滋补
戒指
腾
modern
金华
饭后
青椒
内有
deep
大臣
双层
##tic
towards
不该
管制
元年
standard
皮肤病
环绕
directly
环比
数字化
昭
相邻
箭
盟
值班
烟草
comment
126
开机
肤色
盈
将近
就读
纯粹
五花肉
胀
故宫
洗车
safety
签字
用车
includes
喉
癫痫
百分之
宽松
打下
山顶
负面
港澳
留给
基金会
国人
女王
○
116
##票
##杀
750
抗菌
异议
帖子
下游
盐酸
从前
##汤
菠萝
废气
211
低下
木耳
书法家
沉重
辞职
溜
books
发掘
107
##os
凭证
评定
door
忠
ahead
空腹
阐述
十字
democrats
immediately
像素
底下
瘙痒
有意
外贸
学名
造纸
pressure
简历
否
自豪
力气
访
视角
管辖
##磊
愉悦
这套
破产
加之
任何人
175
进出
胶带
agency
指挥部
嘉兴
祸
低头
冲动
警惕
公认
支行
缓冲
software
四驱
##仓
throughout
鹰
蒲
房车
单车
是的
高频
昆虫
letter
黏膜
世上
中层
阳性
mo
高性能
对了
7000
悲剧
事儿
巡查
毫不
打赢
粘膜
##蒙
看房
##嘴
french
债权
预热
additional
remain
##ine
马达
演变
吟
八月
祥
为期
yes
悟
в
未必
##变
战国
八卦
mid
六年
样板
融化
半径
117
实质
新春
unique
签名
面子
死后
电极
coach
夺得
开店
头疼
##孝
信贷
张力
上游
奥运
亲密
α
税率
一棵
牧
出品
maybe
nature
流转
本报
差点
边界
编程
看待
月光
山地
己任
键盘
##ary
人居
湿热
前者
客场
兼职
郁
麻醉
影子
办案
粘贴
肩膀
怨
无穷
moving
106
务工
轻度
凹
战绩
##住
阴虚
锐
名气
物联网
property
##而
政法
航班
车展
全镇
##舍
医用
确立
双面
火热
尸体
debate
football
管材
入味
占领
执业
套路
晚年
religious
沃
水下
##黑
##眉
computer
1978
beginning
toward
困境
##;
difference
不动产
坚
俗话说
吃货
上看
内膜
杰
粪便
成年
草地
di
##精
杂物
制约
肢体
洗脸
副教授
肿胀
洪水
device
target
省份
终结
别名
##念
内脏
违纪
thousands
##游
officer
一审
##炉
爆料
nuclear
桌面
点燃
廉洁
请看
本体
born
头皮
料理
##液
analysis
昨晚
接种
乘车
热血
ns
尽情
一千
美学
舟
育儿
盼
唐朝
北海
富裕
正品
商人
纺织品
赫
过敏性
114
脱发
光纤
愤怒
投标
答复
##起
で
书房
提倡
经络
谈话
中国队
纳税人
大同
部落
鱼肉
薄荷
5t
超大
不给
moved
帝王
largest
水性
锤
状元
加深
胰岛素
海底
を
冠心病
organization
顺畅
posted
哀
函
惊讶
学业
福田
小鸟
##培
weight
凡是
receive
骨科
急救
##敬
慕
高尚
三千
头顶
家常
明珠
泥土
养分
达人
七月
否认
镍
##浦
appears
援助
灾
女方
review
巡
第4
池塘
##烟
亮度
肝炎
起到
葬
原件
外卖
mac
大肠
车轮
失业
德州
担忧
落在
顽强
清扫
联合会
有你
刀片
rs
一味
精子
公子
渝
##蕾
污泥
专线
初一
艰苦
capital
##切
线圈
汤汁
很低
精油
ness
冲压
蒂
少见
blood
hot
subject
##杆
本期
道具
锯
综合体
交替
书院
powerful
限定
藕
机能
跑到
は
龙门
##状
张某
是非
细细
后卫
货源
budget
此刻
业态
可调
suit
坐着
法学
浏览器
remember
丸子
failed
##莎
任命
创伤
一键
ji
名录
盒子
wait
压制
香料
违约
helped
##夏
internet
爪
松弛
conditions
车厢
##ke
周到
无忧
手脚
怀念
屯
管路
超声波
哮喘
封建
动感
粪
battle
##价
冬瓜
往来
新材料
myself
近代
嘴唇
蜜蜂
german
忆
服药
与人
eyes
不着
皇上
半天
矿物
##交
##墙
谋划
掌声
定向
仲
四处
∶
##尚
泄漏
繁
spread
flo
源自
卸
大幅度
洋房
崇
貌
1300
vr
异地
未知
翁
前身
晚餐
适度
##窑
145
变换
##伤
凑
椭圆形
活性炭
ml
college
幻
三点
大风
意愿
碧桂园
##剧
口号
##怡
女装
查明
找出
结节
苏宁
л
reasons
顶尖
##as
##枝
身子
红酒
气流
海带
大都
清风
村落
syria
棕
sea
⑤
成形
柳州
##晶
笔试
书名
该校
椅子
一门
limited
已知
名叫
廉
香水
103
滚筒
言语
流动性
哈弗
箱体
救治
笔记
互惠
##知
造就
夸
##望
祝贺
总共
开出
傍晚
坚硬
compared
三位
正文
晋升
订购
##捷
管网
一幕
sa
号召
点点
口红
进化
##壳
短短
服从
##当
亲属
earth
大理
##层
后勤
characters
##千
猴子
五一
不难
残疾
轩
一瓶
自在
趣
胶水
conference
站立
黄芪
水域
阵地
##首
为民
至此
往事
1979
查找
以色列
托盘
价钱
戳
夺冠
shown
美妙
军区
不服
共识
##顶
趣味
自律
领袖
痛风
高价
不为
试剂
诈骗
盛开
之事
5l
165
切削
开幕式
应付
girl
晋级
管线
哺乳
感激
构
佩
螺母
##回
派出
茅
ǎ
时而
##颖
遥远
ó
咯
石榴
养颜
oppo
##孔
服务员
捕
successful
商户
患上
岸
安康
改编
狮
复工
##寒
##帅
油门
位居
头条
plus
信访
田间
鉴
炼
显现
一楼
浴
##sm
科长
剁
食谱
公务
自治县
australia
多样化
招牌
##症
上报
哒
四月
晋江
之战
crime
窦
生化
实用性
渗
卒
在乎
会议室
发芽
cpu
轮毂
feature
##ian
世家
spending
秘书
##养
手掌
他家
song
原谅
卡通
爱我
吸气
浴室
宽容
匆匆
##断
工期
没关系
卖家
中所
底蕴
presidential
β
挤出
外交
汕头
睡着
分化
candidate
互通
全线
公元前
老子
standing
乳腺癌
##套
冰淇淋
119
传染
visit
forced
ni
蔓延
完好
捉
花样
体型
〉
positive
留意
physical
楼上
通讯员
党风
脊柱
treatment
情报
上次
今晚
send
食疗
写出
越是
抛弃
纯净
直属
减弱
##廷
浦东
口袋
丘
九月
孙子
趋
贸
树上
section
撤
台面
花儿
倚
1981
正韵
秀丽
##彦
阶
短发
五星
盛世
龄
union
衬
##cm
卦
果园
晶体
113
精装修
艰辛
叉
遮
禾
developed
标配
politics
一贯
executive
le
沧州
##age
缠绕
油烟
柔性
区长
顺着
帐
闺蜜
筹备
##20
109
备注
有权
仰
加装
下垂
yourself
体外
盆栽
刷新
option
妈咪
气缸
稿
坎
##血
吵架
##耀
environment
出名
不知不觉
外伤
不一
姜片
罢了
贡
居室
〈
长相
不通
长出
advertisement
map
protect
收回
稻
人都
吞
东海
signed
艺术品
写下
字体
schools
##居
##苗
双鱼
germany
利用率
willing
疲惫
膀胱
降压
##计
cast
begin
借贷
矿业
打败
搅
bc
看病
激
适时
你家
遇上
事先
妹
save
低碳
抚养
轨
义乌
分区
新西兰
龙骨
寺庙
eventually
appear
假设
名校
变质
##60
排便
去找
贴士
捷
戏曲
纵向
etc
舌头
一间
##ze
中和
##壁
本月
一滴
参保
block
附图
##值
ban
茅台
红花
推介
交易所
水体
followed
绘制
黄疸
拧
皮质
上天
lines
测评
会所
families
坏死
actions
小狗
挣
阴影
contract
不分
薄弱
国旗
水瓶
麻木
fear
攻坚战
按压
忍受
梯
cent
os
欢喜
展出
交电
长效
研究会
毛衣
uses
物种
联邦
纤维素
easily
attempt
status
判
变频
化痰
安定
intelligence
名师
行李
council
##屏
##no
鸽
损耗
细小
铬
颜料
ph
无聊
rule
购房者
煸
配制
手柄
聆听
##别
threat
打扫
日内
长短
换成
gives
触摸
务必
延安
纵横
本金
导游
吵
荷叶
抄
逾
住所
sub
名菜
俞
称赞
无敌
灾难
allows
强行
药剂
终究
##座
blue
不规则
总收入
时段
荡
高出
偏差
洁白
爱护
社团
花草
何处
##皇
##戈
阿尔
##鼎
二月
周五
fighting
155
顺德
浩
恭喜
龙虾
##ner
陆军
火力
杭
输送机
主食
送达
回国
恒温
丧
sky
支柱
##爷
吸水
weapons
##nce
创业者
瑞典
被迫
战机
mate
粘结
宜居
起义
ù
野外
有意思
##枪
稳妥
缠
appeared
弘
前途
坛
居委
吸引力
##ss
舆论
五百
转弯
采暖
配色
观测
没了
口岸
硬盘
阿里巴巴
城管
每位
光亮
##泥
峡谷
海域
charge
##妹
壮观
专职
出水
看书
感知
学家
鲍
化肥
坐标
兑换
乒乓球
选址
简化
定量
##父
sales
加油站
途
鼠标
睡前
患儿
折磨
产值
fine
ideas
绑
缅甸
xi
iran
滚动
这辆
名片
农民工
senior
中美
西站
中药材
crisis
出入
椅
mike
发改委
捐
蝶
双眼
瓷器
##塞
切开
vivo
fly
双眼皮
延缓
助手
菲律宾
优于
埃及
真人
楼下
品位
independent
导入
scale
163
灭火
直升机
实训
政权
112
名词
avoid
标杆
划线
话说
大王
二十多
八大
取名
倒车
川菜
屏蔽
聚合
不失
straight
商量
##魂
a股
出厂
孙悟空
粘度
##盒
places
修炼
##结
车载
莲子
枕头
裕
##颜
抗癌
意境
全景
几位
航线
相伴
外汇
rise
122
梳
manager
邢台
用以
脑子
contact
分娩
牵头
##闻
营运
放电
闽
加剧
最少
mass
cities
果断
台州
不信
普洱茶
染色
印花
涩
1949
noted
弟
毛发
辽
事后
大爷
废旧
decades
情人
拦
我厂
容纳
三元
b1
心底
发病率
抑郁
门户
浙
短路
嵌
##坊
projects
′
说完
车队
##co
刨
##过
累积
果肉
滋养
ably
##圆
芙蓉
修订
排量
问候
rich
一律
##瓜
550
苦瓜
挂钩
蠕动
喉咙
ios
屏障
白羊
bank
见于
credit
过长
射击
绝望
hi
生机
##腾
北宋
rates
link
material
calling
voice
大雨
##me
短板
至关
病害
benefits
相爱
床垫
镶嵌
apparent
保管
淋巴结
春雨
walk
文体
破解
峰值
年产
##墨
拼命
好不
ⅱ
限量
highly
辛勤
介
拓宽
碳水
十万
谈到
潭
##缘
不容
drop
威海
排卵
下旬
在建
颈椎病
两地
干旱
荆州
上周
问问
japan
襄阳
##渡
收费站
荧光
春晚
供热
challenge
惬意
巨头
##齐
侵害
核实
网格
拯救
子孙
primary
默认
裙子
hillary
化验
跑道
器具
funding
马拉松
明清
138
individuals
配偶
早早
发炎
史记
凉拌
cp
帘
continues
淋巴
##展
◎
bi
虚假
chair
犹豫
后代
墨西哥
置换
knowledge
##说
撰写
新乡
米兰
customers
宣讲
纤
欺负
中控
满分
喷洒
酚
捣
评委
摩羯
が
建国
##萨
标的
美感
travel
secret
海尔
疑惑
首页
撞击
凝固
逗
纪念馆
二楼
男方
##涵
海峡
侍
不顾
才华
水量
一旁
clearly
杨幂
弥
触发
车速
##床
feet
石英
笔画
龚
松动
肺部
旱
套餐
跳舞
天窗
地暖
上路
立法
颇有
larger
叙利亚
北美
引资
2亿
电工
小伙
聊城
征服
归属
127
前置
血清
切口
complex
##财
shooting
##胶
190
##象
赞美
境外
地道
通畅
型材
狐狸
border
鲤鱼
沉积
3500
彩超
严峻
##校
苍
1958
董事会
六大
婚纱
ten
海参
请教
教堂
seeing
winning
direct
的说
海边
拓
超标
现行
铭
车牌
猕猴桃
##sh
修饰
ty
驴
赔
良心
巨蟹
host
##ll
方言
登山
外资
##蛋
少儿
降雨
整机
概括
盗
resources
推迟
大山
干预
起码
水资源
中超
speak
缴
##land
绞
##糖
分辨率
ice
预售
歪
##柏
支配
窗外
树枝
##总
湖泊
丶
误区
core
truth
activity
深夜
容积
goals
恋人
离心
震惊
量身
##昊
端午节
##ro
互联
茂
入党
位移
##录
主轴
巡逻
本领
区划
驾校
##童
原名
听力
有种
132
泪水
场上
单品
##do
药业
author
大叔
乐队
炭
捐款
##ors
greater
杏
机动
草本
太极
阳气
羽毛球
长辈
碘
电热
瘦身
样本
死者
传染病
六十
文书
吻
禁区
喻
中枢
入侵
民宿
##岳
鸽子
展厅
favorite
审议
科比
衡水
##莫
几分
豫
kept
三七
喝茶
丰富多彩
称呼
天子
##放
##瑶
分级
晶莹
半夜
tom
午
先是
异物
小车
##鹤
披
##袋
传导
缘分
膝关节
捕捉
欣
舱
ming
七年
sold
female
斑点
亮丽
abs
治党
##80
昂贵
ended
ン
options
底层
缺氧
方形
programs
england
出炉
恶化
脸色
reached
九江
iraq
庞
##应
哺乳期
push
莅临
满五
特价
购置
criminal
圣诞
尿酸
充气
陈皮
唉
输液
纯正
猜测
胡椒
path
剪刀
缺失
光绪
effective
吃法
massive
有色
替换
工作日
心目
claimed
studies
海报
不争
一二

美德
素材
rida
brown
渔业
战斗力
山庄
小微
rare
高位
太极拳
酸碱
m2
农机
细分
基数
梗
痉挛
æ
火山
„
##楠
后方
反击
峰会
1100
脑海
traditional
##代
西装
春夏
病虫害
性状
悬浮
磁场
##税
central
gay
一世
副本
380
##启
青菜
144
房东
上前
日月
迄今
knows
天河
往前
cs
鲁迅
sources
责令
caused
城墙
chris
微创
普通人
多肉
弥漫
stood
##脉
盗窃
下行
津贴
那年
疯
镀
凿
##钟
异性
从容
折扣
spend
650
france
流年
##ate
su
掀起
餐具
##藏
坚果
信托
›
供暖
欺骗
俊
地狱
阅
降价
gt
马云
香甜
开胃
地基
山脉
弧
恰
牙龈
烹调
想你
个个
先天
打包
##欢
率领
##ent
庄严
宜昌
大神
事发
133
现身
文人
滞
邢
央行
兑
镀铬
身穿
转子
昔
##锐
特效
多发
保密
煤气
##芝
isra
兴起
器件
蚊子
驾车
##视
哭了
哉
兼顾
降水
每亩
昔日
阻挡
素有
安宁
娇
邀
银川
cell
放假
探究
省钱
时髦
出众
microsoft
幕墙
掺
汤匙
俺
好在
赛车
中断
华中
一如既往
chicago
涉案
##40
试卷
汝
残酷
划算
1亿
昆山
灸
basic
踏上
装潢
厨
边境
##巷
##ard
总成
冲泡
血栓
时速
敬请
盆景
session
军训
produced
安神
t恤
臀部
伴侣
报表
又叫
dog
武警
能耗
甲基
伟
##鼓
##der
导热
助推
廊坊
住户
废物
排污
##ding
开拓进取
修正
重重
demand
normal
杂草
食用油
trust
文本
盘点
讲师
间断
范文
##滩
к
跨境
砌
典
党内
胳膊
洲
轮回
举动
长征
iso
ran
##宾
##息
车祸
##承
##翼
晚报
##初
酸痛
裸
动能
追逐
循
一字
经纪
矿产
picture
抚
365
有效期
christian
庆典
cool
奇特
继承人
茯苓
釉
##铺
520
##司
opening
散文
nine
##帽
泼
与众不同
学问
召唤
红木
el
祛
全局
prevent
心愿
慈
小巧
午餐
所有权
凹陷
援
org
136
腺
270
raised
application
真情
□
benefit
##ya
司马
ful
拥
电站
##楚
稳健
##30
傲
裴
今生
耍
前三
active
工业园
加工厂
两层
回转
返还
心头
畔
继电器
总价
业余
道教
利尿
##苏
##列
条纹
外语
辨
气压
填料
produce
##劲
规章
叔
通往
边上
显示器
切碎
美誉
消化道
happens
creating
##阴
夕阳
借款人
kill
樊
高三
交叉口
fox
技师
prices
银杏
values
欧阳
johnson
工匠
减退
western
游乐
战斗机
researchers
患病
employees
下达
漫步
嗨
fit
榜单
ar
巢
##选
##栋
惨
聘
空心
村子
开本
阿根廷
eli
开朗
风筝
二十一
泡脚
导电
红肿
流浪
雪山
论证
干事
haven
艾滋病
adding
求助
124
critical
座谈
号称
121
pk
names
道歉
不时
熔
十里
丽江
##潭
各异
daily
看望
套管
勤劳
上车
中南
麒麟
咏
宫廷
闪烁
躺
沸腾
海岸
蔓
platform
卖出
预案
不远
庄园
打好
平和
iso9001
去过
独具
暮
##翠
bush
咳
降临
花盆
太后
烦躁
哄
室温
玉石
深层
探测
wall
姓氏
digital
功能性
吸取
总公司
治病
无所
精益求精
城中
伤亡
actual
##杯
旋律
放学
威力
猪蹄
pa
编码
疑似
怡
incident
违
离合器
##掉
之子
汇集
唯美
袖
离去
南宋
die
递
辨别
牛仔裤
鼻涕
ま
迁移
cars
policies
前端
西侧
河水
迷你
patients
昂
医务
路人
以南
刘邦
method
楼房
一堆
而过
卡车
叠加
concerns
木瓜
备孕
stock
软管
年年
一向
花序
客气
摄影师
##佛
行使
sell
变量
##枫
热处理
##弹
给付
水龙头
##境
踏板
滋阴
直立
##ki
适应性
轨迹
生的
牢牢
多云
刚性
升温
小猪
湿气
lose
惯
agree
主板
包包
##仲
charges
对付
地下室
大运
见效
杜甫
阿拉伯
之初
两三
神圣
话语
不堪
品类
##赫
橙
不需
芜湖
中西医
robert
放射
images
苏轼
leaving
中风
恋情
小草
趟
微型
饮用水
没用
复方
尽早
泡水
揭
心跳
奇葩
中老年
满意度
酵母
鲫鱼
容积率
雌
票价
日后
大衣
authorities
摄氏度
起名
##夜
##ant
require
没法
银耳
##舟
闸
屡
祝您
fc
生命力
double
高高
底板
法则
规程
逃避
好久
拼接
腻子
多位
互助
贮存
遥控
两点
千瓦
班长
whatever
##段
##杨
页数
村级
理科
二胎
明日
月子
致命
慎
抽烟
这支
通知书
三菱
秘
烘焙
表格
##ler
悠悠
进水
##to
初始
justice
露天
打通
中国梦
病房
##组
两组
尿素
装卸
大招
挣扎
蹭
##压
相等
渠
##罪
艾灸
甜甜
察
##级
cup
防锈
国企
##蓝
笑话
在场
真理
毛坯
办公厅
ensure
ment
无声
9万
盖子
武功
respect
启发
苔
低廉
遵义
昆
课文
够了
##质
##材
weekend
##将
早点
中空
##ha
万一
##hi
为啥
request
agreement
气囊
微风
citizens
三峡
墩
有机肥
era
随身
盾
##蛇
手腕
秋风
江北
通俗
fund
侵蚀
当做
耳鸣
公证
说得
鄂
射手
feeling
camera
小鱼
##汁
做菜
尊贵
平淡
刻苦
利弊
二代
节假日
万能
129
惩罚
水池
whom
mobile
油烟机
蓝牙
##指
##狗
offered
杯子
颂
预定
叉车
耽误
地势
137
征集
先天性
贴近
choose
粒子
派遣
records
线性
聘请
##ally
预留
兄
上牌
高雅
##霜
首家
痛经
细化
revealed
understanding
按揭
马克思主义
骑行
研讨会
追溯
湛江
抬起
ms
防盗
##柜
＞
皮肤科
す
false
肝癌
##犬
局限
果蔬
阵阵
共青团
generation
重症
丰厚
逍遥
influence
词汇
操场
联手
糖果
刻意
停放
meant
泉水
solution
不负
年后
耐火
##宜
妇
##ri
入睡
垃圾桶
##党
沃尔沃
出轨
pos
联络
祖先
保利
无形
酿酒
mini
房贷
贮
涂装
##灰
育苗
特大
京剧
柿子
strategy
热销
耀
寻常
##锡
碎片
元旦
糟糕
朱元璋
夯实
##考
heavy
养血
杏仁
鲜嫩
烯
##宽
learned
低保
国标
团购
饶
卜
真实性
##羊
鸡汤
oh
历时
sanders
blog
mp
该剧
咸阳
装有
重力
ci
崭新
经纪人
聂
同胞
这件
安阳
潜水
nfl
平日
改正
回路
男主
##娃
责任心
笋
导线
believed
以至于
栽植
拖拉机
翻新
包皮
拂
滩
learning
大兴
地名
区政府
大类
老抽
please
那位
穿刺
韵味
毗邻
拿来
奖学金
项链
closed
parties
consistent
φ
##那
漳州
陈列
称作
钱财
##凌
儒
muslim
太太
剧院
korea
召
夜里
钱包
##ur
东侧
nor
判定
往上
典范
多用
糕
improve
手持
木板
省力
更改
整套
##排
树种
教职工
速率
日用品
工委
##破
##屯
城堡
spot
memory
黑色素
困惑
m3
扩建
嗓子
权限
institute
showing
衡阳
highest
fair
腐烂
runs
林地
拉肚子
滨江
公立
吉他
接入
纸张
截面
##亿
interested
乳液
##炮
期盼
录制
devices
抗震
延迟
呼吁
腹胀
可知
执勤
偏高
皱
参会
沙拉
male
##蓉
集群
防尘
##乳
opened
天真
山坡
迷茫
##委
年份
驻村
叙述
灌浆
金银
外国语
长方形
织物
巴萨
常温
三相
全校
甲方
镇江
下发
灵芝
台北
血小板
arrested
扛
dark
##张
巡察
##守
不光
软骨
尊严
糯
宅基地
辅食
热敷
##棒
绒
好吧
江门
买入
皇马
鸭子
芦荟
以北
https
芦
按下
uv
祛斑
流泪
跑车
绵
旅途
批复
环球
除湿
党工委
##季
时有
刷牙
广汽
历任
钻孔
陵
陷
税费
冷库
征求
释义
公用
freedom
opposition
自古
几句
##离
驶
经营者
diy
阿胶
##琦
顺便
asking
地貌
朝着
围观
擀
响起
缺血
舍不得
帷幕
上场
provides
调和
给力
盐城
大酒店
confirmed
##莹
旅行社
屋子
##龄
firm
1970
父子
##震
教导
##贞
ú
阮
屎
##延
压抑
martin
ç
trial
浦
宜宾
交谈
植物油
盯着
operations
眠
object
硒
末端
效能
梅西
purpose
ca
debt
救灾
爱美
闫
师父
海内外
sun
喜庆
##穴
158
上汽
打入
范畴
莆田
单词
布料
阻塞
134
station
金奖
cross
沐
##解
周一
收起
翘
八十
⋅
坚信
carry
餐馆
经贸
护航
##走
中草药
产科
高职
村干部
##cal
叙
勉强
头像
油田
调配
server
residents
existing
解锁
爽口
任性
多重
辉
滋生
139
动物园
皮下
兰花
##罐
分泌物
曲折
内壁
舒缓
大妈
location
孔雀
telling
arms
恐龙
站位
蕴含
da
civil
prison
floor
aa
格林
##妍
management
团委
壳体
islamic
美式
拐
整整
红灯
实例
煮沸
灌装
街区
风寒
精髓
逮捕
摆在
##昭
严密
车头
逐年
运送
要不
风云
肾虚
尚书
ss
电厂
同行业
风力
##津
##薇
肽
霸
取暖
display
向着
泸州
往返
330
前锋
快餐
变身
310
民居
##ni
marriage
television
附着
grow
区位
白银
illegal
保罗
营收
下单
瓶子
遣
贮藏
甘油
##约
栏杆
##姬
轻型
限额
受力
##ff
周转
##霖
徒步
特长
知晓
亲近
苗族
胃肠道
无尽
早年
眩晕
machine
相识
淮安
两项
合伙人
后天
铃
古诗
候选人
走来
##任
维权
过错
jones
诱人
扶手
对策
预制
子弹
不曾
notes
mine
保健品
面相
再现
investment
裁
工业区
干活
##众
乌克兰
泡泡
再加
掌控
痘
葱姜
粘接
实效
气场
电台
崖
真爱
畜牧
绳子
文科
复苏
constant
dollars
飞翔
学区
酿造
##具
经期
疗
fbi
库里
挨
裂纹
防汛
什
参展
驾照
棱
火腿
lee
蚝油
油箱
路虎
风暴
无意
汉中
stated
防空
烟气
construction
填补
赣州
##直
半身
罚金
衷心
互补
西宁
bottom
theory
饵
responsible
胃口
珍
导管
杀手
大唐
天文
借口
古装
姬
##在
靓丽
水煎
205
主人公
双腿
广韵
潇洒
小花
definite
母婴
te
准时
菏泽
##卓
arm
关羽
professional
倪
一次次
长发
东城
操纵
蓬勃
156
持股
气管
倾听
associated
usa
奈
ne
片刻
家务
##丸
worse
惠民
锥
##举
碟
滚滚
quick
hu
闭合
起重机
小雨
带到
##京
上限
offers
除尘器
名胜
う
##茨
更长
弗
131
八年
缺口
分校
尽力
唐韵
订阅
##微
手下
driving
上百
仕
微波
干脆
##雯
贯
下锅
息肉
考场
这儿
当晚
##深
稳重
滴滴
##差
mission
诗句
一角
多方
灯笼
羽毛
generally
街上
试管
稳固
1400
挥发
canadian
##cy
标注
上衣
九龙
焯
光临
掏
该机
打死
大军
м
dangerous
分流
镶
违章
保证金
##绝
技法
兆
sd
赞誉
tool
电能
烧热
＜
agreed
当地人
家伙
诊
贯通
传送
催化
平坦
上山
两周
millions
改名
姑
血症
miles
曝
##男
盛宴
指点
需求量
对联
opinion
clean
木工
劈
板凳
领军
##纪
千古
论述
开支
20000
亲身
园艺
死去
hair
142
原厂
联通
署
东山
博客
植被
时时
推拿
##奎
公公
猎
古朴
干警
其后
崩溃
想念
支座
沧桑
5cm
软膏
连连
智商
##越
着手
发黄
运营商
后视镜
凉水
根治
喷射
负债
多变
鲜香
采收
意向
hood
##依
报废
los
回帖
艳丽
传出
沿途
关税
鉴于
大盘
开挖
丛书
研讨
组团
新高
半月
出货
围栏
低速
##麟
奇瑞
光彩
涌现
church
黄帝
##am
喜剧
basis
传授
家常菜
使用者
10g
奇妙
印尼
none
礼貌
逆转
客房
explained
中途
盛大
生锈
separate
extremely
聚合物
##亲
wind
301
灯泡
处女座
scott
几下
宝安
三轮车
143
bay
土木
诉求
抢劫
霸道
填报
祠
堤
天线
赵丽颖
尖锐
外围
专卖店
打架
胸闷
报酬
无污染
proposed
中铁
max
虾仁
标本
progress
抑郁症
全书
##01
牙膏
火星
星空
疑难
minute
得益
耀眼
廊
hundreds
##劳
放开
富豪
运河
习性
木地板
珠江
淮
搜狐
免责
杨梅
巡航
浓浓的
peace
抑
advantage
camp
地砖
##宣
##济
conservative
##麻
坤
放过
青铜
惜
##侯
点头
演示
增产
尸
疙瘩
5m
##禄
reduce
盖板
shared
加盟店
或将
served
邮件
全套
大枣
太小
unlike
驰
鸡腿
势头
慎重
合约
戈
拉丁
袭
弧形
species
压实
强国
##款
管理者
香烟
掉落
保时捷
д
同心
##绍
离职
市值
beat
往后
##麦
虞
##跃
##32
##桐
用餐
thus
做大
润肺
改建
becomes
cash
本厂
奋力
壁画
深远
二十五
中信
迹象
益生菌
治好
装入
宝鸡
##芽
纸箱
花粉
141
peter
##尊
纯洁
瞄准
期末
##郡
增幅
田野
看重
芬
二战
伤残
疫
电视机
behavior
复位
分红
##ko
外国人
限位
对口
偏偏
radio
耕
##70
hd
歌唱
holding
第5
车友
海棠
生下
一举
难怪
能用
收益率
堪
画出
饭菜
耐热
定型
转为
##虹
恰当
韧带
sen
doubt
3亿
管家
1950
升起
153
##id
屏风
##殿
甘蔗
挣钱
##11
serve
编剧
褐
unit
数千
##ring
crowd
其一
白发
小路
晚饭
遗忘
坎坷
老爸
绵阳
管件
七八
正气
っ
留学生
五官
检疫
ryan
分辨
胚胎
手足
球形
trip
机车
领略
别说
房企
黄酒
理事长
316
日出
生前
搞好
##易
african
进门
硫化
开头
佩服
规模化
hospital
始于
轻盈
##汇
熟知
刊
judge
顺应
梦里
启用
肾病
前世
款项
direction
别克
hp
方程
上层
slow
疱疹
自称
##迹
亲手
拉动
少不了
标志性
城南
正值
银色
enjoy
核查
花花
补钙
声誉
改成
decade
极度
update
插头
喘
黄昏
easier
详
变迁
环形
纱布
哈登
隋
交房
图标
##脸
江淮
##矿
穿梭
tim
咀嚼
小品
没钱
出差
总站
鲁能
那段
污垢
省长
狮子座
带队
accused
两委
乳汁
温差
心意
抵御
episode
公社
国画
时分
破碎机
legislation
牛仔
近年
高管
金牛座
客家
橘子
自如
老了
回落
干了
国学
南非
名额
冻结
##痛
na
四五
体育馆
软硬件
driver
枫
boss
豌豆
victory
星光
垄断
心脑
中兴
搜集
被害人
媒
开庭
thomas
watching
尾灯
##荷
旅游业
默
时要
下调
场馆
搭档
##乱
电量
双脚
睫毛
普通话
向后
开来
立式
画画
##pe
instance
documents
##睿
smart
私家
162
marijuana
##锅
洗手
滋
notice
薪资
为由
美洲
缘故
相近
撇
魔术
##周
在上
锦绣
貌似
根源
抗击
碳纤维
scientists
wing
出战
商机
views
##稿
britain
##紫
晒干
博士生
终生
桃源
凉爽
络
后台
daughter
时效
##les
视察
震荡
立方
生物学
那份
德育
tools
西门
原价
切块
pain
油性
降至
向东
##窝
来不及
拥堵
南侧
独一无二
个股
崇高
gold
肿大
帐篷
璀璨
charged
交代
揽
转入
成套
三房
封装
詹
行列
预兆
argument
putting
巴基
##潮
亲朋
ti
prime
流淌
indian
##样
水份
浊
##课
爹
红线
天蝎座
victims
诸如
履职
##ful
发音
平民
碳酸
防风
##ping
﹑
闪电
一届
回想
蓝莓
月底
mpa
大象
采纳
album
无色
招收
即时
三百
忧伤
audience
大使
杠杆
京城
1976
投资人
disease
射线
returned
用具
丰满
预告
vehicle
观摩
曼联
总值
尿液
战友
乌龟
自治州
出示
妇联
教育厅
profit
着重
盘子
上台
榴莲
急需
胃癌
石灰
pool
平装
用房
包头
##医
##复
伺服
issued
催化剂
无可
##拳
投身
名誉
品德
不惜
细则
brand
耿
##go
lightly
murder
leadership
信阳
152
遮挡
↑
##冷
总人口
鼓舞
##极
蓄
进修
explain
伸展
中方
看点
茫茫
print
一曲
hall
周六
关火
密闭
侠
老实
名城
worst
北汽
病菌
五千
玫瑰花
原先
禄
水土
沸水
干嘛
146
tough
structure
克拉
表白
城际
weibo
定金
回首
执照
停车位
c罗
调制
矿泉水
香辣
年末
家门口
##sa
##产
约会
bb
肿痛
hearing
特斯拉
录音
朝南
宾
花香
封面
中场
如来
羊毛
欧冠
折腾
association
改性
芝士
sit
止水
一抹
本事
精盐
communities
侵
coverage
年会
159
蚀
##藤
橄榄油
要先
仇
青龙
张开
矩形
袜子
sc
du
score
gender
头孢
##去
蜘蛛
杜兰特
呼和浩特
先来
翻身
打动
长长的
拇指
美满
logo
spoke
特质
投降
首创
negative
滑块
draft
胡子
draw
选中
和田
拾
七十
##烈
恶意
##聪
展望
文具
精良
芬芳
并购
degree
乙方
train
大巴
敦煌
瓶颈
下沉
items
怀着
城关
##铃
develop
初三
农贸
扭转
单体
执政
##股
小伙子
supported
表层
滨
缺水
泰州
红尘
降到
美术馆
县域
千金
回味
testing
进驻
方正
traffic
受不了
起飞
surface
华润
本机
何必
jewish
abc
下图
油污
净化器
化石
sites
##鹰
420
敏
分量
initial
说实话
致敬
##晴
渗漏
keeping
果子
肘
十三五
元器件
崩
##霸
端正
硬质
148
青蛙
美美
柴油机
拥挤
净水器
大庆
便民
cards
火花
荆
妥善
非要
阜阳
重金属
查阅
铝板
辜负
178
afford
现代人
音箱
名下
代表团
雍正
垂钓
##nd
陕
强壮
稀土
序列
风俗
全力以赴
一事
串联
相见
现如今
追捧
零售价
木门
造句
机械化
锦标赛
competition
刘某
问责
染色体
图解
绿叶
古今
owner
成年人
西山
山林
移交
誉
小姑娘
初次
扁平
可观
预备
discovered
变大
repeated
扦插
半场
创造性
戴着
宣告
##ca
卡片
分子量
相亲
宠爱
卵形
疏散
磁性
万事
失效
无不
随风
考点
hr
gps
剧场
安卓
淡水
sy
这天
患处
##90
谨
##件
##兽
油墨
drugs
##链
偏方
诚意
省道
##宅
瞎
⌋
赌
著称
频频
公办
阳光下
票据
栓
##io
steps
酸甜
亥
⌈
死刑
focused
加密
剖腹产
诸侯
龙岗
完结
plant
vic
懂事
摄取
投影
大葱
微波炉
一经
乖
supporters
红星
拉萨
##典
concept
绚丽
高地
株洲
##绿
赛后
宝骏
点亮
复活
可为
aware
围墙
mary
恩爱
叶酸
姥姥
痊愈
225
肝硬化
##则
市场化
joe
大块
竹子
##轴
##渊
使劲
砂锅
数目
字典
北侧
幕
##育
调皮
旗帜
群岛
烟雾
怪物
博主
姿
藏族
调速
笨
suggested
台上
mb
孤单
finding
0万
勘察
束缚
##孙
sports
褪色
名声
用完
狠抓
##什
у
问道
跳跃
得意
马自达
plays
##za
巳
畜禽
带头人
施行
肉丝
恶魔
毡
溅
打得
崇拜
霉素
贫穷
啃
ko
##巧
言论
concerned
山路
时报
established
进士
脱颖而出
zone
可行
点心
在前
反光
会同
汇率
・
废弃
烫伤
开放式
fell
办公楼
##活
两千
147
局势
小户型
shop
凝胶
mt
昼夜
霸王
水煮
smaller
蒲公英
药师
主帅
掩
债权人
鹏
外援
换上
燕窝
经开
重伤
育人
唤醒
##端
001
雾化
japanese
累了
闻到
指责
杂交
##ger
##rd
背着
没过
网球
两句
measure
转运
戴上
糖醋
##勋
amp
新风
只用
4500
静态
表扬
鼻腔
4g
玄关
通州
##佩
##以
此地
raise
抓手
螺钉
抗压
考上
记忆力
百花
时不时
民政局
龙湖
隔壁
归纳
前辈
##it
entirely
##ure
出动
流水线
##晖
感人
window
装扮
革
字形
衡
球星
体能
气球
张家口
皮炎
一粒
管子
陆地
成像
必有
太湖
公馆
盏
作息
贴合
次日
##糕
钳
海滩
明目
烙
か
赛区
远销
军民
眼看
断面
新闻网
花色
起动
1975
制订
animals
蒋介石
余家
反之
り
闲置
supreme
旅程
conflict
合伙
收敛
进军
穿衣
昏
##句
writer
operation
灌木
annual
连带
iii
洗面
湖州
银河
瑶
订做
##支
化身
二层
理疗
宜人
strike
受害人
墙纸
开局
毛细
insurance
睿
车窗
older
责任人
从来不
胃酸
##炳
厅长
诗意
上图
1956
阶层
rt
requires
歇
前排
酰胺
1960
常住
鸟类
##佑
报复
万亿
employment
痕
保姆
多达
可行性
打的
替补
非遗
味甘
华侨
203
来袭
变速器
笑脸
后世
性情
虹
gs
仿古
蛙
一勺
龙舟
妆容
盲
纽
前所
往年
fuel
assault
剪纸
caught
placed
优惠券
gop
plc
不留
suggest
寺院
秦皇岛
birth
承重
没能
ol
就越
##次
灵动
侨
到场
横梁
萃取
拉力
大笑
见识
beautiful
注释
冰冷
##导
setting
两根
怀抱
172
古文
霉
账号
行星
势必
虫子
反抗
bed
礼包
置身
莲藕
化粪池
排泄
邑
十佳
失踪
africa
爱车
抢险
举例
连杆
喷漆
念头
装帧
发文
cnn
##错
将要
刃
candidates
一员
祈福
监委
写字
托管
推拉
凡事
挽
揭开
®
澡
##靖
丢了
发售
上千
车床
歌舞
speaking
##que
失常
精通
四面
回升
149
鳞
豪宅
activities
坦
明媚
鲜活
girls
bitcoin
稀有
二中
点儿
##哈
氯化
争吵
胜地
连通
fe
businesses
指导价
allowing
表态
小店
pu
产出
运算
随手
##粒
##桃
##ol
课外
五六
cu
波兰
耐久
与会
offensive
淡化
tech
售楼
敞开
涨价
task
塑料袋
蜡烛
串串
truly
中成药
易燃
waiting
养猪
心率
一说
矩
天山
油菜
胞
凹槽
##ster
れ
游人
mexico
##鞋
##帆
master
一封
204
聘用
酿
机理
amazon
乔治
planning
##因
两手
如是
supposed
480
后背
亚太
不经意
嫁接
重度
邮票
坟
hero
count
驾驭
##向
多彩
卯
洁面
清远
宽阔
商丘
##到
##滨
##lo
hate
省会
中学生
文昌
presence
桃子
##账
鞋帽
通关
盯
脊
腕表
腐蚀性
豪门
栖
逃跑
concern
木头
heat
enforcement
腊
##兆
##仔
mentioned
经久
bbc
打法
missing
搅拌机
单向
押
教研
饵料
杀害
贝壳
手抄
喔
虐
河边
醉酒
酒业
供养
母猪
believes
1945
家政
舍得
饥饿
自营
违约金
海量
cancer
切割机
##ls
##背
owners
考证
陪着
##快
该县
情趣
民航
尽显
无所谓
##琼
黑豆
accept
加盐
小河
多处
沉着
cf
城里
##阵
雷克
晃
工业化
黔
ce
##奖
试着
焚烧
吃饱
平滑
f1
翟
空压机
balance
三代
分层
水泡
珊瑚
格力
财政部
も
测绘
##姿
植入
窜
偏低
九年
肾炎
decisions
##征
逐一
##ial
兴隆
安防
降解
珍藏
单个
cells
浮雕
酒后
校友
徘徊
针织
有待
不慎
conversation
abuse
##窗
知识点
储蓄
沙特
multi
终极
等候
天后
节水
特区
不死
书包
忙着
面食
fourth
commercial
dan
现存
向南
营养素
sp
说不定
##per
修身
##彤
团长
匿名
名将
龙泉
真假
诊所
冲刺
##也
生产力
仗
入围
##散
##钦
中秋节
老旧
掐
fish
richard
ǐ
果皮
中专
上榜
##唱
功德
ben
步枪
整顿
佳肴
畏
试驾
请勿
奋进
原地
天水
沙子
烈
烤肉
丝瓜
炸弹
尺度
##奶
拽
白血病
粘连
供货
之首
人寿
老妈
无非
enter
邓小平
tells
日元
利好
厂区
mail
熄火
提及
起身
驻地
##尖
##21
##12
外加
document
徒弟
files
伸手
泊
三五
##块
试题
离别
遗留
banks
injury
抽屉
乐山
市中心
篮
朵朵
打卡
hill
食指
豆芽
督察
日语
##温
还给
舒畅
肋
##zed
##槽
amazing
##务
伊拉克
loved
上映
changing
##规
理智
耐磨性
一年四季
纲目
手艺
华山
shut
锅盖
白马
##取
0l
摆动
苦难
八一
兵团
managed
看我
年月
decide
大姐
identified
际
马铃薯
useful
连云港
琼
遗嘱
抖
死角
诱
实拍
sing
下山
国足
厉
长三角
揭秘
嫉妒
工况
collection
154
乡亲
西汉
紧邻
演艺
context
慈禧
最大化
幸福感
##岸
无味
镜片
衰弱
202
凭着
mode
##雁
一步步
造林
»
exchange
工作台
飞行员
交接
angeles
fresh
算了
陈某
邮
kw
薄片
剖析
成功率
颇为
兴建
胆囊
appropriate
冷漠
journal
朴实
温控
风流
名言
jan
结核
introduced
女星
im
琥珀
白术
实实在在
音频
花海
应届
言情
坯
雀
堆放
167
大年
主教练
通便
湘潭
佛像
spokesman
寒假
##砖
新冠
草木
强迫
舒适度
吸毒
双赢
一团
开办
民政
载荷
housing
lived
providing
sale
999
淫
概
尽头
梁山
舜
风尚
ka
##缝
献血
安庆
上色
佳节
日光
胎盘
shift
##魔
烘烤
小子
去处
喂奶
复旦
rock
易懂
起重
一脚
外包
东营
拎包
9000
大户
brother
癌细胞
切丝
放出
a1
贱
skin
秦始皇
水槽
歼
竿
油锅
卿
interests
一扫
军团
removed
安保
人选
山谷
养殖户
肥沃
调味料
生冷
甜品
流血
浇筑
元气
##速
晾干
因人而异
精制
灭菌
脐
交互
辩
三条
豪车
##宪
上旬
回流
五险
靓
全域
不定
化瘀
survey
排行
变频器
豆角
##硕
string
电瓶
rep
现今
##ons
error
大湾
抽出
会见
包邮
##仕
追踪
flight
钝
高处
听听
听过
两旁
背叛
施用
变性
discussion
教学楼
##犯
169
三项
一品
黄石
stopped
分枝
高龄
南湖
和睦
##芯
双优
否定
岭南
夕
鱿鱼
exist
photos
identity
##pa
搏
口服液
前十
盘中
打着
丈
莱斯
沉稳
hs
挽回
supply
wish
镇长
无偿
homes
thanks
缝合
引流
侵入
想不到
抽象
回购
菩提
##曦
皂
形体
年华
measures
纯度
ん
取胜
本色
healthy
硬币
army
停药
火烧
connection
九十
background
耗材
遗迹
b2
端午
mi
国安
##li
双子座
##坚
1964
##婚
微小
海淀
调侃
大将
finished
在用
母爱
偏向
剧本
着实
protection
加压
交纳
1977
##坛
寄托
以东
partner
sam
轻便
留守
通气
限购
骨髓
换来
##猫
steve
衬托
荷载
高楼
起初
nm
指向
小猫
补气
肇庆
哼
点滴
装盘
送货
看清
外在
throw
##敌
铅笔
药房
乍
estimate
committed
切好
scientific
停产
paris
秘诀
异形
东汉
恰好
多点
command
文旅
萨斯
汉堡
狐
免去
起始
上调
husband
准确性
兼任
由来
小叶
颁布
耳鼻
豆类
selling
红叶
金币
门外
##ue
##假
游泳池
海运
白细胞
跨界
中将
##害
叶面
薏米
杂粮
柚子
路基
身亡
引来
物价
暖气
两块
##箭
killing
二十三
排序
峡
文中
政法委
陈述
度假区
水洗
就餐
215
内向
seconds
噢
妨碍
多岁
夷
生根
1972
散热器
planned
太少
该院
陪你
吓得
化为
栽种
手续费
expensive
##砂
领会
趁着
漂流
躲避
升华
我区
升值
vc
卸妆
纯天然
faith
##ical
长按
衍生
背包
见解
树林
figures
郁闷
胡同
综合素质
挠
霞
悬架
芒
ē
赶上
上身
解剖
遥控器
arrived
condition
驾驶室
作案
相间
##丘
快点
relatively
误会
切忌
##乔
筛查
##符
欺
昏迷
河西
##il
流感
析
普查
通电
黑芝麻
就近
funds
##瓶
##势
衰竭
细微
掩盖
柑橘
山峰
##萌
牛排
同房
坪
进场
端子
1963
feels
揭牌
圣地
##肠
睾丸
##辛
橘
地标
迫切
比特
##ions
代表作
单调
政委
遏制
逃离
欢快
脱硫
周日
gain
快要
足迹
一卷
财政局
备考
地中海
攀
祁
哭泣
恰恰
西医
大院
黑夜
白领
建档
无须
a级
太长
动静
兹
充电器
佳品
到家
##桑
猪油
##零
崇尚
物件
岛屿
亚军
lg
嘴角
固然
##ier
炒锅
橙色
商学院
1968
miss
skills
玻尿酸
滑雪
爆竹
##25
商业街
以致
孕妈
1965
很深
读音
痤疮
ō
荫
同伴
角膜
蓬
体育场
友人
默契
林木
prior
乔木
板栗
心爱
肉片
##zi
sides
停机
壮族
labor
cos
妇产科
全球化
defensive
完备
上岗
女足
##增
深色
美术家
臀
巨人
面具
与否
换挡
连衣裙
用工
##棚
corner
红楼梦
苍白
分组
玻
淮南
vi
羊水
一月
肇事
轴向
量子
休假
钢丝绳
架子
毅力
171
嫌弃
存活
秒杀
专心
金银花
走着
加长
##雕
一节
自学
beer
二十二
总分
immigration
景德镇
foundation
冬至
圆润
敏捷
secretary
失落
兼容
名贵
如若
旅游局
不孕
谁知
被困
实事
戊
日渐
结构性
##媛
箱子
罐头
缺钙
稠
剪切
连胜
悉
叶轮
雌激素
防线
mental
征程
约翰
failure
小明
sleep
枇杷
减压
葡萄牙
油价
elements
边框
原型
不可缺少
秤
茶匙
雷霆
奸
油缸
6l
估值
杜鹃
腰痛
钢化
全员
##归
过热
远近
棚户区
连忙
麻麻
繁忙
ü
悬崖
镜面
1962
守法
xxx
朗诵
麻痹
医嘱
巨星
坚韧
产区
poll
奶酪
yu
岳阳
害虫
过期
凝聚力
笑声
个头
建面
bigger
活得
合唱
照亮
##俗
悄然
愿景
后遗症
起着
前线
手心
北欧
陷阱
重叠
п
字样
不带
同级
那儿
心电图
肃
paying
输给
迈进
c1
上年
talks
赞同
燕麦
丁香
出生地
toronto
happening
切记
开玩笑
茶园
洛杉矶
早起
选择性
一盘
上手
常德
轰
##dy
starts
攒
红利
朝向
未见
不可思议
##16
倘若
大雪
审定
冬日
##读
无菌
万年
命中率
不走
消极
非标
select
幼虫
团伙
喷头
重工
送去
##厚
突变
肝病
受体
役
过上
量大
##埠
项羽
品格
##淑
脱毛
烤漆
微商
颠覆
inc
##渠
157
圣人
南门
pop
加分
##her
融洽
制止
病史
提名
tests
配比
龙华
净水
黄土
莫过于
6亿
亚马逊
commission
##档
matt
檐
##倩
岸边
syrian
reform
宫颈
指示灯
tweet
ties
滨州
没收
发生率
##币
胀痛
燕子
##锁
##墩
##ot
忠实
传闻
##谦
阴性
二十八
克制
suggests
##35
静止
最佳化
推开
##骏
成交量
凸起
##倒
越冬
下设
枝叶
主意
臭氧
con
吊装
小心翼翼
多样性
覆盖率
耐寒
factor
痴
高强
回族
栗
革新
视网膜
黎明
立项
##02
176
亲友
##卦
蜗牛
##弦
÷
染料
天秤座
哭闹
高跟鞋
食管
丹麦
怀里
计生
射手座
##优
下端
热播
晚间
山羊
渲染
舔
1973
taxes
喷嘴
别致
截图
ge
不全
使者
生津
管用
td
口臭
##十
扁桃体
si
星球
胎动
auto
很棒
评测
fired
牌照
下手
几款
tend
格调
猪肝
##陶
灵敏
责任制
下水道
secure
监护
泌尿
心律
床头
肝肾
206
倡议
##粮
奢侈
东湖
粉红色
##ps
代号
总计
收割
##码
敌方
袋子
##筒
白萝卜
离家
翻转
上端
两张
党总支
不合
归还
跪
strength
放手
金星
甲醇
要到
##盈
possibly
丘陵
违背
总队
a3
西游记
大作
伤感
大牌
匈奴
corporate
stars
ds
寄生虫
任教
absolutely
爆破
自由基
organizations
贝尔
金针
赣
对决
步行街
af
有事
推崇
中火
##是
奔波
混动
limit
测算
血流
湖水
高铁站
娘家
武昌
intended
##施
晴天
腕
专著
朴素
新世纪
carried
ma
中控台
骆驼
阶梯
如期
く
乖乖
太久
水解
williams
减排
一派
vision
征信
肢
受凉
年少
不可或缺
充血
肝功能
纯收入
矿石
供奉
估算
详解
柜子
附上
鼻塞
过剩
加盖
憋
债务人
turns
##瑜
1974
爷
呼应
紧接着
鱼儿
万千
有机物
impossible
兼具
兵器
再多
聚丙烯
喷水
故居
##玄
哈哈哈
穿透
apply
helping
##ham
aid
##帕
烘干机
幼苗
诱导
jack
##腿
治国
接连
团圆
alternative
装甲
食客
##肥
##止
军工
暖暖
脚手架
宫殿
大黄
打理
领悟
植树
限于
洗衣
调入
带回
浮肿
立志
15000
仅次于
漏电
prove
##ning
调味品
机房
来宾
暑期
些许
座落
土工
减震
眼角
况
小额
炒菜
imagine
计较
加州
逃生
构筑
会去
南充
unless
伤病
こ
fi
脸型
报刊
尘埃
沉香
统计学
帅哥
首款
庵
internal
老太太
一堂
身旁
##di
天花板
赛道
二三
上行
油泵
锋
##态
入库
这下
肝胆
##盐
##峪
土豪
成名
jim
驳回
第6
李子
比利时
皮卡
roll
汤圆
shi
发财
许昌
财神
王家
潮州
##密
摔倒
医学会
庭审
votes
肥大
1969
est
索尼
衫
销往
美甲
seeking
getty
##岚
绍
决议
静音
boston
完整性
sounds
细长
district
背上
operating
##策
烹
高分
水草
嗜
贫困村
filed
cold
厄
双子
武林
隐蔽
漏洞
平平
答疑
好感
晒太阳
将领
底价
羽绒服
诉说
standards
##问
薪
洗头
试用
variety
征战
毫
抗病
低迷
以西
寅
跨国
humans
同情
wave
学前
一米
##侠
人品
屁
professor
意图
domestic
covered
人行
bus
##防
##碧
家住
solid
length
松软
梧桐
撩
求职
伦
##肌
后会
全额
身价
欣慰
元宝
##常
12000
capacity
娘娘
省时
逼真
两用
服役
151
最深
不求
##棉
##沃
禽
齐鲁
实处
markets
##妇
elected
cap
试行
喂食
fellow
后备
改动
保质期
dropped
花岗岩
鸳鸯
2200
共鸣
solar
方管
核准
nbsp
洋溢
沁
carolina
##径
弹力
追问
淡定
白白
发车
辟
时长
gen
惊叹
石雕
增效
刺绣
carbon
奶水
朦胧
cba
tree
##馨
except
religion
tour
烟囱
注销
1700
accounts
马尾
天花
过关
毛囊
ev
残忍
刊物
ec
四海
##66
沉浸
losing
铁皮
月球
招募
1900
量产
中国画
cuts
仙境
渤海
grand
听话
每逢
岛上
高产
broken
一架
共振
迫不及待
徽
烘
娄
提炼
那一
月季
twice
髓
地步
鳞片
##壶
波长
ⅰ
本科生
牵挂
##18
##席
杨柳
van
苦恼
心悸
预订
##va
古道
2mm
##ga
定植
史料
砼
宋朝
##mi
允
演义
及早
寡
t1
樱
录用
保修
003
泳池
之二
出产
企图
身着
口干
##line
人民网
秦国
之城
伊始
房租
增设
无缘
汉代
千百
西城
##绳
输卵管
tri
新版
animal
208
上将
长条
清净
不放
一趟
写道
风管
拨打
遍及
剥离
中都
″
不离
电解
##弗
大拇指
写真
mn
ig
##ks
大功率
pic
油气
eat
多糖
肿块
热潮
究
募集
2021
宽大
本病
童装
很美
鲜肉
不长
查出
莫斯科
适于
逝世
储物
8亿
藻
时间段
血脉
日系
廉价
盆地
牵手
宁愿
管理处
正直
枣庄
冀
联网
铂
居多
一族
婚前
##ft
英镑
英超
心境
##衡
复式
##配
筹
prepared
100g
突击
知情
云雾
closer
温热
钱币
广电
潜能
持平
哩
developers
桂圆
禁用
ft
experts
安检
定居
减速机
regarding
units
##想
famous
environmental
彝族
核定
春运
自发
⑥
朗读
sitting
制裁
契合
##裕
扭曲
停靠
soldiers
诏
树苗
僵尸
一回
确切
鞭
眼皮
潜艇
厚厚的
凝结
沉降
承德
眼袋
pet
半决赛
鹦鹉
engine
情人节
ultimately
给水
邮箱
河东
维度
避暑
developing
税务局
吻合
微软
##欲
##ber
阴谋
琉璃
暖心
勺子
##接
瘫痪
迟到
原发
水滴
virginia
850
退还
启示
打响
奋战
profile
屋里
釜
冷空气
买来
集资
泥浆
authority
啼
敏锐
alleged
无毛
pull
梨花
酉
负压
dm
羹
乔丹
蒸熟
白醋
三类
宛如
173
瑕疵
spring
解脱
强悍
红细胞
六一
学报
鉴赏
##继
妥
统计局
agencies
树干
儒家
游离
谚语
卷帘
forms
174
白雪
马克
百里
孟子
定律
软组织
强有力
dance
混合物
脓
##ized
好比
翔
勾勒
伊斯兰
sector
flow
圆柱
迟迟
owned
家门
焊缝
张家
番禺
呗
md
竟是
planet
狄
不稳
大病
毁灭
嘲笑
多加
五菱
纹身
假日
eric
francisco
放疗
递交
恭
唱片
yards
本职
公诉
妈妈说
weather
纹路
default
手镯
判决书
大佬
澄
蹦
闪耀
jackson
红斑
扎根
定额
##绒
靴
男神
##尸
断电
金牛
加减
死于
加倍
各县
营商
地下水
possibility
想买
理事会
煎饼
着眼
消退
热能
着想
api
##爽
不畅
留有
鱼缸
白玉
小礼
标语
自治
percentage
纸巾
刻画
##训
nasa
##钧
ω
想象力
梢
长廊
履历
客商
一战
穿孔
生产商
catch
烧伤
表述
1966
得天独厚
糕点
sm
出任
迅猛
图册
##33
##域
仪表盘
赠与
碎石
应邀
博士后
脊椎
洗礼
接送
相册
领导者
##射
天府
164
向阳
何以
##field
到手
五彩
百搭
零售业
阴茎
原木
初二
肥皂
午后
switch
双胞胎
榆林
mvp
applications
武则天
绝佳
shape
灵活性
背影
胚
鼓楼
画卷
万家
elections
变异
上班族
guess
粉碎机
流逝
##栏
五谷
tm
公安部
linux
##ance
揭示
加成
真好
误解
忍者
很远
老街
cultural
致癌
开除
lt
177
二十六
15g
空隙
australian
surprise
lu
风气
丝丝
日夜
建房
滥用
##警
1961
自卑
乏
facing
agent
危房
酵素
渴
性命
向右
箱包
##弟
##磨
桐
莫名
语句
地黄
北上
特制
网民
胖子
孢子
340
宣读
copy
220v
北极
edge
美发
来往
椰子
过低
打进
located
pieces
breaking
##检
##胆
浮动
寒风
臻
ep
##梨
马蹄
养胃
185
dream
出击
洗完
冰川
滴水
瓜子
蹬
茂名
ス
wood
##泡
意想不到
魔鬼
responsibility
favor
一条龙
简要
顺产
全能
##坦
小球
##造
256
戒烟
remove
一环
荨麻疹
术前
四百
获利
投稿
瞩目
里边
铭记
地里
灯饰
不料
1971
已然
火龙果
出游
相通
羞
愚
※
关门
胸怀
糟
实景
假的
抖动
省心
仍旧
三者
更深
鸟儿
为首
开具
强者
一缕
黄连
调用
捂
好似
finish
一出
防腐剂
体贴
##脑
雾霾
currency
迹
拉丝
##舒
谈谈
等同
qi
条约
面的
乐于
胃部
造福
中海
针刺
组委会
玉林
207
212
多半
盛行
投篮
醒目
respond
protest
疮
##胡
拨款
treated
茶树
顾名思义
口语
物理学
dn
飞跃
怪兽
税额
量化
321
历年
木纹
存量
山河
烈日
gm
1959
黄铜
比对
166
烟酒
西门子
bp
mouth
交货
pd
轻质
皇宫
自然界
##ba
繁琐
书香
执教
七彩
presented
总工会
familiar
代言
失信
祥和
各省
配对
鳄鱼
过早
胃镜
肤质
答辩
片段
##99
未婚
山体
停下
##mo
5a
一并
构图
趋于
##ee
后备箱
便利店
ktv
肾上腺
##驰
极品
撕裂
水系
pt
农林
粗壮
campus
领土
缺席
眼圈
下一
蚕
站台
db
紧致
基材
一栋
魅族
无纺布
向西
皖
estimated
kim
故名
阎
憧憬
fa
affected
221
##mer
性味
自理
seek
向北
❤
specifically
学府
backs
推向
钵
九州
surprising
福气
##昂
雨天
留住
特地
充沛
√
雄伟
郑重
元宵
南沙
一倍
â
考入
飞扬
城北
评比
摇头
huawei
军官
发声
小溪
硝酸
po
觅
##弘
履
向来
十堰
distance
功用
##15
更何况
elect
##88
长治
4亿
cb
棍
海滨
同仁
界限
查封
attorney
ò
屠
提速
根据地
放射性
享用
小三
长宽
供血
##技
液化
锻造
质保
网贷
栖息
determine
##扎
戌
纠缠
conduct
安抚
誓
黄埔
william
对准
昆仑
淹没
helps
打球
stone
佛法
exclusive
安全带
选定
薯
##默
病灶
各村
投保
全网
楼宇
孝顺
外型
##he
1955
灭亡
右脚
查获
##ker
##28
承揽
挑剔
##补
全天
wear
工作组
##ir
寿司
茉莉
白金
frank
胎心
摧毁
干细胞
契税
213
兴业
161
que
圈子
金丝
一招
tc
打发
音乐会
淋漓尽致
新旧
站到
降水量
波浪
论语
增长率
计入
老头
口头
班车
一试
礼盒
五代
梅州
##62
愣
cy
南岸
后裔
质押
panel
potentially
大开
ro
急忙
邂逅
下一代
导读
选出
犯规
生鲜
门板
蒜末
pan
高通
vehicles
分段
黑木耳
云集
各式
整容
click
determined
畜
宏伟
因地制宜
discuss
粮油
苞
guard
光阴
同款
绒毛
gl
种族
急剧
菱
布满
purchase
够用
严寒
滇
菜市场
内服
一不小心
##13
躺着
虹桥
单单
利物浦
母校
##痕
ipad
借钱
保税
先端
还行
预先
现款
trouble
阴凉
大有
occurred
角逐
田径
香肠
correct
枝头
水乡
cad
ha
液态
指针
##king
violent
聚酯
车尾
英勇
后宫
重任
淤
热议
发言人
麻将
rising
缴存
进货
broke
infrastructure
变态
equipment
工作队
动植物
专场
两头
ba
卧床
伪装
奔腾
旧址
weapon
秒钟
东门
咒
情商
bob
移栽
浪潮
一点儿
七星
##77
张扬
##梓
大宗
##略
毯
刷卡
波形
澄清
扫地
同居
松下
##尧
取下
nc
novel
troops
蜿蜒
职员
评级
地表
兜
立交
标牌
##觉
断路器
傍
太岁
##染
悠闲
退货
霉菌
删
玉器
寓
排烟
追赶
蔷薇
松江
experienced
##ging
把关
动工
书本
舌尖
streets
唇膏
235
洞口
listed
渭南
seasons
handle
布艺
详见
##昆
售卖
##ina
桃树
faster
序幕
贞
有幸
静静地
另行
监视
##慈
ya
学生会
锛
##妻
飞速
迪丽热巴
咽炎
胃病
日落
a2
##17
段子
打孔
耶稣
待人
##娅
222
万分
汲取
##ated
##苦
英格兰
代表队
左传
##晋
淑
天桥
##甫
砂石
人称
##钩
容颜
面上
型钢
##舌
##蝶
精神病
相聚
自私
直角
一户
获胜
##19
##61
限时
远大
river
pointed
探头
馅料
真挚
209
两会
##盆
tired
fill
师兄
##双
几家
热诚
双离合
长子
太快
庄子
上等
栗子
き
包住
日式
##旦
route
媲美
捆
奶瓶
430
射门
大鱼
好喝
动机
安稳
楼面
健身房
不许
plenty
同城
危险品
factors
工作站
珠三角
高一
吼
奥林
多米
小组赛
proposal
牙刷
##尺
吏
lie
蝉
创下
百强
白茶
喧嚣
mention
匠心
##耶
吃奶
肩负
屈原
wealth
宿迁
representative
渔民
##改
吸音
分院
容貌
square
三室
governments
陵园
猛龙
椭圆
##腰
行长
原审
treat
mpv
竹林
家风
亩产
2400
天王
眼影
逛街
妄
丛林
兴旺
上架
夺取
星辰
萌芽
evening
受限
储藏
神州
q3
心痛
言行
一寸
−
配电
不强
voted
rating
抽取
江河
255
山村
桌椅
天数
姨妈
世俗
范冰冰
张家界
试纸
现阶段
党性
当局
京津冀
弯头
药效
流向
expressed
voting
督
桌上
黄花
巴士
指尖
肉馅
双人
榨
回避
格斗
遮阳
ruling
评议
##45
methods
焦作
接纳
格子
因果
日趋
助学
殿堂
警务
turning
鲜血
refused
外公
嘎
大半
蚌埠
package
mv
事事
舰队
致电
不乏
源源不断
filled
人行道
男装
下令
笔下
andrew
不和
弹出
步步
脊髓
改制
服务商
面霜
meanwhile
##佐
厚实
施加
交际
开场
深海
pair
islam
列出
加持
3m
呵
墓地
maintain
标致
命题
全心全意
窒息
冥
面糊
涵
高架
早熟
跨度
站长
originally
嘿嘿
冈
offering
辨证
橙子
着色
体操
镇政府
清明节
宰
3mm
挺拔
中来
自古以来
zero
沸
来得
##扣
这不
仰卧
##cing
光圈
保全
肚脐
布袋
小肠
山水画
##猪
经商
冷凝
脑血管
风吹
运城
soft
城东
历来
太低
污渍
跟进
##击
无处
log
周恩来
透明度
chain
仙人
阶段性
jordan
##谈
摩托
六安
minimum
肉眼
一百多
复出
造血
满脸
绿树
腰带
bin
米线
距今
走走
反向
找我
镇静
##71
打扰
greatest
中西
##转
辑
年均
厢
低音
高超
##崖
旭
得罪
challenges
睁
reuters
##囊
op
积液
内裤
##41
conducted
面对面
前天
稀少
##谋
regime
afternoon
positions
馄饨
属猪
上皮
之名
ohio
无边
满月
nu
扮
放眼
采样
侵略
考评
wild
标段
找回
##鸭
几万
山中
屑
层次感
sr
script
酸菜
第十一
照样
芋头
褪
攀升
bought
appearance
经济性
唐僧
重温
图层
旅馆
##95
##欧
approved
构思
zi
祈祷
眼霜
pages
##ver
##李
车架
hurt
生平
拦截
游记
充值
galaxy
significantly
周口
敬畏
去向
家家户户
##ja
button
篮球场
苟
猎人
高峰期
胸前
signs
万历
几张
轻柔
aircraft
t2
合规
不贵
##98
收受
行政区
wearing
订立
保险杠
passing
兽医
暴晒
杠
hat
臭味
##隐
大宝
蕴
transition
无知
国立
通告
削弱
indeed
##ji
打到
韩式
市内
上乘
紧固
lake
turkey
泡茶
cat
不可避免
##92
柴胡
陡
罪犯
备战
曲张
腊肉
耕耘
都用
交界
酱汁
重磅
作坊
奢侈品
变小
grew
245
##刊
舟山
较量
触及
290
储量
labour
supporting
remained
一则
农商
指控
冰凉
贴膜
拆装
mix
城建
录像
不俗
瘀
高粱
##42
fs
再好
制法
island
占有率
在下
林场
百家
丹参
兵力
liberal
三餐
##珊
杨紫
reduced
摸索
水产品
乾坤
喵
体育局
工作量
510
原生
深沉
高明
##31
课本
涮
之夜
心想
报到
ins
龙山
担负
眼睑
图画
献给
植物园
泡菜
巫
鱼头
泄露
融为一体
走近
迎合
##22
聊聊
钨
问诊
脸颊
攻关
幸好
小结
牛皮癣
体式
组分
前夕
大帝
小宝宝
apps
年薪
308
溺水
党参
flat
白沙
焯水
宽广
输送带
##ti
口渴
weren
收养
加厚
生活费
这事
赶来
散装
很差
灵敏度
鞭炮
白居易
大河
活化
追寻
相逢
坦言
缤纷
盛典
s1
绘本
拖欠
宾客
阻断
交织
出家
村内
店主
综合症
客栈
1952
碾
同济
二线
潜心
乐团
故里
2022
寇
controlled
保费
很累
trans
语气
1957
纤细
basically
禹
主干道
死亡率
探测器
飘逸
辅导员
无害
难看
科创
收支
侵袭
过瘾
跳动
一刀
争执
五四
瓜果
步兵
##题
淬火
待定
herself
邻里
旗袍
enemy
为先
轿
交错
crew
圆锥
觉醒
普洱
其二
机架
心上
##婆
轧
中日
牧场
伸直
##腔
##协
contrast
太监
典故
有氧
旺季
椰
断开
狭
achieve
积雪
##谱
一盒
气虚
大大小小
声称
盛会
##ad
微信号
据此
powers
各行
吃掉
超低
北斗
232
大口
东至
正方形
第十四
大部
橄榄
##85
肠炎
集结
琵琶
1937
气象台
风量
东南部
七夕
院落
alex
藉
创造力
越过
舒展
rain
extreme
气门
多地
隆起
热泵
免除
直肠
订货
找准
浇注
团员
筋骨
##堆
耳边
founder
##rt
狗粮
闸门
击杀
吸纳
服务站
坡度
equal
emergency
钦
过人
花鸟
濮阳
颠
喷泉
受热
外人
represent
砂糖
broad
丝网
废弃物
waste
##91
##收
固态
健壮
不平
战线
int
光缆
married
粘土
初恋
群山
稻田
资格证
妥协
excited
超车
抽查
stream
ag
黛
死人
机票
remaining
identify
先烈
var
面色
##渣
看中
生子
夜景
revenue
锈
梭
顶层
exercise
锋利
深耕
风电
试用期
##占
videos
##研
sf
吕布
雍
松开
ver
彼岸
搬到
##75
山下
之年
##ney
##fe
协和
炫
最优
perform
左脚
films
reference
leads
碳钢
confidence
315
脾虚
pakistan
钻头
笔墨
两件
打针
显微镜
##像
考究
sets
保驾
火炬
孩
涂刷
ends
动摇
politicians
世界级
转会
婆
内线
贩卖
不听
##澜
肩部
发霉
糖分
门面
##娇
蛋清
马刺
丰胸
##从
省油
christmas
赞扬
##崇
冲击力
random
浸润
骏
daniel
柔毛
ga
卷材
connected
guns
处事
harm
清算
折射
障
立卡
1953
浑
argued
r1
并存
心血
发红
华盛顿
师德
双侧
车顶
谜
铣
柏林
2m
considering
专家组
靖
隐瞒
对流
主干
暂行
卡尔
戚
花都
豆制品
专栏
龒
郊区
ã
热搜
宣誓
彩礼
受灾
©
ho
半夏
灯箱
复议
骆
219
沫
秀美
湖面
1967
嗯嗯
反转
计数
未曾
2800
发给
血常规
asia
武侠
##48
减免
##餐
呼唤
ū
##sed
怜
raising
快手
人头
ル
乳胶漆
如实
厌
玛瑙
年糕
托运
基质
龤
悔
##灿
##狼
假装
lots
坐月子
302
月薪
骁龙
稍稍
冲孔
排尿
劣
client
卧式
切段
匙
combat
##est
res
外力
通达
吃亏
电解质
马尔
isis
汞
西兰花
鸭肉
##72
披针
root
ring
##末
飘香
异型
两场
##领
帮手
ke
caption
非金属
pulled
透气性
moral
乳化
儿时
differences
##si
生活会
彩妆
射频
订制
轻薄
僵硬
fix
粘性
completed
清洗剂
萧山
笼罩
万辆
年龄段
供需
越发
听从
语录
劣质
维吾尔
簇
喷施
三中
费力
脚趾
30g
ups
统战部
ら
江阴
名副其实
native
##临
uc
##显
opportunities
毫无疑问
粘稠
少有
充当
断奶
面孔
丫头
发展观
红十字
枸杞子
清偿
struggle
bike
##lin
返乡
协议书
预览
迷信
copyright
consumers
##虾
透彻
combined
##斑
橡皮
privacy
youtube
李家
誓言
吉凶
石斛
知己
回馈
##胎
寒冬
奥特曼
坐下
thank
轴线
小偷
小手
原产
split
漫漫
赏析
仰望
辈
君主
西药
opposed
分歧
婴
720
留念
注射液
胰
最先
网购
不加
##刺
大家庭
micro
ordered
##裂
酸辣
不在乎
坠落
电控
一株
##额
dj
typically
jeff
sin
积蓄
探险
皇室
紫砂
处以
气垫
##娥
墙板
主权
##tt
李世民
挪
centre
打底
郑爽
推测
##资
独到
别样
replace
飞舞
称重
说来
##湘
1948
校正
谷物
该镇
剖
出路
五种
##52
##峡
磅
##刑
technical
皇冠
fat
并列
fm
舒心
1930
专人
迪拉克
##纲
最短
万象
坚定不移
▽
高蛋白
plants
字数
直言
农业部
##at
##64
主城区
匠
##掌
档位
370
三通
faced
增量
三家
几条
制服
绵绵
科员
sharing
职权
前不久
##封
##51
潮汕
talked
药理
可想而知
香葱
##招
ordinary
有情
洗发水
浅色
固有
起火
石刻
大中
眼界
外貌
红外线
lies
纸尿裤
肛
下场
hb
长假
语种
悲哀
linked
薄薄
水生
端庄
##煤
打招呼
贵妃
锚
干线
钟表
不舍
地支
马鞍山
一艘
散落
yi
旨
cvt
碾压
初衷
外皮
龙眼
hopes
唤
干涉
诚心
ur
自建
巾
vast
一览
趾
譬如
生菜
rpm
思绪
suspect
stands
##34
帆
酒庄
端口
外径
撰
落入
肌瘤
frame
load
接壤
两座
黑头
##注
##裤
文史
直辖市
capable
上空
223
芝
无悔
奇异
细雨
超值
起草
心声
面皮
picked
wage
捻
坚持不懈
交界处
新奇
##纯
##匠
管理层
繁育
新郎
化作
##65
勘探
kevin
私立
淡雅
全资
人情
字符
油菜花
charles
armed
解开
纸质
##横
bug
长河
密封圈
防洪
patient
##ization
倦
接缝
‰
##查
犀利
民兵
清洁剂
衔
课件
菜系
首轮
骑着
creation
##ving
属相
沿用
劣势
熙
荣威
传球
馨
吃苦
海贼
河源
公开赛
年终
茨
继而
terrorist
金陵
草案
channel
专区
相约
打车
柳树
1954
affect
理赔
pitch
烧结
食用菌
理气
弱势
藏品
迷失
退伍
塌
异响
手枪
冶
茂盛
530
踊跃
堵漏
修缮
柜台
漂浮
送出
自重
无心
麻花
风范
я
不解
炙
醛
﹐
sight
muslims
营养液
涓
有余
绿水
红红
走红
跌幅
超载
水墨
丽水
##ists
女婿
刑罚
功课
杖
抗炎
术语
##23
钴
发黑
无痛
##婉
舌苔
attempts
抽血
甘甜
apart
单人
剥夺
排斥
东北部
##降
更年期
##36
动车
拟定
秦岭
grown
あ
含水量
市政协
装机
何种
迎战
传染性
driven
应变
小哥
幕后
骑兵
实干
都给
中锋
任免
嫌疑
六角
提议
奈何
设想
拍到
writes
壁厚
雅致
イ
plane
deliver
油管
热忱
白斑
谷歌
港元
lc
giant
储罐
冤
sport
屠宰
花生油
夹层
editor
优缺点
expansion
庐山
耐力
私自
锅底
##68
凄
敛
奥地利
seattle
青春期
遮盖
民歌
延期
邪恶
flag
随时随地
面包车
移送
端面
姚明
变速
tea
saudi
曙光
常人
##皓
reporters
##ide
挡住
色谱
眼线
〖
##81
ts
188
一包
溶于
不以
法术
时限
自幼
豆瓣酱
##han
私营
matters
transfer
丙烯酸
首领
母子
4l
双双
成活率
每晚
读取
榜首
metal
暴击
接通
赞叹
抗原
意味
拍打
##76
暖气片
橡塑
灭火器
第7
拒不
耗时
双边
铁板
上月
负重
脱皮
急诊
jail
根基
faces
原著
reporting
彩绘
bodies
ku
a4
垒
揣
消食
##腹
伪造
脂肪肝
〗
掰
罗汉
谅解
218
检察长
##彪
功耗
转眼
michigan
眼下
透视
再创
纯真
棘
付费
denied
##82
边防
清脆
安逸
行事
铃木
规避
山川
陶醉
公关
近似
乃是
小红
名利
appeal
刺痛
sees
h6
闪闪
info
透水
walking
缅怀
afghanistan
port
就是说
tradition
##序
对标
三农
proud
补给
砥砺
报关
专员
作曲
安居
##ds
可信
一盆
低端
飘飘
二审
分销
远古
最难
内设
四分
##89
盼望
无辜
粉红
油条
周四
韩信
体征
木兰
复仇
液位
有爱
蚯蚓
扳手
阙
妃
疆
皮鞋
变电站
kid
酬
至尊
伙
各族
准入
管理员
起亚
crimes
resolution
##ms
选材
醋酸
宋江
炒作
瘦脸
一地
说好
一档
上司
460
庚
挪威
刻度
剧组
才算
法宝
大熊猫
明知
中指
晾晒
storm
避孕
楚国
槐
7点
堡垒
相望
尖端
手自
商行
##冈
畜牧业
小熊
挡板
木制
efficient
装载
粳米
神情
大坝
unable
开会
胸口
##14
##漆
terrorism
进料
responded
南开
雪白
桂枝
listen
##58
creative
output
数次
深知
得当
declared
护照
拜访
冷轧
外的
汉子
杀灭
阳痿
临街
##厅
粘合
紫菜
照耀
adult
纺
静谧
何况
礼服
青花
さ
抵制
脚踏实地
会计师
advice
arrest
出错
##评
矩阵
金水
##96
necessari
应收
光谱
##演
枯燥
ⅲ
410
流露
车程
家禽
numerous
尾气
茬
美联储
各式各样
每户
趴在
核对
属鸡
institutions
中线
粉刺
##奈
ui
况且
##儒
民族团结
ride
一动
雕像
不由
走私
perspective
光环
麻辣烫
##茜
injured
冶炼
##编
别看
结尾
两万
dvd
王牌
排球
磺
门将
并重
巡回
春联
龙岩
尧
叶柄
骤
三轮
钢厂
学堂
##堤
米酒
肆
旦
手绘
messages
甄嬛
西北部
镂空
蓬松
象棋
交办
大头
招财
bs
衰退
近些年
小幅
##榜
美貌
纬
特级
friendly
唯独
下乡
王爷
举起
细嫩
幽门
ukraine
尿道
秉持
小腹
防撞
养育
不详
地瓜
语法
蒸馏
推送
包装机
腾飞
shots
钻机
三楼
movies
逝
糜烂
围巾
敦
周礼
玲珑
shall
youth
课时
一盏
宝玉
吞噬
中科院
抓捕
cia
病程
腥味
赔付
drivers
蚁
多情
aggressive
门锁
丞相
##63
减缓
sur
主页
##笛
柬埔寨
享誉
源泉
install
孰
弊端
##ana
自此
ali
开国
轮流
助剂
石门
楼板
片子
##86
##膏
质朴
上饶
栈道
媒介
睁开
##55
必读
机芯
ö
着火
讲堂
换届
##ny
pattern
穿戴
gc
对战
item
天龙
兑现
不敌
院内
说服
##tor
##纱
##26
##菌
时会
酒驾
姻缘
ы
虑
抬高
长篇
拉杆
heads
匹克
delive
诚挚
尼亚
外层
教官
措
亚克力
旅游区
基建
爬上
盛夏
入职
卑
##坎
财源
在位
两颗
三款
新秀
香精
闪亮
骑车
温情
察觉
好奇心
巨额
分隔
封口
晾
##ford
血浆
脏腑
admitted
来访
可可
newspaper
诵
mining
吉安
boys
炫耀
元代
pcb
骚
失控
index
退化
##职
##鹿
厘
砚
sk
所见
worry
发生器
推理
黄龙
大明
哈佛
生源
entry
##浆
thoughts
休克
experiences
开窗
消炎药
祛风
蜕变
无语
宜兴
王小
1938
台词
穷人
板式
欣喜
重返
议会
医治
suffered
上桌
文联
iv
世代
不顺
defined
扰
216
奕
收紧
动力学
自救
##逊
叹息
三方
##bo
好象
热锅
参与者
安吉
粗细
上好
der
奶牛
explains
可溶性
侥幸
窍门
##朋
建筑业
competitive
scored
闭上
晚安
##ron
##固
台下
单击
lawyer
首套
渗出
##sing
直射
本店
矿区
4t
三面
agents
养殖业
##柯
金沙
梓
readers
净土
素描
最能
谈论
一站
脑部
##03
白内障
此举
比拟
班组
detail
爆出
避孕药
选配
放宽
哈萨克
##ow
嘉定
artist
refuge
##38
brief
不育
che
锯齿
航运
objects
relations
海马
ǔ
##78
常熟
美容院
法式
##陈
大字
泥沙
满族
梵
##芸
##休
无视
伤寒
cycle
##乃
雅阁
姜末
落水
紧贴
王建
##ky
ye
intel
##采
锻
可控
航行
proof
差异化
##余
##柔
翠绿
##tive
舅舅
婚庆
无论如何
permanent
##46
男孩子
##凉
简短
leaves
democracy
declined
店家
向左
romney
updates
滑板
冰冻
属狗
甘露
集市
别有
##奴
当家
印记
惯性
bear
reaction
##ite
◇
紫薯
belief
久而久之
统称
##弓
得失
危险性
苍蝇
该项
药膏
楼顶
貔貅
架空
高能
消费品
冷热
求婚
本性
个子
statements
不二
树皮
本能
吉日
八百
沿岸
纸上
findings
种植业
长势
滥
入境
虚寒
##参
dd
叮嘱
靶
轻轨
韶关
##粥
实务
奴
疏导
长成
warm
##律
珍稀
静静
冉
co2
江东
围着
展区
乳胶
吸尘器
##79
出油
sat
那条
均线
ireland
床位
租车
嫦娥
shoot
块状
2600
学说
h2
慈悲
世锦赛
抗拒
海岛
打仗
二十七
ト
松鼠
##黎
牵着
年头
307
allege
emails
居士
中段
时辰
materials
7亿
利器
单板
sweet
肺结核
母鸡
talent
##宿
调养
冲床
糖浆
传祺
##销
围棋
放油
东盟
研究室
wonder
底漆
无证
咖喱
大咖
买菜
##67
ending
媚
市直
鲜红
驾乘
分包
当即
rc
精巧
检索
蛋液
roman
前任
拎
performed
地漏
抹布
赛前
努
花木
萌发
##恶
会场
能手
effectively
草鱼
realize
透光
方便面
出头
贴身
宽带
易学
谎言
##陆
热熔
地主
重启
经受
会用
诺贝尔
射程
motion
紫檀
消瘦
枯萎
黄冈
看下
氨基
activists
pictures
附带
tp
华律
长生
郭德纲
歧视
统统
勘查
医疗费
js
无名
热衷
挂号
除草
不胜
每每
examples
essentially
打拼
阿拉
v6
礼拜
攀登
特邀
慌
契
contains
上港
确定性
刚需
download
殴打
求生
##邑
冲刷
沿江
决战
打折
大好
演习
公道
妇人
突起
挽救
magazine
##hip
漱口
bis
入伍
##萱
拉链
1940
镇痛
advanced
argue
滕
##berg
朕
equality
ppp
##的
南下
宴会
facts
自卸
垫片
##泪
bt
入药
淡淡
fighters
正中
214
独树一帜
312
ourselves
时隔
rose
软弱
烧制
jpg
火影
明细
含糖
顶着
element
浴缸
鬼子
恰到好处
祛痘
两台
固执
成败
获得者
鸡爪
##ct
雨季
224
stick
buildings
超前
贵宾
lock
腊月
325
高汤
红椒
这话
血丝
撤离
两倍
问世
周杰伦
弱点
pi
认清
水压
闪光
扑鼻
em
2025
环保局
##裙
谐
求学
报送
共用
181
##zation
世事
绷
meat
驻马店
welcome
630
已婚
hop
##烂
barack
ea
missed
440
午饭
配音
##翁
天性
六合
圣诞节
##创
三十六
后顾之忧
下课
学霸
道士
市县
##豹
蟑螂
请假
怕冷
筹建
早饭
茄
##56
⃣
辩护
朝代
inspired
出线
0mm
library
脚踝
灵气
尿频
夜市
houston
##壮
私募
战略性
松树
莎
##醒
糖类
existence
抢断
恐慌
practices
citizen
顺时针
洁具
触碰
##87
##甸
revolution
书桌
属牛
船只
昌平
末年
打成
东亚
pr
湘西
皮疹
邵阳
thinks
c2
反响
storage
腰线
stress
双色
182
neither
##狐
救人
乒
##24
雪地
劳损
criticism
solve
dynamic
淮北
##控
brian
鼻孔
##ai
殊
俱全
乡下
everybody
causes
驿站
启蒙
房管
南向
高危
row
鲍鱼
有线
代办
深爱
过载
西域
溢出
古籍
louis
大爱
军委
容忍
饥
烟火
酥脆
腥
心事
jews
prefer
总要
265
signing
expression
560
证监会
触摸屏
转转
我军
一串
痴呆
牌坊
溴
##涂
##den
##ties
抢购
近来
炒饭
三名
大纲
序号
深浅
教研室
小勺
有缘
讽刺
蓬莱
产销
锦州
大体
skill
小鸡
拥护
promote
涨停
下雪
放水
屈服
孙中山
nations
龙王
危及
艺术节
嬉戏
tia
##wood
显卡
##姑
trend
光影
封闭式
suicide
屋内
听得
desire
团聚
擦洗
豆瓣
##red
亿万
allegations
totally
期满
碧水
腹腔
##己
冰块
forget
articles
##异
##one
##饰
触点
四位
校内
孕酮
个数
北门
美妆
肉桂
用处
出料
drink
传入
址
宏大
##留
茶水
accepted
伤人
yesterday
林立
淋浴
菱形
卖给
985
injuries
稀缺
望远镜
夹具
拳头
走动
城西
hole
多条
全称
坏人
煮好
绕组
人中
结肠
要不然
initially
三十多
temperature
水润
访谈
尽责
富力
传销
shit
##ves
valley
矿用
性的
甲亢
##我
magic
衢州
焕发
historical
争论
distribution
厦
##ah
sb
附中
199
studio
喷淋
governor
鲨鱼
ff
侦察
推移
转盘
korean
耗费
二号
亲民
要好
快门
303
灯火
holds
元宵节
classes
##趣
豆果
溃
师长
叫声
serving
ak
一再
岳飞
朔
consumer
送礼
胜任
洗浴
须知
第十二
打完
寂静
##44
透析
券商
西区
披萨
##织
无公害
接力
小段
放缓
palestinian
红烧肉
winter
共生
colorado
很短
海湾
warned
水深
刹
晓得
math
蓝图
茶饮
领衔
提案
奖杯
碧绿
乐意
classic
短缺
划痕
限期
228
scheduled
##鉴
庆幸
积淀
迈出
guide
防震
伦比
套筒
前卫
##尽
tu
##扇
临汾
不掉
viet
浮现
fake
破门
##至
茶几
嵌入式
限行
比率
stores
davis
哲
100km
新婚
jesus
improved
lord
##led
公鸡
division
mar
花落
绕行
慢性病
同名
流星
defend
##ings
路桥
##致
抢占
烛
掩饰
jump
rape
热气
重修
撸
##by
慎用
受邀
方能
acting
船上
爆笑
applied
ь
白皙
蓝光
赶赴
种苗
roughly
adam
上古
surprised
出发点
宰相
欢笑
展览会
老兵
喷砂
有水
ra
高热
客流
矿井
cbd
握手
留下来
crazy
显露
pin
害羞
231
烧饼
mol
第十五
女的
##em
飞来
doctor
不得了
慕容
represents
太守
快船
古树
奴隶
increases
偏远
protected
反倒
永乐
莫名其妙
脚气
办好
佑
开播
当了
渗入
刺史
心绞痛
经由
拖鞋
##ul
阁楼
##芙
announcement
类风湿
景物
清纯
书架
货款
911
诗经
pen
筐
翻开
discussed
硕
送入
合同法
陀
造影
平顺
冷饮
醇厚
##帐
区县
酒类
010
并举
miller
疣
路网
和面
warning
offense
lcd
conscious
抽奖
二十九
##净
上个月
五脏
触动
发球
防晒霜
胃痛
kb
现役
自体
金鱼
尤文
追肥
美酒
驻足
常绿
直通
阵营
拉面
links
试验区
结婚证
打野
bio
跻身
gp
擦干
装载机
内陆
柱子
guilty
巨型
爵士
便有
私下
游艇
##途
极力
三口
衬板
功底
alcohol
益处
begins
祛湿
机械厂
硅酸
召集
咪
三合
脚上
疲倦
##兔
爬山
318
赔偿金
follows
猛烈
仔猪
野菜
水冷
契约
号牌
养花
常在
安放
1946
铂金
蒜蓉
1947
##鼠
backed
tested
强强
evil
光合
议论
manage
罗斯
原版
前台
联接
consequences
nearby
##ay

georgia
心肺
全屋
##省
裁决
大吉
敬佩
胆汁
restaurant
涧
entered
了不起
喝点
4a
丰产
试样
x5
弯腰
文案
knowing
##恋
墨水
控件
道光
threats
杏花
史书
淳朴
呼气
译文
王晓
##wa
##logy
电路板
袜
瞪
亲生
总算
下层
录入
##伏
纵观
songs
coffee
豆豉
司法局
雷电
50mm
自强
pot
北至
cruz
清洗机
庄稼
别称
哑
hell
##08
gu
各区
选秀
骗子
劝说
扔掉
新政
三世
谣言
##耕
后置
tight
四级
moves
血管瘤
襄
育种
无水
007
电位
asian
奢
adds
essential
坏事
一年一度
二醇
千亿
input
生吃
##瑟
增加值
惊奇
##璐
大通
古迹
无尘
和好
红润
putin
层高
色斑
预后
音质
摇篮
显瘦
纪录片
##05
功劳
s2
复产
温润
学年
村委
pushed
扰乱
贴片
sought
226
不败
##第
lin
百分比
修护
押金
调研组
北纬
三甲
forth
览
巧合
brings
博物院
##ating
假冒
家教
strange
advance
向日葵
行进
先导
bo
##笼
声乐
隔板
处境
倒霉
俄国
室内设计
琢磨
stephen
喽
尿路
span
580
##响
紧跟
怠速
fashion
hc
天鹅
卖点
章程
高额
注浆
生长期
搅匀
计时
路途
面层
三日
journey
参演
nick
博览
vice
郴州
受害者
营地
观望
专柜
三线
心胸
自查
精工
要领
万万
亮眼
大峡谷
器皿
麦克
配伍
手链
曲靖
珍品
适应症
健胃
灾区
ish
营业额
顺势
早春
执导
wilson
##47
宁德
抵挡
format
稳压
express
山寨
满怀
零售商
十二五
##ries
挂靠
波斯
度假村
##禾
ray
rng
主攻
基底
opposite
明智
荣幸
朋
investors
高昂
receiving
snow
kick
蹄
商务部
绿洲
设计院
钙质
轻重
渊源
华府
色差
顾虑
烹制
周三
combination
oral
谦虚
名著
queen
暑
双语
人机
从头
第一部
全乡
8mm
buying
绿城
决胜
清淤
感触
sl
合法性
寝室
照料
盛产
arizona
bag
functions
财力
好学

司令
聚餐
有助
唐诗
上浮
氧化物
素颜
凹凸
荡漾
叩
缕
佳人
30000
妖怪
丢掉
proper
fairly
##键
元帅
难关
南极
hk
落花
嘿
便携式
um
家家
爱尔兰
volume
marketing
phase
christ
一排
偏离
加热器
sufficient
粗大
热力
肥肉
波音
彻
topic
##练
港湾
mistake
进城
运输车
だ
久坐
上万
界定
networks
1951
油温
带状
响声
195
抗旱
鹿晗
近乎
wake
招呼
伤者
着凉
平顶山
运动鞋
鼻梁
金龙
祠堂
##牧
摊位
醒了
举止
瀑
省电
除夕
anywhere
blame
authors
史诗
minor
风速
文创
贪污
箭头
修长
里程碑
带入
捕捞
大学城
plain
迫使
村镇
下饭
懒人
蚊
延时
##魁
唾液
虫草
dollar
血红
摆设
桂皮
渔船
agenda
锐意进取
192
2100
常见病
glass
##必
传言
龙凤
佼佼者
覃
侵占
贵重
皇子
墅
血量
故人
过失
心机
dry
##狮
遗体
欠缺
裸露
洒脱
指肠
鞍山
四轮
下周
隐隐
转角
##桌
悠
伸长
南美
位数
##37
民心
中度
民意
红颜
##49
nh
刷子
斧
manner
瓦斯
赤峰
抚摸
燃煤
工贸
椎
垢
引出
粉条
甜食
其人
冷暖
赞助
硼
##83
来得及
娱
bound
心仪
汉武帝
##04
2300
noticed
铁丝
##棋
tony
生完
青州
嘉靖
很重
多一
蜂窝
甘心
大碗
祛除
御史
promise
铺装
诵读
击中
狂欢
履带
油品
剔透
短裤
老人家
虔诚
腋
importance
刺客
relevant
雪梨
白砂糖
熔点
振奋
搞得
诚邀
heavily
早安
黑板
香草
##53
铝箔
始祖
晃动
##怪
日志
ki
customer
讲授
永安
179
自然人
地级
点球
v8
younger
攻打
蒸发器
##算
##垫
春光
京都
rally
骄
##斋
##73
凶猛
ufc
阿富汗
辗转
戒毒
剧照
金秋
开元
遍地
离退休
气短
相助
普法
七大
赵云
##灾
##ci
##爪
方块
电容器
账款
中卫
##徒
黄海
##克斯
##退
安监
铁道
targets
##简
动听
婚姻法
kelly
草酸
##讯
ancient
泥鳅
北面
倾城
润肠
益智
球菌
认购
眼帘
根茎
迫
colleagues
木雕
许许多多
2030
噪
爆款
降落
陪我
牛羊
##幅
玩笑
electric
universe
普惠
扬尘
殊荣
放飞
欧文
焕
花生米
tiny
连同
deaths
冒出
白虎
蒙古族
##申
林肯
雾灯
宝藏
工商联
野心
素食
摇滚
感性
urban
竹笋
药液
##43
矢
专业性
复印
protests
波纹
accurate
不愁
揭阳
doctors
防伪
积聚
诗文
regional
相交
西南部
##帖
偏爱
杀虫
画像
介于
##藻
joint
catholic
河口
离合
水电站
™
controversial
##84
##筋
刚度
excellent
##29
suffering
推销
一体机
audio
eating
formed
混沌
pacific
张飞
人脉
甜味
##杂
签到
virtual
makers
起泡
ae
拍戏
水壶
unfortunate
画作
和解
廷
m1
##焊
taylor
天安门
601
套件
纲要
永州
posts
城门
##au
攻击力
##炜
缺损
情境
emotional
中小型
217
低位
重中之重
法拉利
方圆
earned
三江
编译
3200
光洁
hardware
亳州
开张
露台
息息相关
痔
海面
道家
词典
clock
弹药
##庄村
小屋
##椅
一目了然
表率
bid
血型
##57
逃脱
借用
寄生
化纤
费率
##蜜
##stic
防渗
contain
忧郁
1941
航海
漫天
先前
replaced
壮丽
旧时
央
公安厅
lobby
##97
结识
多图
198
汉口
磨难
jr
热轧
##27
空地
支线
wins
儿媳
权属
千秋
carrying
阳明
纵深
##93
乐曲
阳极
acts
往日
高涨
无助
追随
画法
灭绝
##枣
ラ
三里
mile
orders
军用
左转
玖
depth
雄性
抑制剂
雨后
一年
发源地
相接
征兆
贪婪
mom
##ess
眉头
定性
天麻
regulations
画风
迭
婚纱照
偏心
科幻
深山
305
吞咽
小城
风波
宝山
台账
滞后
bright
抱歉
##唐
麻油
##瑾
产卵
鄂尔多斯
核电
球阀
邻近
忌食
hy
gap
versions
联军
降噪
冲锋
代购
身躯
山里
无常
立面
磕
##06
##臂
##熊
eva
##贼
读后感
乡土
器物
球衣
竞争性
飞船
剧目
基本功
石子
cloud
耐受
银子
受阻
##焕
话剧
ou
facility
上半场
时下
静置
肩上
现房
结对
伦理
自贡
两片
重现
陈家
采矿
schedule
枫叶
夜空
四氟
察看
雷诺
天籁
再不
##久
签下
moments
arab
入股
装满
子弟
考量
桥头
fixed
不法
##39
单打
草丛
铣床
头盔
franchi
轻钢
余种
转到
##险
角钢
产检
举证
王先生
sample
男的
白芍
##乎
大哭
竞选
republic
粉剂
immediate
象牙
裁剪
热风
主卧
实质性
茶具
抽搐
批判
adults
相符
断桥
该市
美金
自立
钼
孙权
approval
remote
0x
tb
庶
丰台
于心
二百
opponent
##频
拘役
转轴
移位
并入
squad
延误
提拔
跳绳
1942
持之以恒
调剂
痘印
浓香
苦苦
捆绑
喷油
returns
开端
急速
听完
只剩
系统性
值钱
wars
下联
取样
##ned
庙会
fewer
受贿
partners
深邃
夜色
苛刻
##ten
国债
旋钮
魔力
梦者
几只
滞留
名列
锁紧
悟空
harder
周二
胃溃疡
花瓶
sql
无花果
leg
肋骨
##凝
abortion
##000
3c
炎炎
四维
知县
au
心慌
折断
卷发
yeah
⊙
##轨
下颌
书评
10mm
##邪
娜
直行
##虚
强制性
换代
互换
推力
基调
anyway
hoping
##历
泣
封锁
此生
技工
绑架
掌心
滁州
储值
有声
管理学
##除
绿化率
nb
hotel
卫士
frequently
校企
大红
赡养
拖延
早泄
被盗
侧重
献上
手势
作品展
featured
倒数
磁铁
马丁
感官
威廉
微米
extent
苦涩
仙人掌
ford
##gh
joseph
电费
5500
中长期
中餐
鞋底
literally
科技园
粽
雨伞
最怕
玉兰
迪拜
心生
卫衣
小岛
磨练
亨
sole
鲸
装饰品
国会
##亨
开拓者
心心
凉血
重回
关中
殊不知
祈
时钟
划定
揪
千元
大屏
水溶性
tournament
守住
曼城
却说
铸件
隔着
仆
ppt
胀气
terror
暧昧
detailed
ine
上阵
窃
hundred
660
950
国资委
wi
紫薇
犁
卵泡
出栏
participants
棺材
海藻
communication
该案
谢娜
厌恶
ill
做客
每股
明了
可得
成片
报案
天干
隆鼻
成才
sister
简体
assets
constitutional
dt
呐
胆小
胎压
匡
低层
融创
井下
抗议
马甲
全城
骑马
coal
farm
拉长
馋
结冰
富民
实事求是
德阳
height
短短的
##议
敷设
不符
装上
释迦
qa
入院
受过
尚有
updated
亮化
老乡
水溶液
##lt
大堂
ken
体量
牧草
小孔
零下
生出
##贺
川芎
主办方
工商局
第十三
塑性
极速
罪名
豹
下文
王妃
装配式
##脂
内江
##就
跟上
describe
脸蛋
面容
挡风
##宠
grade
小鼠
pushing
流速
水文
麣
张贴
菌群
一等
奋
斗志
绑定
问你
bowl
毛笔
枉
擅
韧
长腿
梧州
deeply
硬朗
g2
解冻
中建
之行
##谢
眼底
p2p
不凡
circumstances
##范
sentence
多汁
内衬
总产值
拳击
茂密
过节
脚跟
圆钢
teacher
成群
广安
剃
东区
淤泥
指望
气孔
清河
化名
纪念碑
hone
肉末
麦芽
severe
高发
圆柱形
来历
逊
机智
传人
将士
增减
武将
##湿
一大早
县区
喷塑
秃
衣草
抖音
relationships
网吧
超薄
李文
##测
致病
oc
不远处
嗅
封顶
套房
手部
功力
秉
答题
超人
迷惑
##播
告诫
卖掉
钦州
boost
变黑
捐献
深入人心
顺丰
糊涂
牡蛎
##败
中网
奇观
痛点
neighborhood
destroy
吊车
梯田
天门
两厅
稿件
causing
有效性
保住
百日
布线
缔造
已成
度数
1939
驼
大洋
算命
等离子
detroit
狩猎
痹
使命感
升学
immigrants
纸币
bridge
kinds
两房
老字号
不畏
impressive
fundamental
##着
色系
列举
主业
##mp
中转
1944
decline
escape
##雀
feed
老奶奶
轰炸机
增殖
隐身
粗粮
中国移动
厂长
234
mba
cv
watched
石板
struck
empty
蚊虫
祖父
热油
artists
妾
targe
乳酸
笑笑
防癌
赏花
达州
signal
浇灌
复原
匪
世外
切身
附着力
因病
火箭队
此案
黑人
##ory
纯棉
部份
颐
不弃
中暑
ru
雨中
referred
松散
市容
土建
236
或多或少
紧凑型
佳绩
微弱
建筑群
##tes
cutting
rmb
残余
重物
登高
mainstream
揭晓
范儿
俏
可取
原味
关机
各色
紧身
天际
补益
##属
栩栩如生
##穿
清末
##围
人缘
杨某
筹集
227
创业板
寒凉
大将军
澜
ju
黄芩
机箱
衣裳
能干
一见
片状
拣
关卡
甲鱼
和人
往外
taste
##晟
情歌
鳍
relative
##鲜
后部
##两
忌讳
阳江
deck
水淀粉
usual
名医
壮阳
攻克
民法
之法
##朵
亚热带
卡拉
##钰
贬
只因
口腔科
commitment
止痒
241
灵山
绩
心酸
招待
捕鱼
地价
肾气
风热
后轮
1920
航站楼
印染
通孔
艾叶
ls
失利
comfortable
诀
玄幻
孝感
冷链
青云
换气
违建
八路军
丰盛
地层
山间
##桶
工装
pl
wine
高配
青藏
dad
疼爱
主讲
尔雅
likes
榆
坐姿
如水
烤鸭
研判
alongside
足协
姆
##74
winner
如画
つ
plot
生粉
经常性
抉择
报仇
properties
mayor
dedicated
毅然
情谊
曲面
抠
负离子
俏皮
双龙
单项
忧愁
expert
家境
##载
鹌鹑
##送
va
芦苇
思域
一枝
oct
italian
趣事
缀
敬意
促成
纠错
爬行
南区
高点
领克
学好
##茹
但愿
工程量
italy
dp
树冠
高光
就地
纯净水
里脊
夹杂
##07
aside
督办
小李
爻
##韦
哪位
attempted
轻工
风景线
moore
相克
凄凉
出入境
风干
一班
##94
佳能
盛名
275
诸葛
##胸
缓和
锥形
俯
漏斗
yo
selected
局限性
五颜六色
包扎
芬兰
liu
集训
##付
##颂
坐上
##拍
第9
倒塌
喝完
折合
谱写
江宁
4800
烤盘
沙河
333
滤料
黑马
城市化
腹腔镜
全职
描
芍药
妮
捷豹
cl
短线
з
轻巧
309
深水
jason
三万
crash
光盘
围挡
自信心
澎湃
咖
内径
battery
烟雨
宣言
##贴
上联
社长
支承
г
安然
realized
饰面
上下班
钢制
艮
受众
501
首府
数万
颅内
干货
启迪
用上
debut
fail
价廉
古风
teachers
##奕
handed
无用
##葵
敏感性
而今
焚
吃肉
expand
spirit
蓝海
bull
背负
咬伤
fda
小弟
龙潭
401
散寒
resistance
##甜
surveillance
基石
雪佛兰
walked
酱香
正常人
昨
disney
拧紧
警力
vol
海盗
伤痛
功臣
custom
捷达
一扇
交融
月嫂
卫生部
落幕
李先生
nbc
杨家
不至于
附子
辩论
两百
##妈
牛皮
四溢
桥架
耐压
磨砂
横幅
1935
网状
hollywood
б
founded
余生
立体感
虚心
专访
industrial
##植
侮辱
dealing
灯管
反省
正比
alive
生怕
梯形
李晓
宣称
dec
插件
强健
##ut
henry
农耕
读完
操心
##迷
富人
廿
备份
radical
化脓
交友
取证
陆游
##om
文鱼
mon
approximately
原汁原味
miami
selection
##醇
出征
参见
火锅店
连线
螨
扫码
平价
笼子
碍
王维
observed
嫂子
复试
纽带
##54
自然而然
图表
陇
大虾
绯闻
偶遇
##雾
民进
4k
西洋
废品
人像
紧缺
绅士
打听
阻隔
狱
足足
收盘
多亩
买方
238
directed
小将
两套
zuo
小王
洞穴
n8
实习生
三要
伴奏
配饰
semi
乌鸦
畏惧
中欧
静静的
摇晃
unknown
dogs
合用
##ied
情操
广元
flying
睹
深渊
espn
##决
切尔西
蠢
善意
讲课
栅
标价
旋风
台式
不理
田地
紫金
royal
忽悠
bra
迈向
20g
precise
##斯特
值守
凉皮
##lla
##弄
甲级
233
节制
6mm
焊机
季风
蒸煮
童子
大中型
利水
桃园
attend
中亚
狭小
##ku
假山
还用
全队
形似
华西
经营权
extended
好书
雅思
##穗
弊
庄重
书画家
工农
老伴
##zing
老将
opponents
齐心协力
##涌
车里
东阳
梅毒
背心
水路
怎能
exciting
滑坡
并联
附加值
无线电
大为
造船
双臂
棱角
蚕丝
sn
出境
database
nhl
当面
informed
##折
代言人
上书
公孙
脏器
奠基
array
垄
242
校外
花茶
滚轮
摇曳
边坡
每家
晋城
不善
透镜
fraud
sharp
ie
可疑
省部级
sending
警报
spanish
暴躁
姑姑
理化
饲
maximum
癸
latter
弧度
##ak
wheel
houses
fifth
甜点
深切
主宰
##ys
沙龙
打捞
胜负
##介
争做
问卷
河里
伤痕
音量
脚踏
怀旧
超长
满地
第十七
上进
888
叛逆
存货
工矿
怀化
奇石
瘢痕
实则
##be
强奸
物业费
680
致死
园内
豆沙
红霉素
鸡块
surrounding
桥面
千人
よ
##缸
卡特
##柴
期权
欺诈
天平
次年
优秀奖
229
混淆
moon
license
绿植
##移
隔墙
抒情
施展
回填
一早
支流
脉络
##怒
平地
抚顺
粘液
258
irish
演化
不老
失衡
540
尝尝
辐
青青
##阀
传世
疾控
protesters
chemical
闽南
早孕
南面
日间
aaa
救护车
一晚
##未
层出不穷
炒熟
坦然
卷烟
无量
浮躁
##顾
展馆
养心
监事
工学
齐国
絮
残渣
represented
polls
少林
肥厚
大修
软装
##婴
##恭
酷暑
##way
theme
243
驰名
包装袋
响亮
northern
油茶
##孟
252
大展
一致性
##跑
菜花
孔径
##巾
风靡
306
婉
618
##姜
交易日
requirements
台车
罐体
工夫
太和
血统
186
俨然
50g
展演
大白菜
方剂
3600
圆弧
情调
前汉
姜丝
绕城
出事
三八
southern
悉尼
雅安
张先生
人脸
缠绵
染发
粒度
抵扣
##盟
仇恨
拆开
影视剧
浑浊
写成
##庚
撑起
folks
青色
promised
井盖
哲理
颤抖
抗性
谐音
##均
##ei
骨盆
骗取
本息
钻戒
敖
locations
扳
空前
##坐
整流
点点滴滴
loa
两岁
poverty
士气
defeat
typical
篆刻
##sion
倍数
雇佣
小高层
渍
za
出卖
久远
立下
village
缓刑
插上
揽胜
puts
模块化
1936
##men
2700
逆行
习惯性
##求
一应俱全
牌号
risks
爵
乱世
cctv
命理
店员
一觉
羡
窗台
005
军校
八项
当上
善待
mu
觉悟
belong
奇幻
老牌
502
乙酸
普京
##69
掏出
暖和
愈发
包吃
果品
政治部
袖子
##蕊
格格
有病
萌萌
后退
matches
金刚石
plastic
宫中
无为
腹地
筹划
执行力
传承人
肆意
上任
发觉
苍穹
预言
佰
##昕
壬
柔情
一模一样
那人
分担
º
纹饰
逝去
烧毁
html
oem
分店
压铸
保险金
bomb
##ov
西边
高中生
刘家
熏陶
庸
definition
不愧
惊险
危重
limits
estate
attacked
四中
destroyed
致密
贴上
情深
宜春
大殿
迁徙
示例
保佑
io
明朗
demo
槟榔
渐变
不忍
嵌入
可贵
糠
入场
摇摆
排气管
senator
立交桥
流经
suddenly
迅
中俄
幼稚
噩梦
润燥
不减
福音
乳制品
吃苦耐劳
退回
必经
je
288
草药
宫缩
最贵
衍
窖
分部
无极
3g
波纹管
儿童节
微观
沿革
复合肥
落成
凯尔特
##甘
##酱
交流会
##尿
仙子
下落
champion
路子
丹东
地热
悲惨
390
上岸
重用
##唇
宁可
involving
蚕豆
要来
基坑
肖战
远景
properly
流派
海里
cbs
gear
监护人
轮椅
共同体
鞘
粟
worker
带电
多于
疲
药水
懒得
##诊
储能
易地
恒星
6500
路飞
车票
换取
电饭煲
嗪
单层
##聚
##半
印章
pod
防盗门
外媒
告白
豆豆
光大
悉心
正版
酒楼
声响
尘土
熄灭
六七
内胆
圆盘
slowly
摆件
##蚀
坟墓
克罗
从上
特异性
低频
曲目
芦笋
恩施
雄安
椎间盘
马车
比不上
麦冬
搁
宝钢
铝材
xl
凝血
tied
精明
瞅
彝
exit
##融
滤网
写生
风化
plate
本村
竖直
溪流
premier
底面
鸡丁
飘窗
港区
昊
strikes
experiment
循序渐进
清蒸
鞋柜
馀
##oo
湖边
虎门
括
merely
野猪
小菜
##护
颊
劳保
绵延
拍下
吊灯
小巷
耙
树下
渗水
##丑
眼眶
证人
摩尔
脚尖
检测仪
透着
悠然
飞天
territory
chose
课后
王文
xiao
中院
附录
耳聋
##闸
如梦
reasonable
滑轮
薇
维稳
合照
青草
冷凝器
##fa
##绣
大意
听课
truck
微粒
乞丐
陛下
sum
##tan
requests
海宁
可变
记账
##项
辫
intention
英尺
lp
导语
甄
发胖
闷热
潜伏
duty
首尔
文火
倾倒
拜年
粉底
下角
scenes
学车
发性
大成
肉食
exact
tt
即位
xp
测试仪
养阴
熔化
侦探
掘
雷雨
老爷
白衣
诡异
司马懿
顷
遮瑕
投机
np
##nts
张晓
exposed
差价
雨林
instant
单曲
年报
眉山
老一辈
deals
埋怨
讨好
爱意
念佛
凉菜
持续性
孙女
新星
注视
arguments
色拉油
蝎子
neck
长白山
师从
##gen
墓葬
隐居
##09
钻进
##gan
cheap
会务
介意
ɡ
火候
##tz
忧虑
全集
网片
0000
张文
桔
大叫
出海
一帆风顺
北风
fields
企鹅
fort
抽筋
外商
不起眼
本部
bunch
jo
印证
scheme
渡过
硅藻
羌
公婆
##yl
石块
全国性
检察官
maker
菜式
红油
周刊
jersey
嘟嘟
锈蚀
标兵
lpl
二环
益阳
shell
天台
驿
mars
略带
乞
visual
drawn
三宝
1m
激起
ir
蝇
独创
艇
##碎
falling
动词
100ml
##猴
ton
湖畔
##ins
花友
标线
空投
香椿
倔强
砂轮
upper
外籍
award
##kin
特许
ads
assume
pv
悲观
哎呀
灌注
漯河
blind
文革
低血糖
宣判
情缘
扣押
着装
##朱
##艾
按住
supports
worried
古时
受孕
ě
折旧
溪水
煲汤
flash
recognize
writers
銆
询
##往
议员
奔赴
厨具
逆袭
鼎盛
金字塔
当月
万股
trees
性病
ǒ
建制
佣金
减灾
小家伙
##翰
电饭锅
再过
indiana
##饮
##丛
##怨
安顺
美团
加速度
心怀
沙星
最全
痢疾
出局
布朗
毫不犹豫
棚改
大白
八方
屹立
##蟹
钢笔
烤鱼
缅
性平
影院
磋商
ruled
##ments
太重
消防员
赢家
喉科
##备
好日子
payment
##戒
庐
白开水
funded
安东尼
音符
膨大
lay
肉牛
昼
##hz
真空泵
hide
读懂
酱料
斯特
闲暇
粉状
251
ld
tag
水暖
迪士尼
##ped
##螺
故而
栓塞
import
华美
放大器
##ium
熟食
可视
良种
白带
出彩
莱芜
pilot
墙角
纸板
亲们
制冷剂
lo
刮板
为难
##ities
脐带
沦为
政治局
末期
功放
供销
朗逸
5v
车况
confident
径向
可笑
communications
划伤
凶手
##换
龟头
馆长
焊条
提早
##禹
大清
阳春
总和
ul
导购
employee
##py
飞快
weak
regions
曲阜
吡
大队长
重塑
ny
闺女
allies
该局
不力
称得上
东边
一束
江水
清泉
4mm
survive
身世
穿出
##刻
培养基
身在
智利
##写
税款
反面
journalists
看上
officially
拖着
巾帼
##盾
年收入
##妙
吓人
多款
家喻户晓
coast
逃逸
##涨
跌倒
护发
消防车
会谈
留恋
##僧
惑
收割机
小船
大喊
una
苗圃
人防
successfully
强光
太差
豆子
平均值
竞价
还清
硝
personally
299
校准
nds
##su
capture
gotten
王志
配图
卡罗拉
somehow
蜻蜓
canna
红米
##积
249
goods
翻倍
公约
##叫
fees
随州
观景
传热
awesome
facilities
有空
秘制
谈及
统领
繁衍
年货
汉朝
关上
肯德基
喜事
##泊
阿弥陀佛
##例
辽阔
导体
亲临
翻滚
暗恋
南安
承建
不正
褚
堵车
夹紧
实测
##辞
买单
国度
comic
湘江
##tte
急于
备课
exception
浓烈
葡
茗
##ual
环线
上肢
书屋
基督
打分
窥
##迁
孤儿
somewhere
几十万
引人注目
宛
organized
氨酸
spin
何为
处世
卖场
张建
不朽
headed
分布式
变黄
tr
恒定
捍卫
心烦
密封性
establishment
水垢
捅
ipo
飙升
引力
呐喊
成虫
scotland
captured
学着
payments
上官
##zo
贬值
泳
1943
秘方
黑洞
##肩
parent
外交部
layer
润泽
配角
##穆
##衫
祀
employed
三环
蔬果
marked
obtained
电感
满载
花冠
建模
##sts
经济带
dallas
critics
独资
周易
印制
错位
年轻化
对立
葛根
山头
珠子
靳
喀什
藏书
游走
##效
category
煎熬
销毁
爆炒
##妖
spain
气滞
学识
争相
蓄水
勃
封堵
阿司
型式
迟缓
developer
268
flu
dozen
平湖
x1
高二
183
谁说
玉溪
焦距
大路
某人
赶往
抄袭
##阶
佐料
239
厥
电源线
mixed
相貌
床单
registered
##nes
杜仲
hits
花语
rob
全班
跟不上
顽固
日均
ibm
钉子
标高
倒下
crucial
ticket
comparison
俯瞰
和新
劳斯
enable
过时
多孔
试过
选育
巨石
pace
connect
铸就
danger
猪瘟
同食
santa
祈求
发泄
河谷
白水
minnesota
熟人
晟
ling
算计
医术
encourage
踪
jay
宿州
pdf
紧绷
大厨
coalition
脚底
罪行
更进一步
implementation
吃喝玩乐
七分
大件
王菲
瓶盖
申请书
接轨
engage
原产地
顽
occur
311
放养
阴天
div
弯道
这笔
三明
北魏
全科
空港
尾声
##龟
东坡
recovery
emissions
福克斯
nobody
考取
equivalent
##夕
广告牌
音色
次元
胶体
友善
灵性
市场价
##呼
拼装
缩影
亚冠
铁艺
好想
##铜
trading
リ
颖
番茄酱
民风
掉头
茶文化
开到
ski
chi
早教
手术室
amend
stronger
横跨
公厕
长高
roster
车体
chosen
旷
瓢
总督
扭伤
现车
开班
六百
参军
拖车
鱼塘
##gs
##荒
smooth
退火
派对
九天
该区
听众
差额
申明
嘱咐
作画
五位
英才
糊状
闵
检查组
航道
pb
理发
为生
摄像机
ッ
赤壁
减税
meetings
司令员
狗肉
申花
好几
军营
嘌呤
火炮
腋下
长乐
购入
指明
寂
tank
奉行
##浅
统治者
工作服
exposure
炸鸡
官僚
##棍
cable
大业
倒闭
铭文
王室
稻谷
##let
寒气
##汝
干湿
以至
spa
禅师
label
关乎
lm
公职
电竞
安利
柔美
醚
extensive
汀
听觉
666
库房
干粉
假货
蔗糖
车管所
谁家
266
应有尽有
同桌
产前
gr
财税
胜过
楷书
分析仪
actor
攻势
示意
smartphone
住着
##vo
正向
renew
王府
pg
半挂车
标示
惊醒
##ence
recommend
wo
primarily
bl
白花
特聘
苷
江铃
流过
somebody
defence
周密
##坏
electricity
nsa
网店
膏药
玛丽
雨雪
懒惰
逆天
wei
青霉素
tor
并发
帆布
危急
exists
三只
价款
三省
honor
fu
即刻
下线
字画
陈晓
打碎
##租
254
0分
决不
体裁
大侠
污物
柠檬汁
洗涤剂
春日
假体
魔王
呕
harry
找平
茵
汶川
沮丧
查验
交锋
追加
寝
回过
央企
##玮
兴盛
##59
独生
股本
粤菜
电焊
脱模
科教
金子
好大
雨量
诛
几秒
各路
隔绝
三生
##ld
purposes
实心
党课
峻
generated
黄牛
落差
充斥
我方
顺心
过道
##蓬
方方面面
铜陵
transport
泛滥
笑得
护坡
酌
定格
components
案情
##迈
奎
threatened
诱因
神农
browser
虚伪
争霸
曲轴
磁力
claiming
评判
连绵
tail
无处不在
齐齐哈尔
纷
富士
中青年
前程
邮电
reveal
退缩
叙事
茸
劳作
上文
atmosphere
半成品
强硬
给药
相隔
农资
finds
##汀
卧龙
loan
刮痧
跳水
预见
hidden
救济
平庸
主动脉
流量计
##so
擒
淹
珍宝
reflect
捷克
保值
小雅
无误
broadcast
regard
除锈
家纺
人手
ron
咸丰
大街小巷
深造
establish
##爵
火花塞
院所
fo
公文
订婚
巽
此法
千伏
##梯
显眼
土质
荆门
恨不得
也罢
tone
笛
王源
全车
gaming
漆面
快快
cx
##熟
lists
sad
李建
钯
极性
programming
陨石
engineering
动画片
探寻
香果
动荡
shirt
水饺
ale
亚运会
高薪
气化
糖水
allen
遂宁
##幕
艰巨
控油
生蚝
##芹
绿化带
偿
历史性
285
##赏
amounts
石碑
取向
模组
solutions
##che
730
皓
多头
牲畜
心存
iowa
趴
煮粥
葵
夏令营
丢弃
a5
磨合
水力
嘉庆
过日子
parking
df
sugar
事关
执法局
对焦
answers
首相
##瓷
shadow
反感
渊
一匹
zui
新华网
茁壮
混搭
抢修
少食
胶质
李明
锦江
##汗
淘气
透亮
academic
赚到
选型
一天天
anna
留存
知足
金石
荤
味蕾
高音
电车
齐聚
无能
营业税
乌云
紧固件
粥样
constitution
rejected
重在
救护
##努
三角洲
营口
惧
controls
fruit
金庸
##ens
换装
通络
电价
长老
派驻
颠簸
出没
迎面
##恨
主动性
洒水车
滤清器
悲痛
##醉
堕落
造诣
得力
整数
比拼
pure
democrat
strict
wonderful
盛誉
部首
顺手
两处
遴选
262
tie
薪水
narrative
画笔
鸡胸
reputation
technologies
这车
许久
白石
老区
帝豪
展位
多想
##告
新天地
奖牌
##敦
蒸锅
底气
服刑
干枯
drinking
酸洗
鞍
province
造假
陈旧
眨
对话框
yy
削减
喀
乳白色
004
行气
jon
拿走
檀
angry
飘落
暗中
horse
编排
绿萝
门框
接管
aspects
钮
大匙
terrible
惆怅
药学
bmw
##chi
蝙蝠
王俊凯
压榨
西甲
胡歌
特约
酌情
seats
军方
##细
揉搓
不由得
提成
263
tips
风度
简笔
й
救出
掩护
土层
百亿
源远流长
俩人
桓
choices
letters
自住
淮河
社会化
9亿
稻草
提神
anymore
journalist
hey
卖方
牟
大卫
品鉴
才艺
有啥
第一线
皮蛋
##ged
读数
1927
抽检
bd
协定
干干净净
柱塞
减持
š
470
抓到
露营
崂山
考查
egypt
土方
桔梗
乡政府
7500
拜仁
双流
后用
解救
scoring
稀疏
水口
吃惊
运动场
推翻
enemies
中止
##贡
drawing
求真
610
甲苯
点位
戎
煨
玉篇
新安
花坛
resulting
秦王
小牛
励
光是
ent
慷慨
帕萨特
入市
映入
停工
##ded
交手
照相
钾肥
枪支
工作面
historic
紫红色
吸食
之门
明火
沧海
##ish
##劫
##慕
他俩
incredible
大跌
1934
proved
桑葚
345
被杀
feedback
握住
racial
晏
##op
舀
xu
之和
永康
253
incredi
电场
如花
酸菜鱼
爱岗
年终奖
回乡
pack
美称
1mm
stuck
安乐
迁入
盗汗
け
事变
蕴藏
内敛
吴江
baseball
软硬
今夜
이
配菜
##祸
50000
yan
量刑
细纹
速冻
assistant
太行
分体
蔚蓝
筹码
##失
团战
铝型材
易经
做点
钻井
西周
槽钢
绥
新世界
该国
##bility
要钱
lights
演戏
发脾气
elsewhere
512
伟业
##旋
东临
dl
标明
阀体
installed
水务
shu
r2
简陋
bills
木业
自首
apartment
氮肥
处女
基站
worldwide
sick
出走
##ser
grid
撒娇
平定
男科
前妻
amg
年产值
bell
有感
云海
随访
讲台
dum
##故
抢眼
国语
料斗
倾诉
并行
环抱
上扬
前轮
不久前
medium
大涨
ships
大一
死神
不要紧
小山
##洗
全天候
corruption
花芽
父爱
shares
无言
平房
写意
generate
楼道
hiv
racist
1933
焕然一新
专卖
睡得
远洋
艰苦奋斗
元朝
consumption
逆境
横扫
##阿
成龙
阻击战
钣金
掠
余地
ri
比方
contributed
黄某
组份
productive
光华
吊销
620
justin
##pp
jet
1931
打压
四时
受潮
兄妹
##ell
blow
蓉
厨卫
clients
贴纸
智库
五色
sha
##仇
##摩
教学班
红点
连着
cyber
胸腔
泌尿外科
古董
热源
彰
warming
北岸
易烊千玺
打过
即日
日日
余项
地盘
成就感
进站
嘴上
牙痛
看得见
欠款
reporter
顺滑
##ini
估价
苦味
百色
compete
长者
quiet
联系人
公益性
蕊
continuing
##刃
##兄
habit
fiction
写到
lucky
奥秘
12v
传给
半点
名山
阴暗
moscow
246
写照
偏好
keeps
不只
安葬
concluded
t3
过滤网
房门
下料
缩水
operate
##禁
五粮液
孔隙
##癣
##爆
众泰
转基因
principle
导出
另类
通航
玻璃瓶
elite
健美
客机
农夫
355
妩媚
培根
gif
##sen
娴熟
制毒
圈内
640
百分百
张家港
milk
发抖
特此
头衔
索取
施工图
病毒性
求实
attended
〇
联名
丛生
严防
迈腾
电磁炉
三门峡
佳作
博弈
京沪
熟透
打断
situations
记录仪
脚印
ideal
贿赂
▶
要买
文武
舰艇
挂件
fl
水田
拉近
gi
宜家
图集
坐垫
parliament
老鹰
泵站
上位
machines
愈加
麻黄
争创
##现
ah
平直
forever
房山
微妙
闰
空虚
craft
bernie
军舰
政党
den
招投标
金花
石棉
觑
太远
lib
授粉
不干
饱受
嘉年华
单相
饭前
##圩
红绿灯
辩证
腹水
##跳
滨湖
qui
eastern
文学家
朱砂
虚空
区级
肾结石
刘涛
demands
涤纶
眨眼
建业
变软
大阪
不均
全款
便血
小班
237
##绪
斑块
小院
高颜值
沉睡
##ile
脉搏
贰
作法
阻值
包装盒
驱逐舰
攻读
ze
二本
落日
岚
口舌
爆棚
辨识度
explanation
碰上
269
金光
阅兵
rick
真谛
集镇
gov
林区
天道
剔除
涉外
基督教
法令
mhz
depending
密封条
loop
忍耐
第8
色香味
扬声器
周长
passes
升降机
果糖
二类
aim
匮乏
尼泊尔
##璇
畦
精炼
果冻
农用
##杉
带鱼
洗碗
浪花
yard
fee
crack
开户
遇难
思索
因缘
画廊
##左
传到
少将
之谜
守候
peak
las
蒸气
raw
下限
途观
register
烟叶
248
立春
直肠癌
空运
simon
之父
好心
不散
胸痛
教师节
阻滞
一袋
returning
李小
金毛
为官
气愤
吕梁
校服
脸庞
不免
再造
valuable
penalty
注音
南城
永久性
代名词
通路
店长
秧
afraid
特警
便携
##朴
宇文
衰减
起居
335
吊兰
晴朗
倒地
被骗
南朝
一案
孤立
cal
致远
缭绕
教案
ア
巷子
aug
smoke
ク
newly
威县
ч
颤
麝香
noise
正对
多出
complicated
祖师
岔
陕北
强弱
progressive
规划局
taught
掷
courts
赵国
审视
轮子
西风
轰动
greek
粒径
猪肚
开光
全州
阻抗
批示
##tch
收官
##识
一叶
挪用
国情
谏
腹中
易爆
两部
spoken
表决
avenue
瞿
一加
远去
废料
初学者
##ize
196
香格里拉
明快
980
门禁
雀斑
倾力
境地
蔚
wang
绣花
公款
嗅觉
272
绝世
##吟
创客
老式
funny
本命年
索赔
武磊
减低
饮茶
莓
在地
producing
泛指
conclusion
真真
桃李
vulnerable
柜体
车灯
joy
大水
##反
核酸
decent
##吾
迷宫
裂片
granted
阴囊
必要性
wisconsin
缺铁
慢跑
蕾
遮住
学分
不得已
blocks
manchester
丝路
patrick
捡到
新歌
explore
打嗝
顺义
铁路局
优劣
淑女
内蒙
岑
##须
生殖器
玉皇
康养
焊管
陷害
##era
少爷
促进会
##un
舍弃
tf
升至
轩逸
苏醒
小宝
20mm
chart
##突
跳出
申诉
奥特
teaching
血瘀
雄蕊
020
相依
抹茶
脓肿
长官
水汽
assistance
rail
科协
井冈山
##桓
彦
fla
西式
273
品行
内镜
##置
疤
189
巢湖
一千多
加温
1928
呛
防寒
路由器
含蓄
西餐
养鱼
名次
anger
无级
淡然
总长
degrees
engaged
佛陀
皮球
丰硕
果胶
瑞安
凯美瑞
螨虫
广义
浩瀚
学长
供求
complaint
补中
排水管
##亦
行者
⑦
discrimination
孝敬
wu
古玩
守望
凳子
strategic
石林
trained
欢呼
电荷
乳膏
##ise
护套
退款
伤官
堵住
球鞋
限速
247
农庄
耻
景致
该病
boat
趋向
属地
区域性
sand
荞麦
锤子
姊妹
抚州
敬老院
thin
战乱
梯队
轰炸
购销
病痛
菜鸟
##丧
毛刷
汉书
##卢
在读
版型
红海
定于
画展
裸车
耐酸
余万
小马
包袱
同治
东华
##ular
roads
葡萄干
辨认
救命
沿街
499
七十二
伺候
克难
农牧
特殊性
如愿
自尊
洗衣粉
足部
机枪
chances
砍下
regardless
选装
philadelphia
沉醉
人马
小碗
长裙
目睹
核磁
busy
dinner
##琛
漏气
ia
##逢
到时
gate
反派
填埋
悬念
逊色
大额
精液
银行业
不息
沧
看守所
高浓度
##罩
reaching
梗阻
finance
不绝
腹肌
chapter
乌鸡
下岗
才子
##损
调到
伙食
官场
宸
底色
tan
veteran
当好
右上角
相距
垣
践
创面
sir
诚恳
electronic
rf
##our
迎宾
乖巧
威武
anthony
补救
这回
##ht
顶峰
乳糖
techniques
闵行
拙
权重
氢气
胶粘剂
##驾
tip
友爱
短袖
报警器
两市
##荡
增厚
328
##杜
正经
控温
oregon
define
罪恶
母体
字型
烟道
xr
预产期
小葱
太白
酒厂
automatically
##zer
日新
玉树
extension
黑茶
inch
过头
disaster
滨河
预应力
电弧
手刹
老挝
luck
搏击
驳
单机
298
水火
375
1250
天池
徐徐
佛祖
余姚
8l
直面
手握
信号灯
顶上
古筝
半生
无期
武士
投融资
walker
气色
golden
晋中
帧
samsung
是吗
斩获
股份制
拆解
武松
哥们
僧人
titles
##廉
lawmakers
盆腔
沃尔玛
票房
external
外环
石桥
人名
中关村
云端
一念
绚烂
加盟费
酰
col
余杭
v3
wa
collected
丫
闭塞
##薄
dha
气派
罗湖
313
啪
uber
collapse
aimed
##菁
建设局
转折
德军
logical
物力
大增
##乾
吃力
fought
排练
三十二
k2
敌军
甫
清运
线材
合体
acid
往常
thousand
司令部
黄晓明
酝酿
富士康
经办
摄像
##乌
穿插
行为人
p1
深感
##右
100mm
物美价廉
摩擦力
关口
天成
高冷
recording
上坡
tracks
图腾
适口
##夺
警官
宝塔
surgery
校车
破旧
##残
老外
武力
平阳
吐血
西游
老汉
お
四项
忘却
随心
##听
爱着
体位
打喷嚏
补齐
brazil
无条件
jean
小题
##橙
visited
当红
红火
字段
##惜
纪念日
本国
商务区
闯入
折弯
买点
纷呈
评标
渣男
正视
塑钢
drew
抽样
马虎
大麦
堕
白头
复核
流氓
老王
第十九
炖煮
画院
之争
##ho
味觉
component
袍
鸦片
压力表
都江堰
伊犁
繁重
av
suppose
边疆
开行
警戒
憔悴
抚养费
慈溪
gift
amd
建起
辅警
康康
挥手
致以
爬坡
😊
河畔
运动量
s3
短篇
吉星
协办
卫冕
##釉
约谈
拴
颠倒
圆圆的
soul
寻觅
长满
车次
著作权
娄底
participate
减去
thread
后经
p2
拍出
右转
战车
面目
芙
downtown
##寸
至极
##券
ja
胭脂
interface
##tle
服务队
承载力
宣城
灌水
切丁
累累
族谱
输血
cho
逼迫
宫内
##赞
绕口令
未央
zealand
辱
edition
粘合剂
劈裂
防腐蚀
271
截然不同
耦合
网名
sony
烟熏
爬到
三件
accident
ht
觅食
les
莺
excel
afp
boot
改用
天蝎
建筑师
星期六
俘虏
salt
intense
扇子
火柴
食品级
人道
lawyers
referen
四角
海豚
会馆
登录
casual
bias
血虚
##统
cg
榻榻米
雪糕
石窟
换算
唔
上品
##革
部委
##ters
sensitive
##sy
迎春
本轮
歌剧
实名
pounds
visible
就职
存续
触电
总线
笔直
酸味
被逼
alabama
历练
趁机
九五
慰
##des
战神
下坡
三一
ob
6g
反差
攀枝花
摒弃
馈赠
柿
跌打
食道
##ology
cor
产假
##责
##jo
为辅
消毒液
6m
sw
eb
##og
隔水
priority
无害化
病原
d2
南平
跌落
应激
悠长
天宫
封印
好些
巴掌
大田
184
零星
低落
薄利多销
顺风
叁
勾芡
开开
回味无穷
常数
淳
proven
辛亥
相位
隙
毕节
一村
虚构
体表
蚌
承租人
一片片
扑面
巴中
emerged
产权证
土鸡
##嫂
米粒
受害
血性
xbox
香山
找寻
四平
##ville
##mic
闸蟹
呼伦贝尔
矫
灿
微调
不退
oled
雪铁龙
竹木
##钞
缩减
收视率
personnel
processes
principles
上会
des
年检
弥勒
narrow
##终
探访
柑
门派
卵子
抢先
腐熟
description
外衣
赚取
匈牙利
费劲
蛀
送料
初年
阴雨
不休
beach
西双版纳
顺治
earn
##吃
变白
繁星
脑出血
利湿
化妆师
绘图
拘
合格率
相撞
##允
unusual
外露
##不可
屋檐
调研员
187
风水学
column
阳虚
发亮
守卫
户口本
江浙
取缔
街拍
遗失
evolution
麻雀
赏识
烷
建行
刊登
508
乙酰
开孔
申购
mad
张志
丘疹
凡人
打掉
发色
将至
咸宁
征兵
篇章
阜
enjoyed
推断
柠檬酸
邮轮
青天
哨
##疮
作词
regulation
归于
lit
heading
patterns
衣着
休眠
曲江
academy
排卵期
poly
撤退
止泻
画册
双创
后门
眯
供不应求
promine
nam
肉肉
minority
梗死
复合型
##岐
犯错
提着
巷道
weird
谋求
##叉
棒棒
大把
everywhere
得住
惯例
时间表
敲打
皮毛
季节性
体长
挂职
controver
撬
processing
随性
mk
空闲
成品油
世界观
僵
增城
高调
navy
斥
基肥
花蕾
年幼
computers
剑桥
今朝
百米
portion
香槟
低谷
突围
窍
汉兰达
##lle
反悔
下有
平底锅
回声
stable
氮气
小雪
亲和力
初见
atlanta
长年
甲烷
三重
##灶
营业部
不比
快充
隐约
鱼虾
警车
acceptable
好汉
映衬
小提琴
negotiations
fault
380v
突如其来
tall
光顾
无双
铰链
拿去
་
##译
motor
髋关节
腐竹
蜈蚣
杀虫剂
华语
富强
光子
自流
学徒
惠及
乡愁
制度化
嗓音
试探
投喂
肇
超速
打交道
ministration
凌云
巩
reduction
奖品
鳃
魔兽
制作人
人世
adopted
⑴
环城
西街
producer
turkish
撞到
跆拳道
为名
猿
三水
水道
参谋长
##碑
神经性
clubs
面筋
奥巴马
焰
收听
feelings
狂犬病
中西部
堰
反恐
几步
诅咒
秆
##袍
gang
体弱
乐乐
神韵
burn
324
召回
一壶
受压
粉刷
阻尼
tl
云中
负有
野兽
版图
resulted
密实
x3
风冷
古墓
新民
三两
支教
四条
##蜂
##庵
加湿器
隶
branch
越秀
骨料
绪
欧亚
瑶族
##wn
出面
1929
窟
极富
志向
大寒
960
文理
事半功倍
冷却塔
在岗
三联
ranked
前场
两轮
epa
急躁
retail
cook
diet
仿制
两眼
##徽
发白
permission
心旷神怡
圆筒
##卖
门类
南北向
feb
汗蒸
湿疣
口子
白芷
containing
自控
制动器
力矩
粗暴
menu
漩涡
民初
##斯基
胆碱
雇主
减半
她家
describes
recognized
lab
热身
##霄
船长
竹叶
万众
鼻翼
引爆
抑菌
##淳
laid
天国
拍拍
相知
干练
镀膜
茶汤
经脉
妞
龙井
##瑛
抒发
锦鲤
梆子
选派
籍贯
零点
depend
黄酮
il
注水
食量
扶养
惋惜
搭接
肉体
笺
sv
大本营
##zy
鲜味
sanctions
kingdom
养活
不甘
尿布
吃喝
银屑病
预料
contracts
家里人
杨树
皮具
drama
将就
stations
生发
##穷
##把
##gi
delay
音乐家
shock
脚部
sorry
迦
人生观
缪
毛利率
执行官
总管
257
解散
季军
杂乱
折纸
b6
铁锅
当当
林果
##遇
蕉
骨子里
马龙
移动式
班里
做错
艺术类
背诵
分外
recommendation
决定性
浓稠
纱窗
特权
肌腱
##hu
嗣
去吧
军阀
用笔
抢抓
靶向
误导
泗
二千
解惑
褶皱
病历
霸主
凳
驱虫
嚣张
停用
铁塔
看成
加气
doors
收缴
专一
插画
雄鹿
风趣
抽调
##sta
全军
夏至
入园
282
そ
aspect
自吸
尖椒
##ations
hadn
爱过
教练员
##充
天边
视听
ا
仄
##珂
惹人
绳索
从小到大
瑞拉
灰白色
纯属
城内
cha
毛刺
中耳炎
继发
限价
一朝
牡丹江
##ang
溶血
谜底
社会学
乐视
legitimate
instagram
搽
厨艺
##po
通向
吉祥物
##惊
advertising
要件
动车组
##胺
花甲
小号
猜想
墓碑
充裕
密布
离异
practical
生辰
茴香
花灯
第二节
喷出
expectations
彼得
卷入
shortly
##ich
秀才
##烧
涝
运载
饲喂
往复
挥发性
latin
驱车
节食
俗语
##份
暴涨
卤水
佟
职业病
##闲
确权
当之无愧
春色
魔芋
棠
荷尔蒙
院区
莫西林
娘子
用尽
scenario
管理费
粉底液
cameras
出世
飞利浦
堪比
惊呆
尘世
车市
君王
绿道
班上
paint
##ade
##ght
游行
硫磺
接手
怼
躁
259
##ano
汁液
坍塌
邪教
刁
豁达
lewis
##my
##200
收款
清雅
公牛
骶
比武
顶配
郊
实为
scores
鱼片
永磁
售罄
bond
庙宇
焦急
光谷
植物界
##up
a6
萍乡
大包
赶走
义工
新式
三十一
罚球
后因
不爽
兼备
austin
老板娘
肥水
上个
##yn
毋
潺潺
##畅
防霉
⑵
司长
脆皮
震慑
无从
1932
新书
小包
耳环
专案组
临安
服务费
清秀
firms
凌乱
漂泊
浣
满天
五味子
大胜
eco
金鸡
contained
噬
结语
联席
投档
西服
睑
咕噜
怯
间歇
都城
rb
养肝
刑警
敲击
倍增
failing
右腿
视图
hitting
rx
除臭
episodes
拭
老二
##操
汉阳
第三者
圭
半自动
荆棘
宾利
补助费
宫女
bur
拆下
gd
农行
车手
字号
有心
驶入
调校
stretch
废墟
317
栀子
江汉
anderson
使出
张小
虚实
新兵
王永
铵
无异
basketball
抽签
三路
剪掉
ocean
yang
桑叶
##board
特惠
智者
大西洋
neo
苏格兰
肛肠
horror
airport
馍
relief
石狮
维他命
upset
creates
热火
既定
桑拿
初夏
##禅
加价
周瑜
昭通
杰克
两室
揭露
芋
behaviour
雌性
紫砂壶
圣经
manufacturing
超细
写给
单片机
架设
天皇
820
车用
书柜
vit
蓝宝石
##乙
想像
阿森纳
亲王
党纪
增至
mexican
diego
每秒
师徒
##近
losses
夜幕
尖叫
3a
香叶
舵
临界
m4
saved
干性
##bi
##媚
##lan
发誓
安全法
##玥
石料
唠叨
tackle
π
dozens
伽
绢
##吧
鬓
mccain
甲板
水杯
大步
enormous
微循环
286
荷塘
朱婷
有志
先祖
青光眼
后端
新规
教育家
睿智
##烨
打折扣
茧
大典
三区
镇上
颁
愚蠢
计价
教养
ef
回锅肉
挖出
columbia
祖籍
分离器
变好
##献
发愁
英俊
化成
栅栏
专车
##铎
布丁
再三
女娲
老先生
按月
草根
北平
大汗
展品
销售量
盎司
选择题
菜园
无损
赵本山
hua
278
归宿
毛豆
曲艺
##映
成活
banned
塌陷
卑微
接班人
首富
结成
山歌
水秀
##述
三板
大餐
570
绛
同在
熏蒸
顾及
议题
皮脂腺
缆
东吴
lets
##fi
巴塞
突破口
失恋
四合院
zu
##伞
603
台灯
名号
philosophy
南宫
合格证
递增
表面积
不觉
运维
几滴
障碍物

外敷
渣土
tra
艰
拔牙
1915
日历
海浪
323
扭力
##塑
##更
预处理
张掖
显而易见
两份
海事
prince
富翁
翰
小苏打
降雨量
亲吻
跑得
##ric
徽州
lng
│
大龙
捕获
酸酸
葱白
亿吨
嘲讽
涅盘
偏僻
事例
中心区
中规
杉
净资产
##使
bu
经济区
##弱
载人
铲除
亚健康
党务
藻类
连夜
不折不扣
谦
自愈
gained
各市
消暑
由衷
鲁班
黑米
野花
估
乌黑
带薪
东经
dave
生计
毋庸置疑
居于
离地
出力
朝天
遗精
大喜
alexander
镇压
一文
丝印
hm
溯
莴笋
第十六
卫生室
##几
predict
名列前茅
痛快
秋雨
##ress
##拔
领跑
圩
耗电
无畏
胶管
餐饮业
深秋
ws
有功
教科书
姨
rent
浮云
蜜蜡
情愿
奚
fb
触感
克莱
牙签
ear
欢声笑语
刘德华
疯了
临海
红光
外地人
车前
涉足
建在
gonna
筛分
秦汉
里头
清宫
u盘
剔
浜
鸣人
风衣
两半
一闪
时令
destruction
早产
莉
长袖
龙江
打散
##框
搂
小龙
网址
瘀血
国宝
chat
museum
摘下
松柏
##玩
专程
妄想
新机
南洋
产学研
扩充
滑行
大名
政治家
##释
抹灰
牛津
纴
心智
暗淡
█
石器
##舱
自选
264
回火
profits
夹板
白龙
火红
fiscal
年夜饭
279
3800
walls
磨削
大鹏
五万
头号
详尽
瞳孔
刘晓
泡椒
理学
减脂
后应
看图
##拿
entering
帆船
从没
股骨头
感染性
吐出
doc
##du
绝技
mh
傻子
速腾
送风
被捕
除草剂
刺猬
鞋面
交会
breath
kansas
teach
珍爱
摸底
人设
保质
索要
##攻
同人
可真
空洞
##巍
悠扬
红领巾
qs
应运而生
gpu
节俭
五彩缤纷
升职
281
牛逼
叮咬
joining
骚扰
坐拥
不菲
bet
蟒蛇
磨砺
渭
chu
路旁
掌管
##杏
八九
厕
得体
麦当劳
太仓
rna
防病
取保
气象局
鼓起
野马
碳酸钙
自适应
拔罐
游子
char
石柱
谋取
cas
条状
不严
再接再厉
博文
美颜
斑驳
##ac
金城
stadium
张杰
亲眼
清汤
魏国
delivery
浅浅
可言
christians
roles
月初
遗漏
水浒传
vital
故称
忌惮
京师
上交
267
福瑞尔
续约
国门
防水层
硝烟
##宸
forest
唐宋
新开
输尿管
垂询
¸
通体
struggling
族人
流连忘返
良药
史学
透支
减产
阵雨
有我
雏
法医
儿歌
驱逐
investigate
petition
二套
风行
生态园
pm2
买下
tab
果酱
修整
共进
张图
齐家
眼药水
省事
北约
抓拍
有如
##称
cameron
温婉
大叶
赏心悦目
吃上
理所当然
韩愈
克里斯
##ria
报答
曾为
天人
footage
韦德
考勤
飘扬
##透
发源
维多利亚
润肤
moderate
秘籍
a型
平整度
美得
钙化
eps
轻量化
steel
弹道
改扩建
春暖花开
大肆
驋
冷风
粗纤维
烤制
首期
吧台
锣鼓
随车
##肯
convention
本方
武帝
般若
下楼
自负
倒进
ei
吸塑
洒水
读写
rely
博会
宣讲会
sept
002
宣传片
chen
回暖
上半
售票
##崎
羟基
牛油果
饰条
beliefs
巡视员
劝导
方子
脱脂
按期
都来
匆忙
shire
班会
支护
##债
伟人
factory
汤姆
清心
疫病
乌龙
乐清
276
indicate
讼
plug
盘旋
##煜
加紧
卒中
酒杯
sar
散结
野草
熔融
摘除
¼
rocket
比尔
软软
隋唐
羟
肩周炎
来之不易
会后
蛾
依赖性
余热
神灵
大关
数月
编委
娇嫩
阿斯
大而
泡面
鲤
细末
豪华型
sheet
摔跤
相得益彰
参天
减慢
外滩
tape
党章
主峰
识字
manufacture
矗立
毛绒
哪吒
基体
吴亦凡
新都
战区
退税
忠于
香火
314
筹资
领队
bail
那会
achieved
外接
辞去
亚麻
##im
wiki
hyper
损益
farmers
marvel
淡泊
布拉
上街
重阳
博大精深
右键
底料
##肚
投射
ao
轩辕
月色
防雷
账单
##ics
recognition
pat
择优
道口
粗犷
三道
##ven
催生
日程
小白兔
seed
称谓
大鼠
进补
苏打
络绎不绝
淮海
撤回
hang
下雨天
量程
偷懒
麦子
魅
不痛
##篇
火线
车标
485
花边
总成绩
轮换
silver
襟
万州
锁住
tx
隔膜
thrown
美方
壁垒
##don
析出
morgan
425
一言
过氧化
搭乘
josh
巴斯
barely
东街
棕榈
天价
宝座
货品
联社
斯柯达
880
##sis
切除术
小黄
长足
竖向
structures
湛
##牢
挺直
吸脂
scope
在手
工种
521
亚硝酸
法语
行李箱
太难
movements
黑名单
份量
催眠
再审
着地
soil
侍郎
计提
关晓彤
odd
static
拉出
##冶
家族式
声声
文凭
芳草
ultimate
墨镜
进阶
汽配
体形
harris
压痛
月石
安家
ces
jury
宫颈癌
falls
shame
笃
上下游
刘志
属实
bench
mountain
可燃
公差
抢走
裘
顶板
融融
喷绘
warrant
resource
##潇
沿河
沸点
奥斯卡
confirm
神龙
suffer
月经量
disa
322
购票
换货
witness
母女
水表
##ming
为害
锯片
一丝不苟
贵金属
发扬光大
languages
遁
外事
terrorists
胆管
暗暗
technique
先人
##vi
干式
聘任
曼谷
活性剂
##亡
口令
藿香
普陀
供述
高压锅
关掉
burden
竖起
捶
抱住
滚珠
柔韧性
功名
水珠
诺基亚
品相
8t
一局
科尔
大汉
四层
##候
应用型
明末
尺码
居住地
楔形
芝加哥
高举
温度计
惨遭
要命
长兴
pennsylvania
毛毛
两道
阅历
膨化
头戴
扑灭
耐克
生机勃勃
nike
大都市
免税
日久
ste
病逝
##短
graduate
剪裁
止损
真切
两厢
打滑
失灵
出嫁
鹤壁
伊利
财位
par
癌变
锁骨
病床
conventional
水厂
贵港
sta
楷模
驱动器
c3
##煞
前夫
成吉思汗
sarah
护士长
倾心
##nic
2cm
卫健
凉亭
执纪
辣椒油
interviews
d1
臧
穿行
何等
查到
螺蛳
本名
exe
contest
##蔚
动用
占道
触控
王氏
国产车
小众
抢夺
盎然
勃起
园长
更远
##ea
自强不息
marks
书生
洗漱
桃仁
nominee
测验
大发
中新网
旁人
柔韧
##焦
challenging
猎物
howard
唐嫣
溥仪
atten
疾患
私密
高僧
锄
囚
炮弹
##ture
fantastic
煎汤
え
申领
柚
tre
絮凝
赵薇
中天
呼呼
reviews
口角
##栗
다
席位
cry
sci
ownership
眺望
鼓掌
下定决心
党史
歌迷
当着
transgender
咖啡因
三门
mod
铁质
扮演者
##脊
玉龙
船员
修路
诸城
powered
trail
g20
新上
玄武
尼克
工程款
3cm
离世
261
立秋
漆黑
克隆
伯伯
侧壁
有加
躯体
节节
车漆
甲子
到货
逃走
叛
低血压
消融
downs
村长
华泰
用神
溶洞
捐助
机具
养老院
西夏
核桃仁
一票
鸭蛋
出苗
口才
惰性
妖精
导流
implement
振荡
写入
发来
参谋
条形码
python
patch
不可多得
先进性
该行
rh
幼年
氧化铝
gor
##ore
拭目以待
勇往直前
抚慰
bottle
伤势
住进
不齐
货到
惩戒
新药
后盾
胜率
里约
英里
彩钢
多天
kd
西施
崇祯
前述
饮水机
惠顾
notion
惊吓
ry
408
停滞
logic
蒜头
铰接
文集
风向
众筹
诗集
v2
ross
发帖
万岁
sg
痴迷
样样
quote
荟萃
示范性
兢兢业业
intent
长处
李国
水蒸气
bars
awareness
嘻嘻
##准
左腿
纠
genetic
醇香
吴国
胁
几代
老城
listening
饱含
瑞虎
波罗
取经
备胎
失明
北区
welfare
老太
刘文
prospect
刹那
决算
载重
神态
药性
冷战
上边
活检
normally
🌟
委会
assad
轻快
万向
回眸
##ock
内经
夹角
lea
各处
399
看懂
tickets
谈心
主妇
k3
经得起
雕琢
不言而喻
1st
如火如荼
忻州
rod
fantasy
周期性
敕
spiritual
##鞭
同业
##拓
244
少先队
independence
实力派
三十五
metro
搜救
防冻
正负
碧波
##冻
virus
liver
rival
白鹭
土拨鼠
ㄧ
紧实
convicted
lgbt
##共
筛网
同盟
凯旋
鼻窦炎
三十三
机率
525
劲儿
愧疚
wr
珠光
无暇
嫡
李克强
20th
瑟
铁矿
终年
二路
柔弱
319
比值
钟爱
球蛋白
愤
成因
办公桌
时时刻刻
步道
拔掉
衣食
年老
北伐
特工
濒危
狂风
中大
framework
有机酸
张国
桔子
vo
线缆
大勺
曾国藩
向好
棋子
indicated
造化
captain
336
校舍
叮
corporations
saving
机缘
省区
相合
主旨
纪念币
链轮
迎风
法学院
三步
jose
建安
胰腺
迷恋
中庸
白纸
二胡
inner
情有独钟
反驳
ning
国力
baltimore
酷似
青红
一发
雕花
##悟
拔出
landscape
官司
tap
迟早
有机质
泓
差错
辣子
宣传栏
百岁
503
reducing
阐释
restrictions
rear
重疾
满头
懈怠
心扉
铜管
◑
4m
##and
##洼
智齿
##ura
玻纤
余元
雇
高人
水岸
病虫
##争
惧怕
上水
collective
南国
虐待
屡屡
独栋
prepare
梨树
2g
##辩
##始
博爱
腮
找人
连体
大运河
创设
replacement
rapidly
对峙
止于
肝细胞
一见钟情
yellow
intellectual
asks
防卫
精益
##疗
桥上
张大
characteristic
豪情
当头
settle
辞典
象山
祥云
杂技
械
discover
辽阳
suggesting
张柏芝
##肝
刑侦
##阻
西昌
本义
虾皮
灼
h1
猎豹
猪八戒
油封
surge
寄语
中意
濒临
皮脂
种群
横行
##垣
老去
胆子
润滑剂
##由
凉粉
炮兵
没得
定理
变差
残联
土石方
鲈鱼
面漆
忍心
兰博基尼
283
rescue
##楷
推算
用语
终将
overwhelming
营救
新生代
菌种
药方
靠背
候审
nova
2nd
##疾
怪异
山门
激进
技术员
快车
##旧
succeed
领地
雪人
身形
安平
zhu
classified
警卫
武夷山
##sse
抽水
dig
阴极
英特尔
管护
纤维化
漏油
工程院
虫害
上一
湖人队
admin
刘秀
settlement
收视
地藏
灯塔
formal
hardly
吸盘
砌筑
日新月异
鲜奶
##纶
大号
invited
kong
潜入
表哥
手背
艾草
bri
begun
沉迷
西洋参
‚
equally
逼近
建设部
平面图
内生
settings
挂满
1990s
水桶
恪守
游乐场
discovery
现年
炸药
sean
295
占卜
gaza
变幻
生人
发电厂
禁食
精诚
carefully
随心所欲
##痒
wc
芥
##慎
吹来
10cm
化工厂
调色
featuring
绮
酒泉
返程
体液
新家
足球场
##勃
示范点
东面
严明
331
##愁
远东
长款
##籍
s7
contribute
代步
科举
严苛
一亩
##稻
哑光
documented
铜仁
学风
表盘
kennedy
换向
可喜
很慢
780
stake
抛开
##硬
投标人
##妆
绝杀
涵养
烟尘
免得
f2
##猛
吴某
燥热
夺目
奥美
降幅
partisan
妥妥
二世
支点
探望
默默无闻
平生
魁
gf
guardian
懦弱
钢带
专营
特异
很爱
低脂
啰
东晋
outs
钞票
ib
国营
单子
动不动
联结
璧
干劲
草书
silence
grounds
馆藏
粤语
塞尔维亚
通货
追杀
2a
歌颂
orbit
##ans
头昏
##胀
母亲节
体谅
iranian
pf
炒制
##媒
肖像
大市场
坦诚
老爷爷
随笔
extend
读物
shoulder
远眺
走完
撞上
斜坡
荒山
##咏
开销
versus
海景
通行证
砷
rp
sec
放生
太累
茶杯
磨牙
海岸线
锚固
websites
洗发
制造厂
呼叫
政策性
从轻
启闭
##ying
有偿
水井
大佛
李志
种草
throwing
fighter
开沟
要带
气功
三尺
欠佳
威尔
斜面
合金钢
arabia
林下
不差
滴灌
钞
吐司
土匪
街坊
那场
层级
calm
挑衅
应交
茅台酒
粑粑
一国
涅
##豫
报告会
清初
车系
喝彩
##寡
山洞
冲出
来吧
征用
古琴
降火
performing
错觉
壁挂炉
相恋
乳业
sla
末日
##忌
##霍
莽
首场
变相
战舰
jonathan
s8
西岸
巴尔
峪
##函
空旷
富于
簿
greece
##推
稚嫩
滤镜
萃
大城
漆膜
转正
phil
ministry
防护罩
浸入
本级
钟声
stupid
老者
##限
legs
wen
unclear
campaigns
最差
紫外
讲讲
deter
void
##秦
locked
打人
颧骨
329
山野
勉励
橡木
工程系
享年
##鹅
绸
十字路口
zz
戍
面纱
啸
准考证
文化部
身姿
退热
行书
667
smile
dragon
樟
厌倦
involvement
心形
无可奈何
幽静
##今
ee
毗
尿毒症
未满
结交
常见于
换水
1912
外阴
不屑
性寒
viewers
壹号
站稳
谴责
此病
bel
ignore
千层
纪念品
开往
##uring
边角
军医
statistics
体态
诸暨
酸软
预估
respectively
卸下
夏威夷
雌雄
转向灯
受益匪浅
0001
废纸
题型
繁杂
##tions
大雅
##傲
工龄
initiative
钟楼
9米
人权
connections
402
吸管
陶冶
三高
瓶装
丹阳
乌龙茶
重合
昵称
蔡徐坤
中环
##衍
760
峨眉山
scar
温带
条码
咸菜
轻伤
售出
肚皮
宗亲
展翅
deputy
ち
##审
匝道
踢球
借条
##誉
海天
vancouver
逮
放点
孙俪
劝阻
放屁
网校
海珠
年味
深呼吸
铆钉
保山
temporary
##shi
彩钢板
滤液
console
##ou
海盐
别离
knee
洲际
收汁
线程
商报
##迎
遮光
γ
枝干
放盐
粘附
婚宴
纵然
##vis
五项
造车
耐温
会诊
落泪
囊括
掌柜
板面
隔夜
缩写
扑救
腰疼
rush
市中
喜马拉雅
耸
直奔
江边
同台
年金
当真
果农
关切
举手
科技部
单果
细密
说唱
几块
obtain
天亮
燃放
省略
滑梯
半山
mrs
交战
牵动
一条条
活动室
##ery
三台
翱翔
傻傻
高烧
淡季
剧团
无烟
convinced
##忍
finger
财报
琳
aged
搜寻
tar
调换
披上
讴歌
腰腿
##软
依山
entertainment
猪场
ram
道出
老龄化
陡峭
茫然
喧
适龄
大戏
商议
触犯
collect
representation
##帮
外周
绝热
暴饮暴食
大结局
通话
曲子
cream
抗疫
宝典
充盈
x2
无痕
网带
substantial
scandal
激战
微机
掉进
帕金森
自由自在
巨龙
青石
风雪
repeat
严守
沾上
求解
多谢
猝死
煮饭
当兵
护卫
覆膜
短时
云朵
头球
绝地
##宋
任用
und
重镇
追尾
mw
font
卡在
得主
始发
瞬
多囊
##核
##沉
茶馆
attached
厚道
massachusetts
threatening
请来
议案
胯
bm
可否
校级
官职
##tta
两驱
qu
水底
禁令
deeper
腺体
总而言之
nato
vegas
皇位
anybody
erp
guest
威严
intervention
含水率
上盖
##幼
远超
别提
1914
比肩
展台
subjects
圆管
##垢
卫生局
拖把
地头
脑梗
慵懒
counsel
atlantic
哑铃
##便
弯弯
小轿车
292
年利率
啊啊
##澄
解暑
预埋
科学化
皮皮
如玉
七日
coin
停运
一棵树
寿光
##骂
防灾
echo
##鼻
手串
胆囊炎
公章
g1
失意
maps
滚子
郫县
南亚
港澳台
说白
经济体
##钊
中职
放纵
多梦
长跑
铜川
##ious
宗祠
外边
文化馆
头颅
improvements
热刺
木炭
商住
液化气
芥末
脚掌
修筑
攀爬
不知所措
嫩绿
封神
舆
reader
茶业
下半
发丝
tasks
指挥官
涂鸦
情不自禁
appreciate
gary
fate
飞到
minds
散布
##tra
steven
efficiency
大伙
tomorrow
cleveland
该书
大势
拢
protein
理会
两辆
k1
天宝
checks
玩意
bread
陌
domain
酷爱
hong
##秉
rural
洽
幽灵
##well
舞动
张口
热电
recommended
吊坠
瞻
怨恨
贝贝
289
蔚来
引得
passion
无功
岐
attacking
国网
伤员
味儿
扣分
降级
驰骋
种下
小树
外壁
bat
joke
##引
complaints
坏处
rec
洗手间
呼声
正统
可比
鳖
太贵
keys
##察
原液
谢霆锋
结膜炎
不落
硕大
电平
连翘
fd
implemented
马德里
ruby
absolute
holiday
同源
##ran
1980s
388
在校生
见习
房主
恍惚
helpful
岳父
房顶
观赏性
炫酷
琳琅满目
fallen
361
432
##nder
受益人
dy
简述
焙
referring
别具一格
打包机
medicine
竞相
快感
samples
hz
掘金
及格
退烧

手环
专长
靠山
筋膜
##汽
小数
外星人
街边
improvement
连环
师大
兴国
monitor
拉拉
补强
国防部
缴获
报社
抱负
于世
可逆
盘龙
豁
##阔
银联
踏步
芭
武艺
championship
云龙
打蜡
conspiracy
使用量
研究者
古巴
甙
小道
克里
拉升
皮损
朱棣
4200
远在
挑起
解体
雨露
水陆
铁观音
正极
机械手
dust
rank
##含
宗地
##婧
不问
absence
乘以
京津
战火
击穿
wages
吃鸡
802
赞成
长虹
##ino
tracking
编著
diversity
serves
沼气
加息
答卷
读过
当期
威少
##棠
潜意识
东东
本钱
爱是
感想
放款
梯度
尚可
clothes
内阁
库区
##浴
½
建校
福清
基座
松懈
打火机
gathered
滑轨
无与伦比
转业
间谍
牛腩
错失
镇定
publication
遵纪
围攻
蕾丝
踏踏实实
篆
brothers
beauty
##浮
里脊肉
拉手
盛装
办证
李氏
wire
hdpe
liquid
财星
汾
不惧
暴跌
狭长
涟漪
##完
妃子
炙热
豪迈
##渝
天体
酒水
辣椒酱
appointed
收复
龙城
黑斑
亲亲
相配
ass
handling
lb
netflix
锤炼
##ane
资阳
subscribe
损毁
##葬
业务员
涉黑
登台
前部
十点
carl
##址
admit
杀伤
炒股
烈火
圃
meta
倒计时
袅袅
missile
古都
几度
八仙
uni
碳化
概论
385
重逢
换新
王海
咀
贴面
波折
社科
综合楼
水光
武威
origin
一如
##韬
索道
wolf
illinois
hip
老天
气道
favour
下边
耕作
取水
整条
淋巴瘤
海产品
经纬
裂开
中石化
晾凉
13000
触角
##med
列传
710
火势
##受
疏忽
关停
风车
膳
老君
遇事
alan
机头
朝气
l1
金地
危害性
渺小
眼花缭乱
直呼
年产量
弯管
##辅
歧
调成
##严
胎记
##柄
羁绊
番外
躯
##ita
风华
婆媳
shopping
handful
解题
affairs
edward
分值
##lli
小丑
expanded
霍尔
##驹
铺垫
kit
鹭
星期天
新意
streng
不快
突兀
humanity
老总
examine
镀层
磁盘
该款
分发
昨夜
道人
过冬
symptoms
490
涡
lift
hook
显赫
closing
防雨
有志之士
下放
毛线
回调
引水
##宴
村寨
永兴
##xi
圆梦
platforms
白果
心室
鄂州
蔬
毛利
痞
##夹
难民
功勋
副总
青年人
attempting
##ara
尊享
阵风
苞片
播音
插花
啄
棉被
海伦
超额
芭蕉
盐湖
便便
##拜
碧玉
musical
崎岖
丑陋
来时
##ud
牧民
取材
铜钱
莞
狙击
太热
频发
遗弃
内热
正道
remarks
疏肝
进项
农业局
劳模
请示
挥洒
beijing
三色
discussions
海信
诀窍
腰酸
烤烟
##辈
挑食
扁豆
purchased
养鸡
共性
补缴
合理性
##eo
艺术团
胆红素
visitors
自知
卡住
11000
activist
277
顶面
跟前
修好
浏阳
征税
18000
倒掉
工位
coup
场次
rookie
laugh
孩童
两江
sequence
过夜
##弯
刘建
一队
聋
余下
汇编
##km
诈
##颈
dramatic
忏悔
大漠
纵队
##急
suits
千瓦时
学制
想方设法
躯干
承压
朝上
上过
电表
潜移默化
valid
还贷
pound
actors
剂型
体虚
卞
vt
两腿
几日
外包装
陵墓
溢流
工程学
马家
旬
马克思
lou
酸钠
宝剑
党群
王后
极光
鳌
领航
荟
弧线
星系
变现
colors
知青
密封胶
同日
不由自主
缝制
黄柏
##泵
贩毒
池州
##box
沼泽
即墨
情意
李嘉诚
empire
盗墓
指教
输电
以期
消散
琐事
调节阀
博大
迭代
涌泉
张艺兴
团团
salary
胶片
跳楼
内墙
悬空
338
污染源
上料
civilians
淤血
丙烯
e1
##枕
大屏幕
grant
瞳
entre
papers
涌入
能不
盲区
1080
教育学
二两
欣然
舅
内层
中科
##束
conce
无忧无虑
200mm
小刀
踪迹
闹钟
suspected
手淫
共谋
fr
##助
牛米
真题
##距
负极
抗争
英伦
版画
缘由
战力
##沛
售前
成千上万
刘亦菲
内战
木香
收据
沉闷
鬼神
c4
lunch
宣扬
五味
之言
潇湘
招聘会
吸声
废话
500g
香炉
花心
百分之百
迟钝
炕
国歌
routine
反观
龙珠
追梦
嗜睡
扇形
不识
象形
硅橡胶
申请表
新桥
知音
支原体
回迁
话筒
定子
黑社会
火车票
索引
ace
##册
聪慧
眸
力所能及
的这
lying
百草
清真寺
其父
##及
viewed
reads
传中
amid
晕倒
挟
伦纳德
缓释
hello
ï
进村
被判
规范性
破财
此时此刻
10kv
卡塔尔
1g
三地
lol
丝杠
酒瓶
书信
白露
大嘴
为爱
星期五
##ik
建工
古村
认缴
心田
流下
三叉
翩翩起舞
摘录
几遍
kar
cnc
タ
版块
爪子
地被
铁矿石
扩容
iron
木偶
名门
lowest
inflation
烽火
008
wan
洛克
础
准许
不作
边路
独孤
两段
本溪
泰迪
认罪
血水
江海
formation
种养
一二三
咦
正时
集团军
秋日
小妹
一百二十
宝地
错落有致
nintendo
奔走
名优
##闭
足额
臭豆腐
富足
肉制品
##ert
方程式
noting
马拉
痴情
addressed
汉江
夜班
小看
白宫
卡组
352
苏东坡
千方百计
新任
次要
捷径
信徒
冲破
换盆
很贵
塑形
遥感
水污染
iraqi
roy
worthy
ㄨ
云霄
368
##陀
苇
巡检
蝶阀
法案
phrase
声波
1925
单面
神经元
木屋
剥皮
三杯
授信
bureau
depression
体格
bruce
北辰
垂体
races
霹雳
辅佐
冷气
县志
砂岩
赵某
杏鲍菇
bot
深思
##ction
维也纳
超限
主委
suspended
减龄
§
终日
dw
移到
能效
careful
展览馆
comfort
##ox
##利亚
收藏家
行距
临港
挫
冰雹
牟尼
匀称
情结
287
东江
围网
茶香
塞尔
因数
快报
冒充
浓密
opinions
任期
砂纸
拍片
jc
黛玉
攻防
喝汤
突显
稽查
权利人
切入
中人
居住证
covers
无忌
404
祖母
冢
油压
逆向
黄沙
杞
刀刃
四强
##要
而立
欠下
几件
积木
热效率
一城
xue
干果
手把手
##ua
covering
爱恋
卸料
犯人
飞行器
##bu
山城
vb
侄子
逆时针
弹奏
ren
316l
326
周某
coaches
厚爱
##钳
勾起
足量
investigating
virtually
跨年
25mm
waves
军衔
##昱
锉
妍
pause
延边
gw
翻天覆地
咨询师
depends
吹风机
emp
对折
平凉
登基
专业课
fed
提振
鹿茸
硅酸盐
内核
personality
involves
百般
##毫
交通局
200g
显微
colour
a7
总产量
284
林中
槐花
校训
vocal
凉风
猪脚
绝非
朝下
希尔
500ml
腊肠
divided
比亚
##芒
小苗
梯子
精简
一代人
面馆
特困
prop
盲人
##pt
生活区
ethnic
utah
tries
investigators
相关性
transportation
六味
405
装车
保护器
电瓶车
土工布
多级
sessions
社群
stayed
个税
游击队
358
胰腺炎
blast
蛋壳
袁世凯
索性
杯中
providers
除掉
eda
榕
施策
乐坛
花洒
血腥
ref
boo
饱腹
##ator
鹅卵石
threw
保胎
疼痛感
贪图
蚜虫
连成
肝火
干锅
开源
管内
进制
征文
悦耳
家事
指导员
废除
graham
对齐
organic
连片
共存
预赛
选矿
所为
侦破
鸠
朱德
意象
lands
霉变
##兮
ballot
x6
研修
地膜
噻
抓起
offices
风控
滑落
依依
##cs
332
fossil
8m
advocates
σ
新东方
portland
抢到
例行
洼
殡葬
##舰
呦
药膳
盖帽
保证人
母公司
嘴边
双倍
attitude
述职
心眼
平躺
andy
toxic
留心
荠菜
冬奥会
轰轰烈烈
开锁
应酬
文笔
创始
秋水
chip
基本面
warren
集散
瞬时
油料
waters
稀饭
内搭
届满
principal
九品
闭环
牛黄
面瘫
秽
妹纸
萍
工行
甜瓜
spec
摧
不倒
##轻
loud
tg
1点
桃花源
多亿
太深
多姿
姐弟
坐骨
日主
reddit
布鲁
走遍
圆周
合剂
シ
顶点
555
黄叶
##ice
相生
resident
分拣
垮
郁金香
交管
统考
密封件
授牌
##售
##整
投向
宪
nr
发痒
何方
新生活
每斤
种地
包好
炮制
め
连败
har
274
香型
无名指
八五
白蚁
1919
##ap
circle
写完
黄绿色
增长点
连年
长宁
守护者
##戴
speaks
进步奖
饮片
灶台
此书
gathering
前瞻性
断层
受贿罪
ash
大笔
黄褐色
经理人
张良
一百一十
##鸽
##廊
血尿
三包
415
汕尾
室友
奔放
林心如
兴安
辣酱
偏见
introduction
游园
部下
脑瘫
脚垫
gains
##独
盘活
校门
国贸
##贯
商贸城
ck
房款
木箱
今夏
切入点
六盘水
本校
voter
denver
肝气
spokes
康明斯
##私
破获
##氧
khan
茉莉花
##bs
三倍
生性
蔽
有为
洞察
浓茶
兼并
紫苏
dx
文化课
蒜泥
几片
飞鸟
小张
杰作
重病
山色
瑰宝
提拉
钓友
积碳
雾气
咽喉炎
大圣
年中
填满
戴维斯
永嘉
溯源
一幅幅
脱下
阔腿
水银
193
脂质
加薪
沽
王安石
伤情
打起
buff
忙于
净值
阿迪
innovation
ist
gmp
universal
叼
掀
萼
吴中
效用
漂白
wh
预设
塑像
空鼓
波段
林海
多看
icon
alt
黄体酮
汹涌
cheese
只顾
##ph
穆斯林
百叶
亚科
泥泞
生在
班次
集美
月牙
宝物
##溜
牛膝
张海
み
立德
尼日
知觉
沟槽
##net
狼狈
吸血
铺上
韩版
nec
参战
shin
涕
唐太宗
买买
乱象
手提
野蛮
##赋
琅琊
分居
巴拉
灼热
陶器
节目组
上当
##lia
distinct
十一五
心力衰竭
萦绕
许愿
leng
胖胖
一张张
脑力
植保
迷路
trillion
##aries
示范村
相片
拉扯
浓浓
海螺
捣烂
3rd
自用
twenty
冷淡
##lu
968
结肠炎
诺言
赞不绝口
##笋
星期一
##ek
常开
汤普森
conversations
6t
名曰
夹克
誓词
恩怨
喷枪
ease
##ani
##婕
其三
队列
除以
感染力
坐镇
分录
##vin
君子兰
好过
秋葵
动向
如新
过敏原
同上
互不
郁郁葱葱
怪不得
祛痰
comedy
裁员
mega
##ex
王玉
辟邪
茶花
辣味
扬子
通胀
喝醉
基板
明晰
##裁
guarantee
蒿
张玉
沉思
随行
对虾
流利
扇贝
上访
蒜苗
衬衣
都督
玉雕
##res
寒性
保单
甲壳
新剧
摸到
solo
尼康
鼓风机
##钉
奶嘴
公历
生产者
chest
自费
圆圆
县市
摸清
##署
土家族
智联
##袖
hamilton
ratio
水彩
冷落
##樱
边际
robot
百变
##卜
transform
l2
大观
表带
惭愧
下身
艺术馆
drove
逃亡
笔录
避险
煎煮
山石
小家
唱出
反腐
飞龙
女单
晋国
点名
波特
七百
二七
小匙
复审
坐骑
ages
冰岛
distributed
词人
美不胜收
出版物
口诀
##pi
水花
1911
临终
篮子
争斗
高耸
燕山
gar
当过
变种
trick
飞度
无权
雅典
firing
干道
远期
圣母
肠镜
alpha
transit
福禄
阳泉
innocent
##are
寒湿
液晶屏
##ative
conservatives
报国
invest
深挖
legacy
男儿
表姐
波尔
相随
shy
咧
representing
赛程
racism
incidents
管径
##菱
矮小
甲酸
马赛克
晚霞
冰激凌
ontario
手头
进退
写实
以身作则
##ren
reverse
##睡
击球
##钻
礼堂
泄泻
箍
拉到
啮合
包覆
quit
变焦
环状
交大
encouraged
杜鹃花
谣
山海
ast
protecting
##授
大钱
太祖
千家万户
contributions
5k
sweden
lei
repeal
xs
爱惜
盘锦
商洛
才干
吸尘
轻轻松松
mere
冰山
建设者
止步
曝气
心地
xin
判刑
improving
外号
步进
洗洁
##郭
方舟
干姜
无事
好莱坞
上档次
驱蚊
ranks
燃气灶
追击
交出
到访
打字
##铸
联谊会
戈壁
扣件
##孚
transactions
repair
拨付
针头
收音机
金玉
801
八成
簧
##荫
玩玩
有一天
忘掉
存栏
沃尔
初五
upgrade
fears
##ora
011
通则
##插
030
##zz
红宝石
006
trigger
bal
仙桃
##hed
##淋
##垮
亨利
##砚
氩
上证
##cher
过境
麦田
衰落
棉布
chelsea
漾
398
窗前
罕
293
咖啡馆
伏羲
##探
津液
踪影
席卷
王道
festival
广发
promises
啦啦
外感
usage
##玺
##nal
tvb
permit
发汗
初生
##als
简简单单
虾米
乌兰
李宁
编曲
嗟
发麻
369
盘管
新会
pursue
绕过
规整
袭来
成团
jane
照着
##许
凋零
setup
##享
权势
赶超
插图
##还
板上
mistakes
跟风
制图
小燕子
爽滑
消毒剂
教主
带宽
电泳
骗人
首日
鱼香
##貌
客源
饿死
ppm
星河
西面
刘先生
interpretation
入口处
天马
1970s
##腺
此文
拉斯
时至今日
jeep
rooms
subsequent
汗液
一颗颗
##ral
呜
条形
module
外省
dutch
spokesperson
惨重
安溪
短裙
反应器
如初
大雄
##ible
手写
利害
诞辰
剧集
居住区
恬静
##格尔
田螺
西江
联防
前一
斯里
献出
191
相守
星巴克
breaks
袁绍
大草原
wil
校本
ann
wp
3300
河岸
之国
measured
微电脑
涂布
edg
对症下药
薄壁
肠粉
少先队员
发散
淋浴房
##lon
褶
##吸
assessment
展柜
##紧
生地
literature
干咳
冰水
何在
癣
monitoring
清真
必需品
marc
催促
干爽
屡次
遗存
花式
佳木斯
菜刀
frequency
走好
rapid
柔顺
³
敬仰
短小
犹太人
hart

重量级
社工
吞吐量
大江
龙口
##uk
洗脚
开讲
奋勇
爽肤水
社员
##戎
酿成
384
夸大
纽扣
王思聪
收货
fig
复杂性
焊丝
妊娠期
了的
帐户
执著
中能
pn
环评
abandoned
esp
四房
##蜡
studied
小名
acquired
贩
九寨沟
圆圈
气瓶
图示
乳酸菌
murray
charlie
announce
rd
驴肉
##猎
文殊
民谣
厚薄
不实
197
cj
大锅
##挂
登顶
官府
物权
贺州
holes
深入浅出
轮圈
294
赤水
改称
互为
landing
ド
桃花运
金科
龙湾
光束
看透
花青素
巍峨
architecture
不喜
募
银奖
吸血鬼
spots
detect
滕州
烫发
巨资
意念
大料
accessible
交感
1926
carter
秋月
商业化
copies
kt
波士顿
elder
情话
诡
减速器
决定书
抑或
encounter
bible
飙
湖中
occupation
主力军
三支
所有制
351
他乡
偏大
nose
阀芯
据传
左上
诞
所爱
u1
##贷
畅游
博得
acknowledged
来人
木制品
##淼
称量
旺火
热性
踏青
逆流
##ong
width
刀口
fx
bird
concrete
卡路里
傻瓜
##吻
wifi
历届
中医学
摸着
##咸
町
##煌
辞退
捐资
专利权
爱慕
尽管如此
黏液
清军
紫癜
ctrl
宴席
收治
开运
惟一
上瘾
##奉
杀菌剂
secondary
颅
##疑
挂了
知心
vd
1050
改写
仅剩
汉服
家私
管理人
神兽
硬性
##溶
berlin
625
湖滨
争当
mx
轮机
harvard
麟
responses
在座
亚于
stolen
前言
心房
家训
游牧
张学良
刘诗诗
珀
分队
大区
讳
就业率
mf
大美
翻动
中加
naturally
半路
冷酷
diverse
基础性
##召
结缘
opt
##con
大使馆
官宣
##盲
唱响
年画
格拉
袋装
南边
高祖
造像
oklahoma
念念不忘
dar
gh
营养师
儿媳妇
坞
制热
惠农
沉寂
洗掉
开路
一针
清查
汉人
elizabeth
temperatures
366
黑点
阴气
爱不释手
striking
bor
胶条
少林寺
成佛
arrival
新店
汤水
关照
f4
首播
教诲
脑梗塞
judges
舒张
gn
子房
##ering
继位
麓
中后期
狼疮
定罪
大奖赛
魔幻
绝美
李春
埋藏
依附
科学性
红白
g3
403
无上
充填
捕食
化妆水
水印
亢
前海
名爵
counts
atm
引人
护送
细丝
ser
商贩
仁义
weekly
qb
jun
换药
咬牙
商盟
翰林
letting
334
达斯
大江南北
里皮
满身
grab
txt
数不胜数
ridiculous
margin
##艇
邮寄
mp3
严惩
彷徨
毁坏
祖宗
297
每吨
音乐节
小林
骗局
桨
吃醋
遗传性
垫圈
太美
大选
银山
胡须
举足轻重
饱和度
母线
对得起
太阳穴
012
直觉
玩儿
通辽
大梁
主题曲
传动轴
推车
三国志
陶渊明
考察团
olympic
育才
ignored
burning
##ali
kra
smoking
tcl
receiver
减量
##ola
古称
大可
小生
只怕
所有者
无能为力
300mm
原石
驻车
酚醛
集锦
##ari
倾情
810
看作
silent
脑洞
百事
dev
##ala
成全
奇才
滤波
期中
修为
##豆腐
有目共睹
李晨
演艺圈
##100
人海
乏味
造粒
长毛
道场
南街
选段
磨床
deficit
淤积
玩转
夯
公私
‐
passengers
##早
村中
起因
挽留
##ok
秘鲁
han
停顿
碳素
幻影
327
松木
lane
stack
demonstrated
296
gross
人民路
增持
长圆形
h5
下起
greg
荒凉
reserve
句句
记述
初审
disorder
战功
吝啬
去污
胆结石
漂移
une
o2o
普利
女童
翻面
jp
第二十
眷恋
放线
程序员
防备
过客
检讨
乐于助人
lan
过桥
看守
先机
逐个
全美
当心
##time
##illa
有道
松紧
半两
ă
therapy
分时
增益
起航
##旅
喷药
soccer
smell
2k
油水
龋齿
alter
无怨
阿联酋
功法
##喆
垫板
慈祥
转而
跨越式
草堂
摆摊
黄磊
珐琅
坨
##dle
娜娜
练兵
十方
猪年
卷曲
闪光灯
躬
嘈杂
arrive
含铁
pocket
输球
童心
交配
茶山
树人
一区
陈氏
战后
compare
威尼斯
##肿
回旋
##屿
五分
ant
顶棚
枢
求得
调经
肩关节
提请
万国
青铜器
先辈
管理所
海风
##und
高丽
1921
文山
褒
反义词
权证
会社
发火
座驾
练就
厌氧
未尝
发呆
大车
slide
西点
地雷
倒影
自创
法门
分批
出装
不语
consent
##抗
##设
车流
棉签
不输
回弹
质监
##炭
离奇
购进
高炉
大写
云浮
抵消
c5
##fer
毕生
nomination
partnership
敲门
疹
精进
临江
锚杆
侗族
hunt
护师
matthew
339
全境
神明
mechanism
万安
为国
##ability
1924
排排
为重
单边
摸摸
蓝田
弱小
bing
configuration
保镖
ultra
牛角
清肺
梗塞
kings
大法
辛酸
月经期
展板
牌匾
二维
和非
榕树
politically
##val
brexit
psychological
butter
苍茫
备件
转矩
司空
大班
##奸
一桌
自备
p30
建好
生命线
黄褐斑
囧
三鲜
墨尔本
comprehensive
组队
okay
涌动
花枝
一帮
清廉
retirement
博学
蕨
如懿
缠身
clinical
yield
诸佛
史密斯
天敌
##ward
##sk
中立
下地
在即
花呗
stages
外线
童鞋
四边形
batman
黄鳝
辩称
阿克苏
收看
可人
跌破
桦
学派
persons
格雷
崽
半数
税金
紧迫感
tower
芝麻油
artificial
吩咐
动物界
锂离子
奖惩
静安
弯路
其子
dep
npc
结痂
意甲
宿命
青浦
通勤
善恶
纸盒
知了
味苦
水城
reliable
芡实
名句
诈骗罪
六道
破除
玉米粒
益母草
五日
刺杀
长裤
领带
载货
鹿角
顺水
烩
8500
荸荠
温顺
炎性
点子
绿意
散光
课间
清幽
tens
##ffe
吨位
结业
气喘
清关
结伴
弱者
前车
##eri
船用
山峦
南北朝
敷衍
官吏
荚
腰背
戊戌
垫块
逛逛
岗亭
旺旺
一球
都行
宏光
三观
大炮
thy
一席之地
满贯
capabilities
周琦
凉快
##籽
会战
狂热
素菜
成型机
末梢
headquarters
##寂
三座
targeting
匝
收银
\1
白条
转眼间
def
密密麻麻
惊恐
小分队
老同志
##辣
字符串
hockey
午夜
##援
福寿
citation
supplies
香喷喷
例句
全开
排版
sch
不容忽视
飞轮
卡扣
颗粒物
三界
年满
金杯
反超
hf
核潜艇
insisted
路易
灯杆
混入
局地
疏水
一去
定速
稽
香浓
波澜
专任
公墓
梨园
垫付
504
其乐
电炉
踩着
几颗
课余
194
铆
尿常规
祭祖
书城
##暮
加注
礼让
小口
通化
换位
中产
奉贤
##郁
硬是
凉凉
晨报
表妹
##摆
平缓
财政厅
##gy
oa
光泽度
种业
漳
万古
三阳
boom
萝
包车
崇明
好笑
小楼
氰
d3
criticized
联运
压板
应试
汇演
小队
引种
pac
突厥
主城
拜托
30mm
过河
众志成城
replied
安安
私房
义无反顾
beta
悬疑
低级
努尔
阖
anonymous
##舜
建党
领证
小兔
50hz
attractive
unions
牛肉面
轻声
一顶
审讯
用纸
健忘
社保卡
proposals
发糕
parallel
venture
亚洲杯
念念
punishment
住处
astm
泰达
横财
宫保
灌肠
桐乡
低估
药酒
天井
chicken
##泾
咬合
len
抗衡
机灵
cra
教职
spaces
意料
adventure
水仙
树体
##峻
沛
universities
dates
身手
etf
新四军
贪官
生来
钝化
琅
##污
警钟
♥
heroes
网签
辫子
唐书
有条不紊
##请
转头
溢价
毛钱
驾驶者
鸡鸭
考前
山势
土司
rm
盖章
听闻
肺热
一齐
乡间
popularity
绵羊
大麻
##巢
titled
降脂
信奉
475
恭敬
评语
美协
清溪
奥体
凸出
评书
租用
##胖
sydney
人世间
鼻血
多姿多彩
##wi
东兴
降糖
programme
几根
abroad
平底
centers
毒蛇
微孔
超模
清白
街舞
麦克风
轮船
何尝
哈士奇
牛顿
献礼
reward
mall
从业者
青春痘
油路
职教
巩义
祭奠
ど
cro
姥爷
储运
kc
那家
审判员
х
牵引车
##堰
男单
单色
卵磷脂
科大
首付款
十日
##虑
西西
xt
踢脚线
更新换代
978
五香粉
杀掉
防护网
皮薄
闪现
brilliant
省外
力作
乡里
孚
加推
重担
别急
satellite
破土
体味
deadline
鞠
偏财
纸条
村口
门诊部
863
kitchen
耕种
满眼
牙科
##救
自燃
幸亏
##帘
衣架
visiting
血缘
附有
blocked
瘟
喙
游击
monthly
哈密
闭经
覆盖面
599
细菌性
核武器
丹田
耐看
25000
entitled
斑马线
连串
甜度
哲学家
孔洞
丝杆
三间
##予
一袭
强盛
出兵
一箱
##nk
hor
crypto
一阵子
怀上
##ica
transaction
日化
cpi
383
⭐
迈克尔
大度
来信
婉转
病原体
俭
公车
韩剧
宴请
铝业
木屑
炉子
大娘
压差
高程
nazi
objective
高傲
陈志
主旋律
s5
立功
公摊
合议庭
助学金
最高点
山泉
荒地
大呼
lady
虎皮
棺
补办
豪放
压路机
dependent
幼教
作弊
roof
congressional
走高
血气
使馆
魔术师
阜新
播报
辣椒粉
干涩
楔
一连
宦
安居乐业
现成
以太
fur
dismissed
grass
盟友
日晒
gordon
亚历山大
eq
现浇
温补
偏头痛
李玉
传唤
brad
钙片
低收入
clark
唇部
防冻液
œ
jb
苗条
##薪
gene
制片
红河
737
勿扰
伪劣
称帝
小调
mmol
防城港
´
浅水
二甲
鹊
⑶
侧边
银币
三缸
叛乱
勇猛
populations
whenever
bonus
veterans
presidency
凸轮
pid
影城
releases
有才
固定式
胶州
庇护
极地
顽皮
##糊
要死
两下
北山
prize
楹联
残缺
解渴
requested
封边
划归
招考
新居
∠
ham
survival
1917
追忆
真伪
国君
吸睛
蛋白酶
卸载
回访
能见度
殆尽
甘愿
结转
飞过
加糖
fred
排风
降雪
qc
趣味性
隐性
球门
乐天
oo
aaron
ville
四柱
风沙
助教
appearances
姐夫
鄙视
一拳
##burg
静心
赘肉
疝
din
渡口
refer
angle
840
风清
sections
葵花
董卓
寓言
雪莲
加湿
系统化
fri
华阳
物产
##uri
腹黑
##锤
通红
##哭
二度
##驴
唱腔
癫痫病
必胜
干掉
朱家
utter
健脑
手电筒
四门
德行
中航
assigned
梳子
predicted
卖到
新月
薯条
液相
短途
平度
笔法
脸红
民工
开平
斑马
四楼
kn
锡纸
军政
##ick
圆孔
解密
jerusalem
天尊
晚宴
内幕
pipeline
预知
introduce
岱
aw
徒长
banking
掩映
mls
neuro
蒙蒙
单薄
dv
抵触
冲天
documentary
徙
马齿苋
足球队
phenome
mri
密不可分
分摊
锭
dia
薏仁
见义勇为
servers
背光
江夏
thompson
心神
鸦
垛
图斯
运程
村村
正大
291
咖啡厅
收成
美图
购置税
1910
htc
eliminate
rough
险情
陈年
空空
两性
武王
##mon
护板
群落
茹
大乘
高雄
防暑
客座
游船
匠人
forcing
riding
怀柔
待机
重装
probe
尽心
偷袭
葬礼
吐鲁番
工商户
内马尔
已故
dialogue
绰号
城阳
duke
##珀
军分区
画质
anxiety
分贝
庆阳
torture
channels
416
甲午
focusing
ger
暖通
结核病
wider
貂蝉
quoted
##tu
五台山
担保人
505
休养
中游
urged
✨
耸立
耳熟能详
粒细胞
万圣
红萝卜
御寒
兴致
总称
传记
扫帚
直系
dou
隐匿
韵律
纸业
5kg
三号
血色
##hy
鞠躬
幼小
摩登
rid
难忍
免征
交联
锐利
苯乙烯
尊崇
uniform
口苦
王一博
单手
校验
安娜
洗碗机
##ub
竹竿
活络
ltd
风生
streaming
russell
光鲜
洪武
保有量
わ
前门
三河
报导
fled
禀
受精
国美
wealthy
纵使
pal
##gg
胡乱
t5
中文系
蔡英文
两车
dress
调教
铁岭
古怪
##缺
神色
cooper
太阳光
日立
scientist
霍华德
书上
emotion
##榆
垫底
卖淫
得有
树势
殇
人畜
406
恶臭
341
1918
violation
##bling
鞋带
x光
写法
转世
芸
弈
欧阳修
乳油
unexpected
中年人
scottish
浓重
草草
爱因斯坦
焗
旧城
染上
快活
停歇
星火
江城
再就是
交朋友
拐弯
南美洲
拿破仑
questioned
od
😂
谥
##nge
855
面值
非得
pointing
盖住
高官
声名
后院
s6
写信
楞
灯罩
沼
滋事
##ene
呼啸
f3
##又
domina
体面
stepped
中端
prisoners
testimony
小点
##bb
瞄
核发
1cm
捣碎
philip
富阳
birds
集会
大热
actively
脲
出水口
沙场
inspiration
鹈鹕
巡演
强队
deny
群雄
雏形
坪山
深陷
qualified
三十四
409
片片
婚房
老三
付清
万事如意
很香
户口簿
商界
gulf
划过
受累
冲进
##椒
mood
村居
切面
9999
夸奖
着呢
试问
水利局
##ris
砧木
延年益寿
再婚
琦
tactics
朱熹
电离
含金量
横纹
beating
干支
秋色
扬帆
青涩
村官
矢量
华庭
##ement
天秤
大儿子
赐予
湛蓝
散户
转氨酶
picking
maintained
宰杀
ranking
醉驾
检出
不言
两栖
午睡
东岸
中粮
椒盐
ys
export
久违
六种
秀发
approached
国库
tonight
煤油
井水
送走
2d
掠夺
茶油
bold
designs
自责
案子
stability
参阅
积攒
##懿
陶艺
血肿
除皱
太行山
汛期
半程
producers
傲娇
mal
向量
棉袄
nfc
一尊
昏暗
徜徉
有理
喜鹊
甲骨文
出新
交通费
通天
补课
bj
认出
三山
开过
lateral
理应
典籍
一道道
francis
tesla
settled
肥肠
emphasis
埋葬
气得
回程
opens
笔顺
重来
天命
总代理
##冢
ana
盐分
害人
视界
灾后
榨汁
去核
手袋
frequent
金价
低矮
焦炭
errors
伯利亚
三十八
金钟
科技型
禅寺
顾家
新余
合唱团
##愿
压根
利落
音乐人
先河
网线
章鱼
争先
到站
##笙
zy
大厂
restaurants
取舍
栾
娇艳
兀
南无
看齐
椿
爆裂
补助金
年假
干洗
心系
扶贫办
貌美
submitted
晨曦
傣族
花苞
腮红
偏重
wedding
工时
埋伏
公称
汤色
自尊心
procedure
初春
空缺
北洋
##dge
gro
蜀汉
琐碎
过半
421
檀香
世茂
栖霞
harassment
hosted
箫
桶装
hg
输掉
探亲
七里
哭声
囤
林志玲
兴化
疝气
标定
改观
patent
县令
进店
站前
一百三十
中山路
中下旬
成员国
敲响
衙
婺源
羊绒
鸡粉
委托人
##福德
高桥
安详
##tis
排空
孜然
育肥
涤
本子
纷争
propaganda
拟任
垦
celebrate
开槽
减重
体魄
踹
experiments
混浊
cave
pleasure
殖民地
昂扬
e3
attract
黄皮
巫山
provision
夹持
childhood
gather
刺眼
较远
缚
出借
王羲之
吃住
被窝
停水
##竭
耗油
四通八达
demanding
舞者
水沟
补品
福祉
诗篇
清清
故障率
大石
饭桌
食神
帛
阿哥
分清
预付
引申
两脚
瘦弱
披着
最高峰
门上
一气
浦江
stem
藩
篮网
##仗
deserve
强身健体
河池
为题
sly
黄精
雨刮
织布
木料
稚
neutral
丙酮
梅子
←
吓到
citing
唏嘘
烃
风声
pose
##ez
勋章
athletes
置物
pra
##晗
杨过
礼金
利民
抱抱
依稀
lx
成熟期
暖风
温岭
021
多伦多
怡人
引诱
幼犬
哈利
steam
李光
mario
abilities
无罪
上单
##傻
敬礼
伊藤
结了
准确度
吹风
##har
overseas
两步
八里
技校
填空
片面
inches
跳槽
重者
拆掉
铃声
病区
便当
等效
绿灯
preparing
做主
普拉多
放慢
generations
拍卖会
anniversary
坚毅
映射
##姨
撮
##唯
击退
编队
stance
红心
keyboard
放倒
java
wwe
避让
q1
甲乙
催乳
genes
修车
黄牌
开动
编码器
陈文
养家
savings
老爷子
nan
茶壶
聪
##ants
陈建
博世
难于
份数
横杆
单据
395
纯色
莫大
泥石流
pig
大败
难事
冷敷
cute
股指
##棱
高下
同龄人
丹霞
砌块
菜场
使用率
有型
隔开
蛋鸡
党代会
##蒿
相冲
zo
两路
alien
dying
真有
磁共振
investigations
装进
bg
jeremy
小桥
罗兰
garden
报批
黄斑
求财
phoenix
北国
段落
平移
fleet
亮剑
乳腺炎
肆虐
腹股沟
金融业
harper
动辄
一钱
三公
asp
assembly
鞋垫
防虫
补偿金
岸上
摩根
圆明园
dun
肾阳虚
表现力
清流
数日
城郊
zen
礼记
guitar
遐想
k5
幻觉
二等
破案
沦陷
线形
八宝
收尾
ratings
515
家谱
sized
茶道
odds
睡醒
dos
忌口
烧成
农垦
湿式
天色
白塔
健客
羁押
水母
¯
##rian
维系
518
银杏树
拔除
legislative
勘测
控制阀
30cm
cake
皮层
二三十
改掉
昧
含钙
脱位
汇款
补偿费
judgment
名酒
##狱
直营
argues
星际
上楼
##淇
大雾
rounds
间质
老爹
综治
本命
统战
##沫
kor
永生
##漏
adopt
##待
deadly
圆滑
伤到
1a
宽厚
tune
##淮
孟加拉
纪实
气度
不羁
法网
城管局
や
picks
冤家
磷脂
五香
411
说到底
##bar
愈来愈
jar
蜀山
##肃
palestinians
本该
见得
开火
公会
酪
寄予
文号
条理
游泳馆
2b
构筑物
凯特
司徒
towns
一机
oakland
曜
有责
特务
muscle
##监
棒棒糖
瘫
李永
作用力
牛头
效仿
posting
羽绒
竭力
先秦
干红
阻拦
金海
新作
tremendo
拉了
511
后市
arguing
1001
中世纪
矿工
驻扎
reveals
8k
并肩
convert
前瞻
岳云鹏
node
含糊
civilian
##晚
illness
开战
圣贤
骨肉
拉伤
打脸
旧金山
跨过
知性
田里
防护服
糙米
修真
instructions
进京
用水量
涛
轻视
滑稽
屠杀
满目
向导
##祺
gg
黄花菜
hopefully
政绩
ロ
bits
##亏
挑战赛
骂人
孵化器
##mar
原位
刺鼻
分叉
裂痕
云彩
牦牛
sas
净重
有形
不厌
推杆
闭口
拳王
青砖
实证
浮沫
牛蛙
习题
海鸥
结扎
zhi
timing
##ians
海港
瓮
辣妈
##嫁
无微不至
万方
stored
千姿百态
succ
chrome
瘾
开荒
consensus
execution
spell
角球
亢进
敬老
reforms
鸟巢
闭幕
broader
想得
寿险
##栖
脱单
三段
单反
眷
涂膜
小年
可悲
获益
救生
数据线
##访
奥尼尔
清静
cooperation
标号
biological
resolve
烘托
邓伦
混杂
小分子
着迷
计算器
其时
摘帽
punch
ot
驮
硅谷
益肾
爱恨
灾情
寮
三居室
有识之士
果真
管壁
街巷
脱欧
瞒
##蜀
载客
改版
唢呐
传感
出钱
blockchain
mirror
往里
力帆
荒野
止回阀
16000
s10
偏移
imposed
六国
val
##ori
##tar
咽部
疯子
sal
网讯
3001
解酒
随从
新郑
太早
speaker
摇动
灵巧
analyst
5800
阳离子
中频
可视化
服装店
上床
牵扯
bf
岳麓
交响
供销社
创投
震颤
瑞金
作品集
##逃
9g
可望
好找
东平
淌
勤快
省直
19th
屋后
商超
希特勒
sim
组词
八分
强求
瓤
##维奇
粉煤灰
夜宵
浓眉
数理
##ec
唤起
矛
参差不齐
喜迎
差评
##nie
惠普
金马
剁椒
食宿
喧闹
平潭
鼻头
糜
兑水
锦上添花
与生俱来
##际
底子
v1
435
sorts
腾冲
石灰石
招人
孵
bon
远行
##碟
40000
水务局
测出
异步
五角
四面八方
压强
刹车片
全运会
##een
保险丝
变法
##魄
战败
promoting
武当
##喷
越快
ian
birthday
邮编
镉
承诺书
drone
揍
不耐烦
ф
鼎力
面世
留香
玉泉
corn
观世音
倾注
分给
总户数
求救
入室
违者
瞧瞧
钡
护肝
浮出
凤凰山
hash
殿下
勘
伯爵
开枪
大二
宝来
promising
之巅
clo
异位
concert
困苦
后场
尽收眼底
borders
lz
recipe
ceremony
difficulty
溶化
教员
适配
##吏
唐玄宗
风韵
何炅
铠甲
断定
euro
无故
惨烈
挥霍
得不偿失
骏马
哦哦
四十多
voices
prose
严查
##cc
冤枉钱
expanding
互感器
浴霸
20cm
等额
陈醋
骷髅
对岸
3100
磨擦
中高档
a0
编导
从化
辽东
变老
正定
newsletter
利润率
peer
秋千
油皮
家畜
神庙
过完
##叠
闸阀
玲
霸占
取景
互生
categories
神马
##肤
底妆
条文
约翰逊
四十五
螳螂
aj
才让
818
更上一层楼
装订
レ
开山
环山
invasion
礁
核电站
emerging
花果
沿袭
全身心
五花八门
awarded
石磨
tennessee
菲尼迪
滤袋
在世
门下
越少
大潮
egyptian
彩印
自筹
christopher
苏丹
##辽
安好
过不去
武进
tier
海中
波及
pour
physically
党派
湖光
洞庭
计税
航拍
compromise
⑧
常青
华晨
二十几
百分
bro
喘息
同是
##ken
desert
050
线路板
消渴
腰间
筹措
consideration
山清
prosecutors
盘古
格言
bao
managing
法力
黏度
北城
343
国税
到老
demonstrate
祭拜
书协
鼻部
原点
variable
厌食
eligible
半斤
尖尖
香香
的信
圆环
花梗
异样
场内
失真
耗电量
桑塔纳
中点
濡
安全网
lifetime
对冲
普罗
得心应手
飞往
爱戴
滴定
shake
扁钢
擎
装饰性
##适
夏秋
##页
##弃
簪
蛤蜊
供气
心甘情愿
黄花梨
412
dominant
信息网
饩
assist
魔方
人民大会堂
南风
卫生纸
亚铁
陈国
签发
展示柜
##滑
坂
陇南
comey
a8
农科院
链球菌
拜师
逃出
哪天
私有
胜出
##tter
河床
平铺
struggled
尼克斯
挺进
临摹
批发商
掉色
本法
356
繁体字
居中
whereas
ky
黑河
publish
小丁
关公
垫子
下级
记号
alarm
宝库
联考
只求
惦记
staying
转换器
明德
involve
filter
思想家
toll
变硬
ñ
溺
何不
夹子
dating
辛劳
倡
347
西海岸
毅
不失为
突破性
冲浪
357
六项
流行病
麻婆
reject
desktop
backing
symbol
花叶
菁
篱
mouse
collaboration
##cation
hpv
rome
highlights
首长
学姐
树根
##燥
防弹
racing
飞溅
魄
联欢
档口
青苔
农合
大润
checked
瑟瑟
庄家
陈设
还珠
开刀
畅快
大权
构想
重卡
清江
荥阳
少少
氧吧
慕尼黑
双排
##je
adams
marine
宫外孕
代工
天神
drives
全麦
干透
economics
牛羊肉
版面
不复
歹徒
住宅区
节庆
372
用材
sz
盈盈
有福
榨菜
支招
remarkable
新股
情理
libya
风神
无意间
simultaneous
860
sake
平息
箱内
武侯
有史以来
##企
trials
中长
jam
建构
喜讯
采风
住宅楼
剪力
777
vp
苍南
enabled
ж
腐朽
殖民
holders
懵懂
声望
str
紫铜
翩翩
山口
总想
合租
##做
交口
damaged
脂蛋白
mono
危难
扛起
惟有
招录
竭
积压
后汉书
meal
几口
css
凉鞋
盛放
首例
背板
裔
eth
栋梁
馅饼
白鹤
粉笔
presentation
解热
wanting
淬
元老
往生
##hn
怪石
先知
印刷机
冰心
号角
黄鹤楼
接上
面罩
红山
心间
世博会
羞涩
耐热性
越早
上头
assumed
朱雀
瀚
五里
蒸馏水
检定
记分
nd
资源化
吐奶
湘菜
二院
医药费
周全
旌
落寞
functional
##疏
蚝
晚熟
难求
剥落
乱扔
occupied
碧海
倾角
蒸蒸日上
离心机
痱子
灶具
strategies
roots
trailer
ay
thick
门帘
分选
测温
上缴
participation
牵拉
印花税
contribution
自卫
永定
hire
开合
后边
一通
arc
glad
那双
籽粒
立夏
py
3t
harsh
开发者
微薄
病死
凋
栈
付诸
津津有味
租借
荒芜
会儿
高热量
rolling
存入
拖动
沾染
herent
株式
国资
亟待
##了
绿油油
猛然
dropping
运动版
殷切
火炉
defeated
ssd
##逆
spectrum
下药
接应
环岛
stops
clothing
1850
贫困县
共和
福德
嘘
488
鲜果
海门
世贸
权衡
红梅
持仓
宝箱
天黑
积食
演讲稿
新锐
冷清
速递
2050
勉
342
5mg
三十七
相宜
候鸟
乡长
赢球
泛起
姜汁
鱼肝油
撕碎
豇豆
沙井
playoffs
高远
定西
s4
快慢
少部分
电风扇
鳗鱼
橱窗
携程
om
##oy
missions
吊带
quest
contacted
##让
复读
股民
噶
春花
初中生
称霸
弩
craig
妖娆
slip
鸟语花香
capitalism
摇臂
免不了
音像
七七
李小璐
花城
挂车
passage
急促
wales
水痘
antonio
boxes
embrace
设法
万寿
制片人
ukrainian
温中
劳动法
牛市
一吨
implications
爽快
白芝麻
影音
c6
幽雅
良知
线束
呆萌
奉命
门头
余件
中下
##葱
华商
划拨
非公
军长
mer
王金
一纸
阴凉处
沙沙
机密
jerry
但凡
惠阳
大卡
memories
性子
锆
成交额
integration
上新
wounded
批发价
scan
治本
fcc
漫游
legally
cheer
mic
议程
资历
古色古香
开赛
寒热
伊丽莎白
卫生巾
冬笋
听讲
ism
翘楚
远端
桥下
积分榜
荀
##art
骨灰
博雅
激光器
羊奶
marco
生女
signature
##all
报告厅
forum
管教
要塞
executives
深藏
xy
月下
糙
corp
substance
educational
似水
swing
招式
木匠
foods
competing
谜语
晚清
热电偶
版次
扣肉
本意
后盖
打乱
垃圾箱
dispute
tweets
337
好动
挺身而出
王世
组别
submit
##rie
婚配
小片
金桥
耻辱
mess
刀子
##怜
话语权
php
盗贼
棒球
西葫芦
天文学
communicate
恢复期
傲慢
五指
芜
降息
恼
jimmy
火旺
车险
悉数
川西
酒柜
译者
athletic
俘获
轻奢
##ship
隶书
富硒
shoes
种菜
353
缓存
次序
配电箱
雨刷
周身
##lly
繁茂
彩云
陈小
淋漓
重整
曹丕
临夏
沙土
506
冷门
kentucky
ˋ
冰毒
扶正
jd
h2o
沉沉
大点
重阳节
地税
δ
##返
很忙
##寅
抱团
donations
alert
pentagon
天庭
装好
坦白
形制
regulatory
relation
嘟
玄武岩
花蕊
酿制
m6
##哨
细碎
乌梅
橡
和珅
pit
线虫
字迹
singer
气力
花苑
稀薄
攻破
手相
乱放
德云社
颓
无形中
札
首钢
bone
搅动
组合式
pie
营养学
洗衣液
杨洋
indicates
病患
误工费
爆发力
偶像剧
鸡排
砂仁
墙砖
风头
让步
责任书
纳闷
储水
神通
气相
wm
八强
dh
补漏
wt
##璧
洪山
疑虑
对劲
skt
棉衣
1922
热卖
停业
柳叶
脱俗
电视柜
dnf
古井
青梅竹马
recover
婆家
擦肩而过
迷彩
corporation
硬块
慢行
##烛
运输机
发情
usd
centuries
感言
壤
主枝
献身
压花
registration
pope
中招
openly
躺下
悬殊
何首乌
456
addresses
机壳
gri
灼伤
嘶
resort
解表
无产
埠
shipping
先兆
清政府
芭蕾
胥
##皋
shaped
放牧
楚雄
百病
满堂
多病
内功
朔州
吸力
1905
药量
剧毒
##sation
蒜瓣
追回
前五
hal
graphics
模压
护卫舰
890
整地
mount
egg
犀牛
张伟
investments
fil
2c
歌谣
阑尾炎
城外
二首
港币
单元格
react
济源
zs
大革命
睦
滤波器
感光
见状
甜菜
恶露
不干胶
孕前
金曲
启程
不漏
错落
正财
篇幅
阿奇
花柱
淘汰赛
perceived
亮光
气概
古法
锦旗
渝北
##屈
##涅
charity
t4
##桩
兵马俑
官渡
扬起
咆哮
账面
挚爱
guidelines
看得出
代偿
胁迫
随缘
年长
一车
勐
吸顶
多维
转机
芝麻酱
亲水
家国
##ain
晨光
丌
斗鱼
经济圈
球体
##槐
打倒
绞痛
排骨汤
句号
##ju
生态圈
##瘦
线段
阐明
滑道
杂志社
瀛
王大
建委
acc
茅草
云母
东升
百名
死死
学籍
单侧
‧
鄞州
式样
心碎
defending
淮山
冲水
热压
kan
相加
红枫
管状
斗殴
讨伐
补足
邓超
格列
耳目一新
小鹿
小青
匍匐
直视
para
##庸
girlfriend
##铮
华侨城
菌类
convince
取而代之
segment
##book
pub
##磁
搔
custody
侍卫
##丈
医美
rand
528
接诊
巡抚
巡游
担子
兰德
不灭
肝经
天一
层数
一剑
切切
下册
医疗队
水景
白光
纳兰
汽水
studying
一千万
宛若
父亲节
pla
滑雪场
声带
毒药
通透性
村上
白山
roo
b3
步履
靠拢
肉丸
suspects
##摸
2t
graph
足坛
浸渍
玺
党籍
墨鱼
arts
searching
千山
出庭
缝纫机
慌张
仑
张氏
sudden
叫法
coaching
外翻
出奇
留置
相辅相成
unprecedented
裁判员
太短
望江
倦怠
凰
家长会
##尼亚
sixth
女篮
异域
客流量
机柜
##割
李商隐
边长
不亦乐乎
flavor
侧身
烂漫
诶
关山
独处
p20
##斜
雨点
##怕
起跑线
番薯
安置点
服气
花篮
背离
弟兄
建言
老夫
母舰
隆胸
挥舞
主材
##坟
契丹
老朋友
军旅
有神
飘荡
险峻
品茶
花艺
458
傀儡
中单
漂洗
arsenal
鱼雷
肉鸡
美梦
二哥
云淡
陶粒
面诊
硬汉
清零
装点
油亮
天冷
烂根
耐药
塑身
香皂
managers
洗剂
bullet
精锐
removal
乱七八糟
非但
生灵
特写
348
践踏
葫芦岛
eager
pride
璇
决明子
楼栋
人山人海
手拿
##ect
节后
不妥
ons
心性
##幸
interact
侵华
园丁
在心
高挑
父老
仁和
新低
柱状
##隅
hcg
铲子
撕开
ua
退耕
可塑性
耗能
国泰
フ
熄
减震器
不收
个案
兽药
sol
瑞丽
balls
筱
水枪
心经
sovereign
草场
餐厨
andre
##啸
亿多
馈
治水
牧业
甬
棋盘
justify
##梢
微克
vg
游乐园
告终
葡萄园
谒
拿手
东家
疲乏
belt
##臻
阅览室
易建联
斯巴鲁
过少
baker
battles
散乱
小声
沙盘
抗洪
everyday
月供
followers
金鹰
下路
肺气
嵩山
族群
圣洁
垃圾车
##ised
translation
刷屏
楠
数十万
desk
##专
首度
板桥
过世
engineer
居所
perry
省去
血肉
bim
victoria
鱼鳞
浓烟
苏区
最热
payers
香脆
重金
自作
牵连
贵在
ano
仕途
开门红
放量
动心
分装
判令
绝伦
靡
##衰
##ces
impression
选自
安妮
##port
酒家
modified
咋办
归案
力强
显出
质问
庭长
五格
不屈
导通
590
言辞
主队
拆分
纠葛
后腿
施工方
gray
林冲
preferred
昌吉
足浴
长风
王莽
じ
hunter
降费
造反
一击
loose
##谊
豆花
443
女郎
##ram
送别
欧姆
实话
连长
小白菜
细数
背靠
mmhg
水气
wet
居民区
七一
平开
定力
喜人
afghan
theories
进气口
##碱
鸡粪
##虱
摄影家
1923
精气神
青山绿水
新潮
离心泵
磨料
出镜
##繁
花溪
镌刻
curve
蛋挞
mari
password
保险费
蚀刻
草帽
brooklyn
刻骨铭心
杀青
ion
##此
一百五十
集约
廓
投靠
diseases
discussing
保温杯
练功
三好
素雅
福利院
怀中
##ach
는
颞
睡衣
忍着
亚门
2900
##刹
嘻哈
连队
红红火火
劳力
以德
蓄积
025
逆变器
漓江
贺卡
安倍
formula
b12
##洛夫
投案
月龄
是人
同感
领导力
hub
涉水
tons
##mb
浆液
华裔
##atic
hai
肯尼亚
小汽车
玩偶
绣球
西餐厅
任凭
米醋
industries
半边
杨志
胀满
大义
倒流
institution
白日
城池
名流
disagree
要紧
专有
pulling
一九九
萘
散开
underlying
波光
##san
美文
蒸笼
签定
凝视
小商品
气密
果酸
双目
##ata
中德
平仄
开花结果
成家
平江
询盘
阿坝
publishing
##彭
圈粉
排水沟
半圆
全党
惊厥
诗书
如皋
寡妇
##斤
一百七十
脱色
1913
小王子
掀开
clip
嫩芽
供应量
二元
直管
上册
鲁菜
查查
科技局
塞进
林子
三厢
搏斗
预选赛
淇
感光度
fights
stein
e2
泡酒
厚德
质子
hanging
##ire
宦官
##筱
彩涂
几大
万用表
讹
题库
荒唐
梦寐以求
韶
bee
镀金
鸿运
慨
禅城
鱼汤
工科
##已
飞向
新路
##纬
村容
cow
转折点
资管
363
ang
beings
##伴
字眼
trends
开间
泊位
浑厚
邪气
一百零
即兴
q2
金州
tick
q5
金刚砂
浮生
祖传
电磁波
厢式
delhi
台山
辩护人
推特
backup
院系
医患
slot
夜光
翻阅
拉线
驱使
送人
巴蜀
贞观
提纯
montreal
首开
漠
湖里
##ette
topics
悍
躲过
片中
spill
holy
北街
酷炫
歼灭
钒
禅宗
##累
功绩
吴家
回望
三九
孽
blo
编织袋
浅表
packed
纱线
雨花
rebels
浸透
变故
任意球
刮刀
马超
换下
王宝强
interior
tin
跑步机
349
江津
肃穆
creatures
登机
465
平遥
通宝
卡口
knife
吸湿
##襄
5w
行军
生食
loves
肾阳
浮游
起舞
386
种田
##斐
ln
荒漠
wright
##焰
主见
##ack
同安
alliance
鼻尖
连城
求职者
文玩
四类
三毛
时事
怂
笔名
成膜
凉山
中书
corrupt
loaded
式神
extract
alaska
涪陵
pcr
绑扎
explaining
不熟
赛跑
缝线
588
苜蓿
纯白
试车
九大
カ
胤
加到
八景
东港
迸发
##障
##ig
鱼苗
载入
qua
老店
梨子
累及
exc
紧迫
pollution
gx
凉茶
供油
辱骂
冷藏车
##吐
缜密
interaction
lr
1010
下拉
吹响
幺
procedures
discipline
saint
丫鬟
##ncy
##dal
realistic
walks
##桢
reagan
690
##gar
连冠
abu
高洁
人流量
欧尚
培植
事前
诟病
棘手
##gon
前臂
情书
高科
巡警
聚众
海啸
极点
鳕鱼
失职
卓尔
云天
窗花
猫猫
rhetoric
生财
x7
不经
正因
司马迁
光头
露珠
myth
昌盛
精妙
心衰
归类
engineers
尊称
百川
滑槽
沂蒙
楠木
车长
纯水
仓鼠
户户
各科
##冤
虎头
楷
痒痒
养牛
雪茄
宝殿
ven
房型
commander
diplomatic
苗期
火气
总指挥
明暗
树龄
breach
一举一动
敞篷
knight
阿德
德语
stan
原子弹
汲
1020
次子
引线
仁爱
engagement
关头
慰问金
三位一体
谨防
玻璃杯
大雁
助消化
r3
探伤
牧马
风潮
hospitals
##袜
##曹
谋略
瓦楞
##ern
428
##灌
maintenance
场外
发展史
orlando
早睡
小笼
结块
浴场
王伟
cognitive
701
黄杨
罐子
宵
护法
眼见
超乎
自考
##癌
发到
徵
妈祖
##craft
胶合板
eg
方阵
青贮
##验
戒酒
岳母
弱化
堆焊
壅
数百万
nervous
badly
懂你
蛟龙
民主党
台球
莹
村组
过江
法西斯
平层
预科
太阳系
气死
异界
在京
requirement
mag
没落
中下游
李德
谋生
青梅
pleased
青海湖
打标
活出
鸥
##ena
定论
支公司
俄语
不得而知
盘面
火腿肠
drag
九曲
602
answered
国际性
杨颖
微电子
维尔
性欲
情愫
##ru
再买
木星
没来
世纪城
白药
冻干
毒害
虏
综述
畅谈
范例
心包
亮起
假定
题记
##炸
教务处
3400
统帅
有家
险些
小七
教科文
攀岩
寻衅
繁体
塑料瓶
dreams
ele
##何
恩师
齐白石
酗酒
镰刀
听懂
耐水
液面
耗尽
芳华
signals
攻城
compensation
月令
选料
evident
擦亮
酒席
壕
阴霾
援疆
神像
木器
新老
进给
summit
万户
acknowledge
围剿
回荡
两把
多雨
低洼
扶梯
左旋
咸鱼
年号
正门
suspension
郊外
痰多
4600
eggs
离线
设为
放行
北海道
发祥地
结膜
bitter
肥牛
沟渠
俯卧撑
535
##四十
系主任
匾
果期
苏北
xing
orange
##倍
任由
低点
瘟疫
377
玉山
曲调
安危
苔藓
粉嫩
臃肿
落魄
mma
孤寂
压岁钱
comics
定下
crop
石漆
乌镇
底油
##簧
talented
山高
蒸好
##仑
fold
攻占
平滑肌
甘孜
尉
920
纸制品
##婷婷
迪奥
连结
男女老少
水头
##琰
灰熊
billions
空腔
g4
凤城
ncaa
操作者
递减
枯黄
戟
三明治
余米
dick
eng
北边
robinson
抗寒
重创
课题组
恕
铁芯
不适感
立杆
新梢
utility
bla
中联
琪
prosecution
厂里
362
##rus
partly
双线
381
钢轨
微不足道
ⅳ
绝句
同轴
尖头
钢架
孢
战时
咸味
大东
照相机
尿急
调任
outlets
中叶
441
汉果
perception
grave
虚无
后桥
粉体
通通
老酒
西欧
军装
painful
灾祸
黑板报
妲己
椎体
##mal
芥菜
子曰
磨刀
俯视
四缸
创卫
hay
管好
凯里
攀比
till
dam
unc
吵闹
并网
茶艺
冲向
automatic
氏族
一桶
转战
眼妆
通过率
驭
医德
浆料
嫩肤
麦迪
动物性
独奏
劳逸结合
赵家
懂了
宫腔
瘘
ara
锋芒
怒江
bands
notable
膛
iec
金茂
皈依
指甲油
泸
830
老窖
此役
寐
实录
卖房
摆出
黄陂
归经
##厦
回民
电解液
periods
横穿
原作
人质
看护
蜂巢
##黛
提现
可恶
不讲
spark
adjust
##hal
南水
2l
申办
龙腾
天主教
片剂
rived
lifestyle
易碎
mystery
prototype
草皮
气源
鞋业
cop
轻而易举
往昔
菊花茶
checking
requiring
埃塞
##侧
挖坑
mul
0m
adviser
桃红
associate
参股
夭
hitler
黑发
花型
西乡
javascript
狡猾
舞姿
支路
腋窝
##粪
华尔街
痢
wal
邬
甘蓝
腰围
作响
减负
春耕
kha
阵列
盛况
皋
长青
##勺
推陈出新
义诊
模数
交换器
鲜亮
缸体
砍伐
热敏
killer
梧
mice
议事
花鸟画
蛹
两省
url
刘氏
连用
封存
378
出过
missouri
接合
受苦
designer
开在
ジ
鱼腥草
##绵
金矿
紫微
苋菜
disappointed
射箭
organisation
果果
curious
cam
##董
病魔
关键点
##匪
滦
宗师
##ab
shocked
天高
胃液
吸水性
档案馆
理清
泥巴
门扇
观澜
投保人
哈里
测管
中新社
sentenced
削皮
##檀
花絮
344
弱电
沉静
冉冉
泌
未果
保量
雷神
singapore
stewart
一座座
##ssa
fra
正常值
清点
分型
mask
445
414
党旗
##鲨
5ml
一无所有
##夷
1916
insight
金门
联合体
hrc
各镇
##庐
地平
雷军
##蝉
戏份
突击队
设计者
药典
##酶
赤道
炎帝
张明
concepts
投递
retain
轮番
斟
捎
双头
##赃
##鲸
余次
sab
occurs
异国
lincoln
346
首部
掺杂
星期日
##酷
延展
上篮
比比皆是
惊慌
雇员
正阳
8cm
渚
黄桃
##认
##yu
4th
tel
叫醒
マ
二宝
蛊
##痰
twist
柴火
猪皮
风门
罗伯特
##ale
铀
sponsor
肾经
招手
走吧
后座
得利
共度
##烦
黍
结肠癌
陡坡
整装
10m
恃
大怒
数显
三遍
sheriff
玉帝
crossing
##卧
##试
暗藏
池中
姑苏
输入法
superior
杜牧
ranging
何人
田家
reserved
大小姐
提防
谷雨
失禁
##纵
细胞膜
敬爱
##对
福鼎
ille
畏寒
dual
蝉联
软包
sho
干涸
convenie
池水
细辛
繁花
##炼
建厂
水边
fuck
许下
侧板
14000
笑意
献策
肛裂
740
纯化
正反
migrants
学学
密云
θ
平喘
acted
##韩
359
##耗
工字钢
底薪
遥望
门楼
四家
sacrifice
字节
无机盐
反反复复
颍
踝关节
小气
军中
税法
佛经
鲜虾
巨变
##side
用钱
##gn
cw
齐名
せ
拉稀
杀猪
asset
迟延
节度使
跑出
自助餐
dot
气量
红衣
匕首
节拍
q7
carries
下腹
硕果
甘于
太阴
呼喊
春江
镐
抽到
此方
何其
##dia
蚊香
大众化
〓
刑事诉讼法
桁架
永泰
rebel
优品
pittsburgh
雷鸣
6800
颜面
秦朝
homeless
##istic
知府
divide
忧患
水泥路
托马斯
赎
ن
iq
财气
淡薄
##gle
先驱
碑文
养眼
blocking
伤及
monster
监制
粗放
潍柴
##rc
年迈
酸甜苦辣
儋州
pci
娇小
回报率
五层
羊排
承租
λ
口香糖
放大镜
王明
嘉峪关
路由
结缔
替人
自检
生字
谢绝
波尔多
一望无际
松土
breast
sits
良品
权威性
maria
梅雨
风浪
fp
紧缩
三更
勋
锋线
q235
##霉
童趣
秋收
吃鱼
次之
blake
疏远
西关
干裂
元首
100000
warner
琢
拐杖
instances
参编
镇区
panic
铸钢
approaches
血迹
咨
correctly
1860
荀子
想用
大德
mute
淘米
##灭
登记表
棵树
甄选
cabinet
por
病的
肠梗阻
塔吊
椎管
bulk
615
士官
整块
憨
contemporary
大别山
教书育人
bathroom
髋
脑筋
高脂肪
比丘
加法
通宵
薛之谦
乳晕
坦荡
害死
求购
ward
呜呜
插曲
冷冷
厚朴
24v
抗干扰
说谎
670
tw
无光
玄机
玛莎拉蒂
起皮
bron
roger
吹干
##嫣
##ski
dramatically
县政协
萧条
涂塑
浮漂
散打
土家
千岛湖
国服
##荆
毁掉
郎中
肠胃炎
吆喝
revolutionary
reviewed
chronic
税前
抵押权
黄蜂
encouraging
整日
滇池
阿拉斯加
doug
归属感
vm
kas
景天
主子
##丙
fer
junior
##追
郎平
1960s
太上
鼻咽癌
901
惩治
故此
射出
滑冰
nevada
真抓实干
杀伤力
持刀
食醋
油渍
鳄
长胖
适配器
dean
狐臭
px
乒乓
##朔
欺凌
行之有效
770
analysts
一心一意
witnesses
##摇
夸赞
采砂
皮衣
尾翼
黄岛
运力
杀戮
霾
钱江
两极
萤火虫
声学
永宁
6k
不治
搅拌器
ˊ
勾结
巴厘岛
直喷
只说
沉甸甸
惊心动魄
志同道合
g5
兰亭
水磨石
亭子
##ero
luke
直供
商讨
中轴线
体局
镗
成色
凝心
瘦腿
大伯
##畔
外圈
mat
喝过
荔
cott
诸位
调节器
砖瓦
##ag
组图
displayed
据称
乙型
##贾
国药
karl
15mm
不衰
强迫症
##纤
runner
入狱
deployed
碘伏
足底
山竹
宿主
永丰
南华
凹凸不平
借了
好酒
null
prompted
有别于
aims
天长
鸾
背带
音效
莱州
慰藉
gut
消毒柜
奢望
##ws
拱形
stu
备忘录
山海经
##五十
水肥
收口
inquiry
示范园
21st
认错
cheaper
惊天
##stein
10ml
护理费
##刷
上和
涯
老龄
热巴
烧香
##ses
##巡
354
屿
会晤
市井
ks
##疆
武清
植发
要道
landed
排位
##沐
基点
高邮
崇敬
468
铰
376
海南岛
大屠杀
重构
调好
肉松
脱掉
rap
谍照
##瞳
pile
炽
燥湿
##min
主动权
谷类
超重
bust
和县
新京报
tn
tale
刘玉
neighbors
printed
脊梁
strip
断绝
咖啡色
露面
行家
pri
hosts
explosion
强军
##勾
小龙女
soldier
荣光
larry
当众
拷
责怪
驱赶
桥西
柯南
丹青
entrance
黔东南
游学
hunting
##忧
##喻
胡锦涛
痈
美誉度
大波
422
保护伞
float
青瓷
侬
名茶
40mm
哈密瓜
嫂
常备
抿
张永
teeth
怨言
配额
团支部
四名
满心
七杀
行驶证
完胜
吸氧
行贿
407
选对
辛弃疾
女主人
431
##挺
字义
超群
消逝
刑期
009
榫
食管癌
身故
胆道
owns
##int
李金
##din
基面
大三
理发店
袋鼠
zhang
月度
最远
君臣
公然
##萝
胶泥
几岁
先民
减振
和顺
大中华
六中
promotion
广袤
五华
荣华
##杠
自拔
风湿病
开窍
编纂
水塘
平谷
覆土
难闻
头目
blu
手把
桩基
蛤
剪成
短片
空载
回放
炊烟
诙谐
假发
纯种
弄脏
guests
铜牌
蝴蝶结
宗谱
上虞
486
finals
##耻
epic
醉人
##ati
盐业
菌素
跳起
急性期
罗曼
von
饭馆
斩杀
tru
州委
惨败
孕吐
泾
怒火
网格化
省属
林黛玉
▪
溃烂
ل
##ome
薪金
文教
掠过
木结构
追捕
肥瘦
因公
平山
目击者
##棺
了得
汽油机
##ao
桥墩
couples
达摩
梅赛德斯
李海
##脆
黑鱼
玉米面
occasionally
环湖
衣冠
卷心菜
冰柜
defender
蛀牙
薄层
汉奸
独角兽
薄板
点钱
a6l
七座
constructed
hl
boards
slave
和气
矫情
开放性
奥氏体
永和
魄力
范本
tha
忍住
命主
相会
integrated
##购
墟
flaw
雄壮
接驳
underground
暗杀
结账
纣王
石壁
拖累
干妈
避震
绕道
仇人
1688
git
regarded
上马
硬笔
pregnant
后羿
冷却器
宁海
宫寒
沱
同龄
employers
费时
分家
seized
lessons
crystal
户数
##澳
pad
一天
interviewed
止渴
闭锁
516
ingredients
孝心
着床
##tro
minimal
杂症
caution
wb
缎
demanded
水溶
队内
##贝尔
无果
498
小家电
全包
经济师
徐汇
红糖水
冬眠
sala
替代品
多汗
托福
最重
爱豆
饺子皮
restore
定名
赶忙
##ition
牙疼
黯然
物语
violations
迥异
候车
冰镇
竭尽全力
紫云
一餐
尽心尽力
忠心
易购
又见
有约
纬度
favourite
避难
侵染
睡姿
连贯
ug
信得过
六成
启停
动情
nati
妇产
薏苡仁
铁西
发电量
peaceful
枯死
劳工
赘
目测
御用
speculation
魏无羡
嫩叶
治疗仪
问及
文摘
讲学
李自成
晶体管
kiss
初创
ghost
千亩
白眼
徽章
nelson
坡道
raid
激流
brie
老少
highlight
##魏
空袭
中分
##ato
暖胃
饭团
姜子牙
招惹
等量
挣脱
rom
##晕
stra
lesson
氯化钠
444
打气
管廊
黄岩
福地
翌年
##恺
悬臂
康乐
满城
150mm
作曲家
太晚
fires
汇合
睛
徒手
工学院
##尉
##end
prospects
菜地
高架桥
乐高
烧水
1750
tokyo
辍
原判
超跑
折算
栀子花
##腐
渔夫
ˆ
诗情画意
林芝
灵宝
charging
三场
bags
东邻
驻守
直通车
tear
##kle
赎回
bombs
泽泻
侧翻
から
可见一斑
三钱
大碍
后山
speakers
公有制
琼剧
垫层
古诗词
接替
时日
血块
肥力
殑
mel
击落
departure
头等
铣刀
煮水
##eon
微晶
腌渍
preserve
traveling
照明灯
独立性
李俊
cache
打闹
##ix
##ui
水雾
接点
至诚
离散
溶解度
㎜
退票
capitol
心急
##can
县直
brew
成果奖
韩城
下功夫
╮
隆昌
迁居
confused
isolated
罂粟
米色
p3
沉浮
暗黑
郭靖
器质性
人武部
儒学
挺立
高密
老的
##back
蹿
惨淡
##礁
阵亡
leak
shield
808
慕斯
髂
disc
佐助
想吐
羊肉串
乙酯
##维尔
膈
邸
modest
谐波
新鲜感
zl
常驻
433
那他
anne
feng
collins
丰盈
intelligent
能耐
volunteers
红砖
bacteria
##筹
四十八
羚羊
天心
基因组
射灯
上药
西林
四环
双休
酸度
wayne
中韩
道长
保级
萨尔
轴流
耐旱
绝招
发包
松子
隔天
卧位
平分
迫于
跪在
服务部
武陵
暗自
据点
伊人
闺
做题
professionals
阻挠
bang
侵略者
误诊
熟地
三十九
浆果
彼时
太宗
远山
经营户
grace
佬
各组
服输
##疹
减刑
洋气
脑细胞
窑炉
仙侠
控制性
跑路
传真
packages
haul
贝类
玩乐
痛心
柱头
##work
小脸
看车
existed
overall
峨眉
##祯
提档
牛蒡
水牛
##撒
天元
钟情
遗物
maintaining
jin
退房
深蹲
行销
几时
sher
速效
subs
张作霖
整修
黄浦
文学网
享乐
胰腺癌
黄景瑜
预习
助阵
悔恨
拖地
##供
宣教
金匮
##娴
市局
修道
谷子
温江
brutal
杰克逊
胫骨
绿松石
612
rio
带出
冷面
星云
跟贴
砖头
民乐
内皮
反腐倡廉
##似
dish
崩塌
endless
退行
rated
emotions
credits
濮
东方红
李东
凤梨
前驱
变美
jumped
criminals
飞奔
##酥
小贩
煌
裁定书
月明
香酥
套袋
受精卵
performances
碎屑
天坛
sustainable
爽脆
水运
##nm
放任
modi
凸轮轴
例假
mous
龙胆
tang
谋杀
兼容性
1350
##蛾
hamp
魔女
苗床
浸湿
##漫
fg
松茸
刘强东
苓
sponsored
treasury
春水
开市
辨识
长长
托付
全息
炮台
080
持证
行医
足不出户
##oc
治法
##凳
栖息地
拉住
oscar
刘永
传送带
wey
堤坝
唐氏
圣女
河中
robust
##佰
阵痛
数组
弄虚作假
举一反三
沙石
后半
flood
恰巧
cur
##俭
急诊科
字面
ى
运化
##ssi
制导
硬派
缺钱
纳斯
寄宿
智造
413
太慢
creature
##伙
放肆
广度

演说
ldquo
那可
desperate
皮草
kur
舌质
好歹
##伸
跌停
万般
刘国
4cm
苍翠
拮抗
广厦
花梨
体验馆
cer
不公
营养品
下意识
树形
掩埋
香樟
拆线
references
兴宁
refugee
考官
开锅
顶住
genuine
纳粹
宁乡
耐候
采茶
段位
佐证
适用性
新买
瓣膜
涉农
manhattan
洱海
图鉴
遵从
遏
telephone
之恋
gym
neil
guards
北部湾
文学奖
militants
石景山
恶人
##拼
熊熊
冰片
打牌
击打
stanley
advocate
五洲
就位
后花园
永昌
fence
翻唱
中新
理顺
白了
螺丝刀
大盘鸡
##iness
修仙
门业
风霜
汽缸
immune
integrity
侄
哆
##馅
科技馆
倒立
痛哭
下床
sauce
##ye
##汶
骇
虎牙
burst
炼钢
##oli
excuse
嗔
假性
破壁
杀入
蟠桃
摧残
布兰
山脚下
半月板
岩浆
入账
controller
一树
##浊
求医
利比亚
逐条
征途
concerning
3l
日报社
英德
度量
恬
香奈儿
城楼
沙坪坝
特拉
##ett
后侧
驯
1650
球面
无时无刻
等分
残存
交集
英烈
单间
##禧
##sha
##菇
右眼
几多
zn
杂货
鹰潭
易怒
冠名
##沁
股骨
##摊
到户
##卫东
氧化剂
系列赛
慌乱
顿挫
雉
毛囊炎
赞助商
卖萌
可操作性
圆通
记忆犹新
九成
495
纲领
方丈
lens
远望
何谓
外传
香醋
鼻祖
神志
郑国
指导性
赤芍
penn
全无
##并
放火
幽幽
##cl
不配
重置
笨重
##翻
木叶
上妆
举人
大禹
报业
终点站
临沧
chocolate
orleans
physics
配线
孝子
折服
气机
几声
福报
chaos
左眼
并拢
大省
芷
嘉禾
墙布
袖口
公允
产房
包厢
女兵
敬重
龋
camps
##cht
直击
枣树
各人
鲸鱼
418
awful
refuse
kicked
新篇章
物流园
爱奇
ρ
趴着
见闻
2023
四十二
##pher
武夷
fare
雄鹰
群星
stanford
不遗余力
必先
遨游
1024
脚本
亚目
柑桔
364
叶色
万丈
surrounded
##悠
鱼池
buried
喜乐
钟山
凌空
fluid
美男
052
矿产品
来去
∩
相框
0005
德拉
tro
大名鼎鼎
水杨酸
糖化
濠
凑合
猛地
bankrupt
外置
小径
drain
ottawa
motivated
世博
古韵
零钱
##house
胡桃
##lie
打量
momentum
张子
wto
describing
上菜
迫害
壮士
灰指甲
5200
不值
##茅
委托书
从政
丈量
白板
夹心
下架
食补
布洛芬
日本队
##弼
邀请赛
保育
大世界
厄运
床边
甲减
1k
释名
集散地
初八
wd
##涩
先期
远见
twin
境遇
倒角
豆浆机
一万多
广角
396
nar
##绅
albert
驴友
choosing
复合管
电气化
秦淮
几百万
gla
##六十
否决
绿草
隐忍
img
感应器
提货
裂隙
渗透性
前人
丈母娘
z1
##ace
通经
fei
调压
六十四
稳稳
steady
双击
vin
斯威
##停
villa
水星
cli
轻卡
geo
几道
教化
初六
划船
进深
特技
拼图
非线性
poland
海西
脑后
兴义
鱼丸
白点
##rk
censor
消费量
瑰丽
腹膜
##瞻
布尔
一绝
nat
屈光
adc
mysterious
executed
910
彪
晨练
grip
上诉状
##娣
加料
journalism
领头羊
expense
板书
扣篮
安迪
砖墙
试飞
屈膝
3700
威士忌
瓦尔
恍然大悟
ideology
##暴
生生
混合型
洗牙
arena
太古
辛辛苦苦
动动
包揽
一式
扣留
李清照
鸵鸟
直发
把头
烧坏
小黑
青训
牌楼
522
余量
yemen
悼念
五岳
##兜
kh
靖江
浮力
patrol
发卡
坐果
worship
水器
恐吓
勤勉
地市
质证
找找
golf
盐田
prompt
##ip
无耻
佛珠
arthur
«
taliban
白骨
refers
儒雅
shops
鸡鸣
stats
脱出
洋芋
国脚
风道
戴尔
濯
铺开
冬暖
dk
recession
要害
歌唱家
扫墓
结案
naoh
鲨
轴心
钻探
土特产
原唱
问好
执意
ramp
algorithm
喷发
惊呼
八千
露水
西溪
锣
五帝
塔罗
toy
诰
顶楼
并进
大刀
狭义
م
白粉
seal
谕
enforce
砰
形容词
机械式
地壳
丁宁
tian
accuracy
ily
femini
迷离
渊博
##ula
mit
fin
sti
发证
印度洋
银牌
spray
叉烧
confusion
memo
单方面
御景
沁人心脾
impose
lap
空姐
全然
removing
##ington
花菜
东道主
全草
搁置
wound
夏凉
nl
开怀
民房
澶
候选
主色调
侃
王位
止痛药
烙印
拨动
抱起
##忆
##if
瓶口
杉木
371
河段
奶制品
taxi
履约
物价局
轧制
钗
披肩
022
肴
吉兆
锁芯
讲解员
磷化
迁至
contrary
##秤
把酒
疲软
礼节
海航
恶性循环
苍山
接见
坠入
荣辱
乱用
巴菲特
##尼斯
深蓝色
壮美
繁复
保护性
differ
麻药
聚居
小松
紫光
expenses
routes
扳平
乘法
解放路
6s
设区
红岩
说了算
空灵
##饵
部曲
钧
##晔
605
点数
##ked
payer
动土
减压阀
水木
盆腔炎
给定
见面会
老树
##瀚
网通
着陆
cbc
engaging
冷柜
shore
重拳
兖州
江上
工整
mai
驼背
衡山
ate
##gu
bou
娓娓
生津止渴
pur
中行
丢人
做官
上当受骗
雨衣
千千万万
figured
喜怒哀乐
015
倘
identical
##nar
奖状
水浒
940
367
fatal
克星
分厂
新市
struggles
强盗
软体
举重
王立
卷筒
原野
菲尔
本省
##rio
##翅
如云
暂扣
宿舍楼
transformation
passenger
5d
brands
百官
打结
功利
cong
基业
贫瘠
救赎
sweat
镄
##毓
延庆
朝气蓬勃
沙棘
志愿军
网箱
拦住
protocol
兵种
压扁
外立面
叶脉
软胶囊
林书豪
胃经
巴巴
guaranteed
parker
m5
德尔
任选
胫
商业区
胶布
方格
心火
##而不
布衣
表弟
泰和
mili
叶绿素
iu
走低
徐工
acquisition
克鲁
568
颚
归功
领到
流沙
屌丝
wondering
页岩
conde
孔明
前年
北齐
灯带
分米
水培
力士
用油
河间
李易峰
语言学
全胜
operated
s9
菖蒲
赏赐
五莲
王振
阴部
奇峰
produces
汕
肉夹馍
圆桌
早衰
不伤
减法
莫非
praise
frustration
青翠
giants
rat
donors
车行
插秧
想学
ut
circuit
1280
unity
##use
接续
要强
妙用
合乎
地垫
4300
镇海
composition
敬告
住宿费
齿条
swiss
洋洋
银白色
柒
网络化
白云山
点钟
零线
stating
426
皱眉
熟睡
处死
融汇
肉瘤
终审
复诊
首屈一指
开园
冒烟
鸡蛋清
耐油
想哭
养狗
481
较之
良多
forecast
##嗣
forgotten
出让金
林间
橘皮
灰心
嫁娶
此行
百倍
ambassador
还林
container
勇者
旗杆
矾
asylum
列宁
四千
板子
517
埋线
##碗
摹
h3
1907
三根
鸡尾酒
剌
前额
碑林
狗咬
sexually
湾区
赠品
升到
排放量
优越性
稳住
该处
攻速
自成
威望
influenced
headline
牧师
羊角
淡出
施救
ε
terminal
challenged
兴衰
3k
参训
事业心
腾出
construct
刘禹锡
海苔
hol
十倍
滚烫
knock
匀速
满山
云山
比作
闯关
##绮
2x
两翼
顺位
豪爽
残暴
三三
天意
##金斯
高腰
签收
溜达
满口
置地
occasional
绅
炼油
amy
甜面酱
跳到
bombing
汗腺
乌江
永续
全身性
石蜡
educated
故曰
##day
编辑部
农技
肌理
纂
罗马尼亚
海淘
kurd
一语
南疆
村支书
胸中
cease
##len
经文
中非
哭笑不得
冒菜
abb
监事会
红褐色
修造
归去
路政
experimental
戏台
会计学
##弥
暇
##奔
足联
角化
小美
园地
歪斜
撤诉
24h
990
upload
风风雨雨
隋朝
低热
sts
佛手
骤然
内燃机
散射
单挑
欲罢不能
灵异
相如
黄体
飓风
飞驰
百人
邮报
►
盅
日文
联谊
奇遇
conversion
偃
苍术
战死
分光
##van
普宁
立冬
保肝
595
##迅
susan
##mit
眷顾
硅油
swa
菌丝
易损
表象
12g
惩
内环
##mu
妥当
起降
大姑
行吗
品名
蛋类
囊中
##三十
题写
##个
载物
051
##ras
吴王
交相辉映
质化
体育课
阿布
门卫
premium
荧屏
creator
防火墙
rice
婚恋
只管
rolled
伤疤
magnetic
##吞
梅菜
安化
382
survived
##mann
好客
委婉
福星
紫禁城
方通
校风
尼玛
健健
斐
铲车
福尼亚
洞庭湖
胸骨
roberts
辍学
murphy
梳头
操控性
早产儿
canadians
文华
engines
兰溪
怒放
患难
partial
戏称
上腹
引产
威信
乘机
equipped
大门口
hiring
下棋
杵
学时
获评
##ann
结余
男宝
同乡
起兵
鞭策
流苏
西河
薯片
能人
午休
ministers
equate
缉
##dor
rotation
孝道
animation
清晰度
12mm
subsequently
神舟
教委
兄长
╰
根除
中英
水泥厂
底端
##cies
营业厅
纸杯
hydro
snowden
内腔
桥东
润湿
长孙
冲程
1908
掌上
墨子
playstation
kin
酒香
枪械
render
##役
老友
画眉
投奔
包边
impressed
退烧药
装箱
侦
dirty
准确率
联袂
想见
三军
##ssion
熔炼
断断续续
捋
mot
旋耕
hh
函授
家产
瘪
500mm
涵洞
萼片
青豆
外挂
lte
公爵
水塔
搭桥
districts
河长
##kg
舍利
十几万
fits
鼓浪屿
洞内
看准
theater
厌烦
博越
##暖
会面
##ille
汉语言
育婴
稻米
ping
icu
茭白
控制柜
图谱
贸易商
radiation
惠安
contine
热乎
掘进
轮式
移居
compatible
光度
活塞杆
气魄
611
幽深
老屋
吉祥如意
走开
冬春
醒脑
爆红
减值
日寇
ي
攥
sau
追责
包月
##著
##骥
油罐
恢宏
438
feeding
rpg
桂冠
符文
fingers
肱
罹患
阿尔法
牛油
冤枉
ret
频段
釉面
##nta
递给
##眠
steal
家乐福
马头
重拾
##络
周家
婚事
更正
##二十
宝珠
プ
presents
climb
争端
引脚
三成
加里
jj
##榕
attending
1906
衙门
config
读本
水蜜桃
disabled
按着
曼妙
圈圈
##dic
与其说
泛黄
振幅
徐某
强心
必究
##臭
小强
孙某
贴切
##篮
音节
误认为
bre
跌至
豆腐皮
大手
李时珍
mps
373
mah
护眼
木棍
未免
曝晒
培土
juris
热毒
下决心
磨粉
斜视
editorial
荤素
监察局
jt
网孔
游刃有余
钰
operator
画室
走马
挂面
讯息
文言文
厚望
旅居
烷基
张紧
英朗
娥
variables
赶集
转化率
和中
怜悯
cod
两相
带子
斑斓
甘南
东芝
##诉
##况
513
同性恋
盖茨
轻者
西天
用电量
踩踏
烤瓷
吓坏
一具
抛丸
pink
##伶
嗡嗡
provider
##蒸
首张
globe
流质
奉化
和风
存储器
于人
柔嫩
铜线
父女
bn
黄家
黔南
黄梅
外向
nano
courtesy
表里
cole
leaked
专制
滩涂
开篇
探秘
切实可行
三张
文庙
隐秘
香附
stroke
富饶
最高分
祷告
交换机
创文
雅马哈
##醋
汽修
永川
☞
亚种
4位
展销
##栅
planes
金边
山大
楼阁
wireless
江陵
方面军
涨跌
磊
丝袜
真丝
布施
清灰
苏军
一晃
脚架
分得
半碗
392
trek
##ib
香熏
mama
摘自
##斧
##head
无益
过路
痰湿
此起彼伏
爆米花
吉尼斯
##缩
拌和
麻疹
816
##lic
安德
燃烧器
前缘
芭比
镜像
胸膜
珠峰
rdquo
狠心
painting
小指
balanced
cm3
##猿
胚芽
bun
脑病
蟾
罢工
器乐
deemed
屈曲
雨滴
小金
transmission
亲笔
替身
收腹
##卵
编成
博罗
爱笑
像极
看管
socialist
chuck
专营店
带球
泡软
豫剧
外涂
inform
直缝
置顶
保额
##phi
##呀
电阻器
鱼竿
纯朴
walter
523
龟裂
##瘤
吴越
战事
利剑
赞许
切磋
晨起
静坐
软性
江都
718
绽
戏水
汽车网
港股
raises
反手
衍生物
陈赫
谓语
浦发
煎炸
enhance
从小
大礼
红袖
游历
fails
织造
russians
邮局
开满
大兴安岭
户主
中子
##各庄
节电
奋发
小丽
叹为观止
沙地
446
想问
分身
##颤
429
prosecutor
虚荣
睡梦
兴办
花萼
高台
点睛
查理
位子
走道
thumb
短语
lh
昕
空降
清肝
cul
破灭
花木兰
皮带轮
日内瓦
mei
呃
云顶
damn
##sel
制胜
吴昕
825
板蓝根
三本
机翼
rubio
启航
稳定剂
##锭

单方
自闭症
指派
强身
gra
尿量
孤岛
大冶
gin
ideo
跳下
地委
taiwan
食道癌
##圭
##ple
腊梅
走人
楼兰
##拐
封头
西晋
入盆
长方体
偷走
混合料
花丛
四座
让利
tanks
镰
斑纹
画师
优胜
ov
伊春
杨氏
zip
粗略
双峰
遮蔽
tribute
触觉
mormon
地线
静好
朝政
余份
北仑
技改
sus
冷汗
文静
脚后跟
三无
青松
富家
压滤
连环画
quot
louisiana
逼着
金砖
导引
porn
班列
scared
小人物
名胜古迹
仙气
##拾
颓废
户部
当庭
layout
defended
sons
消费税
赊
蝎
中档
##冉
声道
竞拍
researcher
图文并茂
优生
勒布朗
九九
郭沫若
摘心
风压
简朴
被褥
恰似
内力
在中
##闷
脐橙
dg
罪魁祸首
涡流
disk
壮志
变通
小寒
仓位
伫立
云层
销路
打蛋器
联播
575
东段
经济型
technological
##赖
小本
路北
太厚
621
软烂
蛛
松原
magical
fen
flights
buffer
仄仄
烦心
劲道
精粹
腿脚
##刘
靴子
790
快捷键
migration
扣子
毓
watson
凤翔
再起
待客
attracted
四路
洗菜
多亏
被害
烧沸
大华
泊车
嘉园
镂
招致
旱地
hamas
颌
方才
贫富
加宽
章子怡
派送
recovered
##崩
bump
##亩
腺瘤
##岱
和弦
思量
脆嫩
迷雾
开箱
大出血
507
合集
东关
犀
hur
铁血
浸出
海安
中正
张春
cluster
车流量
翻看
章丘
451
集约化
shan
detention
狂犬
developments
威尔士
poster
内里
awards
中通
制程
意志力
腈
包菜
##cha
423
搀扶
##汐
文秘
##ici
一新
发起人
急切
shelter
石龙
孕囊
主控
lisa
知行
楚辞
##困
附小
水手
##ther
教书
pleasant
有礼
bases
##滤
争气
流汗
频次
结垢
消耗量
山洪
暖意
正要
destination
胸片
全家福
刀头
ronald
证言
填词
consecutive
交到
颤动
去火
猛虎
苍老
singh
豆腐干
方略
划入
打伤
金枪鱼
苍天
身家
擦伤
谐振
fal
酒酿
sgs
gtx
白莲
berkeley
幻化
fucking
小枝
阴沉
援引
进宫
token
无序
抚养权
品牌化
精深
紫荆
颅脑
452
法会
俄军
钻杆
呆呆
##锯
殡仪馆
1909
闭门
镇守
草甸
挥发油
kay
轻工业
wy
031
神经病
一色
身临其境
诧异
传神
消杀
走后
撒谎
decrease
带式
文雅
##莺
多户
query
rangers
communist
promoted
难产
##俱
搜狗
岂能
四十四
长距离
burned
偏执
南都
暗影
塔克
pipe
dive
tube
manning
老张
medicare
乐府
hack
稀奇
柜门
一惊
pres
滑翔
小鬼
##ona
篝火
后劲
宣泄
摩洛哥
荔湾
交待
扎堆
得病
旧房
1ml
三居
fre
jia
金灿灿
看台
该厂
埋头
图象
跳闸
verify
超凡
检阅
g7
uns
吃出
避光
坚挺
王丽
亲和
窗体
infection
表达式
藏传
顽固性
含笑
寥寥
土著
netherlands
凉州
收发
新气象
换季
斯大林
星海
皇城
鱼块
榨汁机
离休
逃犯
dressed
蟋蟀
人命
搪瓷
晕车
安息
苦参
hybrid
潮水
盘山
为荣
##oni
大教堂
咔
樟树
国产化
糊口
复刻
庚子
攻击性
同框
加满
marshall
锁具
荒废
注射器
道德经
宇航员
刘小
三阴
苦寒
releasing
桐城
吖
年鉴
闲聊
能说
一拖
冲服
苛
林丹
会变
嘹亮
五福
知否
无瑕
招标人
politician
o2
寰
##祠
节能灯
bugs
尽职尽责
赵匡胤
供货商
欠条
方队
乘船
电灯
白话
跨省
移除
气管炎
火药
空格
粽叶
防毒
grain
高寒
complain
keen
todd
选人
旅游节
entity
leaks
扬程
嵩
compound
vitable
搜查
lawrence
reno
cher
##批
sara
出乎意料
##kins
经不起
天眼
磅礴
杨超越
生理学
变卖
通病
evolved
胆怯
meters
机上
大亚湾
血管壁
生产型
眷属
客体
紧握
饺
猪血
柳絮
agreements
星期四
olympics
警醒
彬
儿孙
休憩
##祝
大红袍
操劳
定妆
单次
expects
有数
枯竭
##轶
周朝
起拍
腑
秧歌
别扭
入水
丁丁
transparency
拷贝
巴勒
ceiling
##湛
目视
铅酸
金凤
哗
匾额
逐级
强直性
近现代
航程
重载
households
权贵
一举两得
小炒
秋冬季
胆大
书签
谬
增资
一房
笙
462
privilege
小虎
subtle
dump
##俞
共同点
loving
火把
璎珞
崇左
几项
教子
tears
##eu
投资额
人社
来世
性激素
兔肉
年费
vary
阳刚
余户
走起
口病
1880
smt
1904
哺育
sj
市北
纹样
闯进
太紧
babies
上期
kyle
laser
##厝
提要
morris
看吧
spf
嘉奖
经年
天帝
爷们
水样
粼粼
猪猪
师姐
##涧
##rn
蛟
shocking
光洁度
米亚
半球
大肉
impacts
8位
边远
乡贤
##坂
中耕
擂
汁水
锁屏
羊皮
性腺

代数
渔具
ought
洪荒
blamed
高楼大厦
倍受
脆性
criteria
美人鱼
cure
疗养
管理区
lf
bedroom
bloomberg
concentration
进餐
咯血
cuba
一列
五环
人声
pas
壤土
耐用性
难逃
贫寒
7mm
乞讨
眶
顺从
爱民
标称
恒心
走心
##mark
泰兴
仆人
挑战性
财年
617
454
输水
389
ama
读出
丝带
度日
绷带
occasion
不单
蹴
borrow
丧事
河内
邀约
点菜
粤剧
责备
nest
笑傲
建德
野性
cats
551
乘员
肺气肿
全缘
生物碱
皇太后
良机
月圆
leap
出纳
河面
##勉
﹝
卡纸
沙门
沉淀池
黑客
宽裕
##kar
祥瑞
427
春来
中坚
白族
黑山
案板
evans
忙活
更胜一筹
tam
热电厂
有误
##炫
楚天
一平
羁
承保
rgb
##act
嘉善
衣食住行
##宵
沉沦
灯会
排头兵
兑付
多肽
yuan
红毯
低沉
天官
汽轮机
实情
中庭
涌出
ø
双桥
wel
渐进
vertical
medicaid
绵长
心腹
乳牙
非典
listing
很热
expecting
##彼
コ
政变
bh
红牛
谷底
文帝
对内
饰物
夫子
今世
##od
##叹
苦练
去壳
442
痛恨
信服
混凝
乌兰察布
榴
humor
杨浦
##泳
指示牌
草果
活到
天竺
coins
李渊
coat
玉环
explicitly
细看
卓著
合理化
糍粑
455
下马
争光
净利
世尊
##危
悲壮
robin
秩
地方性
古田
uncertainty
commissioner
大吃一惊
吊篮
##璋
西芹
沟壑
虚幻
菱角
沙参
delegates
本分
##博会
榆树
花店
几周
财会
波涛
阳朔
美艳
曲奇
汤锅
辣子鸡
金沙江
tur
精气
海子
返利
天机
一哥
居民楼
看错
鸭血
发际线
赛马
纷繁
西华
mart
福布斯
总行
##苔
##erg
保水
李广
荣誉感
粮仓
阳历
电化学
每场
良方
殉
热恋
药食
圆锥形
##bit
去腥
民情
深部
苏维埃
纪检组
自豪感
distinction
沙田
精加工
肺动脉
lucas
总编辑
峭壁
临死
抹去
##苍
换人
分会场
易行
kon
流放
温哥华
干啥
##cat
##捕
炳
偏食
胶东
##狂
volunteer
##负
弹琴
喜闻乐见
失血
武当山
庾
379
战平
dal
上百万
双拥
thr
小桥流水
沭阳
帝君
超负荷
斜阳
assess
烘箱
##gram
会意
前倾
国土局
自觉性
699
stopping
公羊
visits
天外
﹞
公证处
缝纫
自产
aaaa
飞车
公报
declaration
陀螺
菜籽油
蕃
稀罕
他汀
中国式
参选
luxury
第十八
毛尖
感染者
号位
一伙
代收
贻
凤爪
善后
埃尔
癿
南红
典藏
examined
##滴
pizza
热塑性
粉料
spy
平常心
##nation
secular
poison
炒肉
offset
manual
地缘
transferred
喇嘛
本年
conflicts
##墅
高深
水疱
海河
土里
广谱
茶楼
百元
窝点
男子汉
cooking
lighting
德甲
樽
🙏
functionality
关在
##fin
白面
厅堂
533
皂角
陋
关押
铁锈
己亥
汤料
膜片
epi
工坊
讲求
学艺
方中
resist
署名
佳丽
最低价
黑黑
民企
龙马
发射器
高阳
蛰
rosen
怠
协调性
袭人
invested
侄女
鍙
计数器
mitchell
pinterest
脚轮
alle
cru
萨拉
senators
调出
exploit
当官
虹吸
动弹
##沿
明文
莎士比亚
疏浚
门头沟
挫伤
查清
迈巴赫
mitt
凝重
桃木
##蛙
spare
兵马
investigated
微黄
atp
##400
打斗
盛入
争先恐后
豆粕
fishing
槐树
两届
##ase
anchor
侧枝
成瘾
婚外
5600
管理法
原状
澹
跋
nf
厚壁
募捐
临走
归结
餐饮店
把玩
乡风
胃胀
美容师
炒面
西邻
代夫
萝莉
西郊
游动
饭碗
敞
数一数二
交易会
到会
powder
虹口
rw
风土人情
氮化
374
466
网卡
油然而生
纵容
启辰
干燥剂
奶香
记事
\4
命案
##cast
月月
胃疼
胃肠炎
会来
题词
很晚
更衣室
##gue
何去何从
crossed
##姝
乳香
男童
622
面面
换掉
表壳
古时候
##委会
##科夫
中可
applies
野鸡
搬进
040
ر
campbell
##骁
李元
形形色色
单程
一亿
厮杀
木马
##yo
装作
布莱
民政部
跖
champions
608
金桔
凉席
风月
华贵
6cm
##坞
次级
声场
##out
温饱
别处
中英文
暗访
佚名
temple
唾
任劳任怨
风尘
shed
proportion
让座
中间体
恤
487
必杀
males
貂
门市
无端
颐和园
球状
sued
乘着
嘱
狗子
##颐
cons
韭
麦片
退市
神木
津津乐道
暴风雨
南航
无路
coo
空心菜
无氧
圆心
excess
compa
运动型
自以为是
##一十
皇太极
人杰地灵
主次
商事
正弦
喝到
苏木
朝中
法兰克福
国军
雨淋
headlines
各部
天时
影像学
光波
养好
燃起
岸线
成婚
阿克
guidance
万卷
飞瀑
##ston
嗜好
竞买
捆扎
坛子
炽热
fisher
新标准
532
留神
关了
photoshop
移门
定的
分界线
村务
reid
魂魄
豪杰
分项
手摇
准予
下凡
工笔
ses
blank
philippines
万宁
韩国队
红豆杉
vladimir
突飞猛进
influential
kickstarter
斩断
链板
dictator
前移
一生一世
晒伤
中州
老老实实
狄仁杰
证照
白蛇
九三
钢质
µ
suspicion
和大
经血
报恩
benjamin
吸吮
中水
山南
今早
多动
wisdom
小羊
张翰
结清
speeds
满园
括号
##ility
工商业
大旗
柔滑
魏晋
老李
387
地脚
麦芽糖
蒙牛
🏻
thi
机动性
立意
接吻
##消
抵押物
排水量
容许
近在咫尺
即化
补偿器
检查站
侧向
尊者
石河子
晕染
critic
农学
半空
带进
accepting
跑偏
煲仔饭
啤
tables
大花
阆中
乳品
launching
座舱
威风
lawful
930
捺
减掉
常压
蛤蟆
剖面
文艺复兴
均值
缆车
编发
热火朝天
discount
气势磅礴
牛皮纸
倒伏
天大
﹔
carrier
界线
标志牌
泪流满面
sto
g6
雪景
突袭
羞辱
合家
知母
##ella
监督员
问下
蜗杆
清冷
腐乳
种花
##妞
layers
霍建华
谨记
见长
莫雷
吹拂
exp
博尔
懿
mature
gil
定州
brandon
犹太
节选
residential
烛光
起家
电池组
油量
下穿
入冬
芮
adapt
拄
弹跳
三块
短款
##鹭
明镜
构架
岁数
自锁
##tone
白人
星期三
liberty
整平
飞出
loc
bubble
江景
双氧水
tragedy
609
0006
测控
drops
变红
trains
赤小豆
落落
##蹄
遮掩
马蜂窝
操盘
浸塑
均等
青绿
胍
吃食
荣成
从军
湿透
premiere
烯烃
玻璃窗
投行
溧阳
xxxx
哈达
身段
暴走
外延
再战
gal
whistle
腾空
逗留
林某
关键性
转印
适得其反
犯下
许诺
fiber
国米
离场
deployment
优抚
半圆形
conviction
内酯
六级
形物
photograph
鸡舍
上师
similarly
宠儿
选拔赛
嫁人
dre
种树
施压
457
一百八十
绝境
traded
minded
癖
compelling
婉约
堂堂
死掉
一枪
sil
毛毡
graphic
慈爱
交费
##襟
和美
绊
ud
佩带
玻璃体
扼
宣纸
抚育
brave
##ath
春游
polling
新编
hosting
踝
开票
马术
旺财
回血
接地线
fy
秀气
##葛
ave
5s
浮华
bass
囤积
点穴
terry
脑血栓
万起
间歇性
如山
越剧
pepper
塌方
赌债
谛
tension
全时
ber
辄
三聚
医者
萨摩
超音速
巡洋舰
calculated
##kes
杠杠
吐蕃
罗拉
到头来
网架
bother
特种兵
threshold
##ule
扎扎实实
唱起
家书
肠子
蓦然
provisions
chips
球磨机
519
炉膛
星期二
内政
不约而同
ax
成新
要回
bol
##mel
蹲下
柠檬水
夺走
corps
抗凝
郡王
606
离队
住址
法系
中轴
テ
皂苷
cle
不破
0007
激荡
宋茜
执念
令人满意
##berry
394
尾矿
assuming
天赐
老赖
食肉
炭疽
dsp
食品厂
sustained
突发性
每张
##tus
comp
西行
对角线
旅行车
米其林
绫
河长制
mothers
新机场
motivation
低档
##yard
不急
476
精干
p4
校方
mur
海豹
锌钢
平肝
总司令
丢下
卫国
广佛
甄别
钻床
对等
oxford
##达尔
萧瑟
择校
##孜
夜夜
自上而下
一吹
angel
自持
羞愧
羊肉汤
泻火
👍
触头
推选
瘸
##天下
innovative
density
folder
驱动力
##忘
名士
炭化
998
过速
正官
赣南
美股
初学
野战军
calendar
洋河
女巫
艾伦
丙肝
barry
dri
海狮
riders
长空
四款
孤寡
火速
社保局
合欢
卤素
##urs
米汤
到头
辩解
原址
王母
sham
宋词
702
名都
小国
刻字
同仁堂
医养
林州
冷缩
汶
汇丰
轴套
海选
理论与实践
residence
填缝
照看
##契
盗窃罪
激昂
keith
泰勒
米松
壑
举杯
撼
红楼
煤电
思政
潜伏期
前胸
冷弯
fifa
艺考
台商
翻越
大丰
橘色
##姗
空间站
浙商
华诞
##饱
霄
异能
龙虎
明初
稳产
奥斯
beneath
坡地
##宰
月末
马竞
キ
爆表
风向标
水嫩
binding
projected
怪怪
四万
组织者
救援队
杨贵妃
逢年过节
慕名
偏瘫
##陂
贾母
earning
四射
依偎
##附
孙杨
公信力
美国队
跌宕起伏
华晨宇
依依不舍
cops
床头柜
年轮
租客
688
王新
restric
加速器
军师
##iat
请客
一览表
乡党委
天街
trips
swedish
圆脸
同住
泉城
福山
睁眼
alberta
出山
有度
complained
投掷
aust
秀场
##垂
melbourne
玻璃胶
￣
gui
病种
横贯
取用
adoption
chamber
狂野
死因
大客户
mph
execute
beaten
答谢
镁合金
翻车
活生生
##扰
dor
认认真真
酒馆
萤
hui
远征
牵制
芭蕾舞
古建
duo
美林
至高
orientation
##芷
满腔
##暗
participating
##肺
喧哗
河湖
pel
肮脏
内装
armor
父辈
模量
1111
##tal
劳动节
legislature
于民
升压
沃土
本组
viable
取款
很冷
永葆
天师
冥想
两米
尼尔
地摊
托辊
珞
##ith
结合部
0009
隔声
中医科
quo
包浆
ш
进屋
ter
铠
力图
传唱
挨着
##淫
丑闻
mandate
oxygen
猫头鹰
衢
手扶
盐碱
黑心
reflects
拆违
挂画
不换
705
致残
sli
treating
若隐若现
fea
花丝
研习
门洞
##戟
平放
酸胀
淡黄
归档
清丽
贡品
oldest
越深
吉尔
flynn
不顾一切
画图
e5
文学院
electrical
任一
brains
贴吧
委员长
佣
一八
hawaii
starter
绥化
算出
鲜食
sche
头灯
补脑
泰坦
不坏
macro
跳蚤
运球
delayed
patriots
particles
tal
退休金
机子
京广
¿
微寒
音乐剧
住持
##乘
神气
省政协
频谱
const
面点
楚王
朱一龙
commons
弱视
铁建
南段
虎口
##pers
consists
missiles
雅诗
中交
documentation
053
调价
メ
穿线
marry
鞣酸
来潮
砖混
白城
剂子
花药
sleeping
加权
mississippi
参政
双打
##hr
绝经
年审
难能可贵
异乡
芽孢
指路
##铉
箕
jm
photographs
unfair
高高在上
beck
摔伤
radar
拉屎
标准件
抗美
##疯
游荡
感化
1903
潞
从动
赦
求知
ration
角形
古寺
开盖
rig
病机
囚禁
银元
出乎
受命
极化
小行星
晦
##御
家暴
seeks
软质
黄绿
脊柱炎
运往
行善
暗香
企划
地平线
远光灯
##伯特
丞
赶出
洞房
制高点
炉灶
配重
陈明
山花
长线
小茴香
cab
judicial
mos
弓箭
iconic
三会
dol
东阿
##缴
鸡毛
accompanied
高飞
好茶
federation
胸襟
填入
黏稠
抛光机
生生不息
收下
civilization
恢弘
n2
渔家
excessive
篱笆
贴息
不透
passionate
安全帽
mor
优待
肿瘤科
##遮
sophisticated
应纳
ambitious
##宝宝
preventing
hammer
如是说
unde
winners
长龙
哈赤
驻华
kirk
笛子
exploration
mun
美名
陈思
neighborhoods
公开课
##痣
熔接
市盈率
四季豆
近战
15cm
鄙
affects
豆皮
duration
60000
flip
453
vl
summary
凶狠
mortgage
羊肚
砝码
百叶窗
在逃
060
琴弦
chan
头颈
示威
佛家
robots
contents
¨
人车
inbox
上颌
君威
落地生根
sustain
蛔虫
富商
471
工控
##雷斯
kl
respected
新塘
存钱
mes
哗哗
阔叶
oracle
难以置信
热身赛
银保
##筑
cult
必修课
老话
为时
氤氲
杳
##拙
redis
绝妙
乌海
修理厂
文库
代驾
贝克
国税局
significance
##循环
喝奶
八戒
方寸
出库
高歌
音乐厅
写景
猪骨
中心组
721
推土机
904
闻讯
凌厉
小面
李健
精索
干扰素
受尽
cla
合页
gau
occasions
阵型
消磨
迁出
accusations
bizarre
膨
崇文
美凯龙
煞气
加尔
特长生

被套
炒房
常平
建树
viewing
鳝鱼
琼脂
磷肥
矢志
白墙
曹魏
阑
支持者
扔进
436
情志
太师
燕郊
图书室
嘶哑
汛
diss
谦逊
##曾
##贱
活体
咚
米格
地沟
##只
牵牛
革命性
逼格
teen
原形
天海
幸免
肌酐
schi
天明
1901
准备金
五十多
449
雄浑
水磨
主席团
教科
mob
spotted
川贝
乌拉圭
全球性
保送
painted
羔羊
日行
保本
叛军
possibilities
欧莱雅
mechanical
administrative
parameters
##疼
三周
黯淡
文学史
好戏
##琨
mcdonald
##攀
插管
arch
压力锅
门牙
懒散
火电
回响
417
argua
抱枕
清高
出息
丧葬
丝巾
梅林
咳痰
##汪
释怀
夹住
平头
忻
随地
克拉玛依
活水
更替
忠义
madrid
江岸
李伟
钓鱼岛
finishing
葱油
hum
生态学
leverage
陪护
棕红
刺骨
山居
150g
霖
荣膺
白起
rfid
总署
山车
郦
于其
에
肾盂
screening
##析
##建华
盛唐
祸害
生石灰
归国
克劳
直冲
意指
cleared
高德
狂奔
一物
随和
菜叶
流连
农活
控球
基团
☟
小吃店
##哀
憨厚
开料
蜂胶
聚财
凤尾
艺术性
馆内
水族
##蒜
##杖
助听器
节流
贾乃亮
六位
奋起
##九十
不以为然
##废
昂首
借给
jer
小兵
三防
臭气
快走
起价
入宅
果仁
初秋
德比
内河
李娜
悲凉
桐庐
悼
倚天
zx
393
少阳
搭设
睡到
yl
狭隘
earnings
统招
近海
immigrant
渡江
注解
机主
哌
溏
##ira
塞纳
0008
吃好
擀面杖
燃烧室
legend
545
970
穹
productivity
bearing
ros
散养
贝母
##dc
上亿
600mm
并排
箱式
converted
例会
星驰
筏
鱼骨
blend
凤阳
众创
二道
荼
nights
仙游
从重
刘伟
approve
诽谤
##薯
用气
念珠
雨棚
夺回
大龄
慰问品
普普通通
刘诗雯
specified
暴风
箔
styles
螟
925
护甲
##ensi
netanya
绝缘性
宾语
神曲
多特
hao
西里
直男
鸣叫
1680
addiction
##敢
靠边
酣
happiness
1890
照常
藏身
领口
潜江
devastating
丝状
##蚕
办税
阀杆
praised
肉汤
剖宫产
钨钢
制取
广陵
挨打
sentiment
汪洋
截留
pending
worlds
普照
##筠
存单
赫然
instrument
叮当
交底
闾
宋元
考级
陈情
391
逝者
港式
计费
##跟
空头
assists
448
学佛
日干
四十六
spider
脸谱
availability
拈
seeds
bow
中医师
seo
lions
vegan
determination
屈辱
误食
kernel
美工
##ote
骄人
海沧
##bin
良缘
佳话
水乳
骊
淀
好色
川崎
彩灯
脍炙人口
仁慈
决不能
单宁
从天而降
panels
审计局
가
舆情
睫毛膏
##习
洗刷
初四
球拍
列席
kate
驱散
##yer
observe
技术性
阴历
观景台
bai
追施
生产率
刘翔
libraries
船体
玄奘
快餐店
李天
排忧解难
ferguson
清炒
露地
鼠年
低声
上分
挡位
每块
绝顶
双塔
一气呵成
病原菌
1902
horrible
强酸
郭艾伦
有罪
藏红花
摆渡
写明
419
失传
##盗
禽流感
天骄
##添
次生
青阳
粗心
南明
呼吸机
票务
appearing
馅儿
警觉
唯物
火源
道义
scha
几许
用意
倒逼
风姿
分到
##靴
祸福
人教
春意
芡
honey
黄泉
平平安安
阴离子
不累
interactions
裳
混用
淘金
排挤
官窑
西京
遥遥领先
四十一
三部
路南
制表
藏家
学术界
忐忑
必修
freeze
翻盘
定语
鱼刺
手工艺
破烂
相拥
于是乎
大秀
operators
跑鞋
harvest
萧萧
幽香
batch
##桦
crown
meets
衰败
壮烈
advised
二小
kara
gran
罚单
域名
alike
sor
混混
##伽
startup
两节
打样
星月
sail
灰姑娘
和蔼
木桶
combine
西米
摊贩
eagles
第几
##吕
立身
九里
多才多艺
hiding
bris
亡国
gre
渔村
炀帝
300g
邻家
松花江
不在话下
迷糊
独山
诉讼费
腰果
伙同
李佳
水清
drunk
多国
intensity
冷藏室
文峰
伴娘
积存
载明
嚷
继承权
点状
藏匿
一块儿
675
模拟器
鲁国
668
松香
小动作
云烟
咳喘
再下
深井
蒸鱼
映照
abcd
猛兽
0002
四十七
灰褐色
¹
绕线
掉下
变薄
冥冥
浮球
山崖
ubuntu
治愈率
filing
虱
tissue
collecting
##耐
学园
贪心
暴利
弹射
印第安
判罚
四线
八部
二批
工薪
久病
禧
嘱托
50ml
买票
bart
掖
乳化剂
救国
篷
前路
environments
破伤风
熨
流线型
barcelona
加粗
稀释剂
花架
不粘锅
常会
滔滔
含水
猫眼
疟疾
江口
##投
dear
外耳道
借力
##iel
争抢
零散
内应
李大
缘起
天长地久
风铃
帕克
浅黄色
##羹
款款
吹牛
海东
德清
一百六十
灌区
活儿
原色
fraction
声光
酥油
巴林
靠墙
接穗
##light
判别
对半
暗红色
678
dip
领养
日积月累
色彩斑斓
粘着
publisher
冲剂
晖
晋剧
难治
复垦
胃寒
正派
鱼油
高平
孔内
无望
病态
五楼
dakota
棍子
学而
啪啪
预祝
网联
踮
矿床
许昕
zw
防务
绿荫
次卧
吴忠
艾尔
三节
假面
托架
七律
抗力
枭
存档
细度
抓取
##fu
一件件
424
措手不及
leaf
吱
法子
##奏
解码
solved
砌体
取穴
sizes
壮举
气馁
潴留
车马
kerry
mas
闲适
25g
花园里
accomplish
神雕
说服力
贴现
刮风
养蜂
肥皂水
临清
sequel
##ret
扶助
列强
转债
兰蔻
铭牌
川渝
断肠
displays
小平
妖妖
何事
热土
cock
cohen
separated
倒挂
压着
中队长
我行
日线
barrel
下步
受寒
questioning
晋书
同性
装饰板
肉苁蓉
sphere
责编
隐痛
外教
transparent
三伏天
h9
dealt
傣
revenues
格里
家和
designated
bare
大都会
国货
扫除
受罪
陈毅
本县
danny
交易量
女皇
砖厂
preview
冯绍峰
莱茵
旳
高高兴兴
火神
捂住
和合
yahoo
脚心
streak
忌用
霜降
不复存在
鲶鱼
大港
节前
南大
##uc
峭
##七十
原图
张丽
##墓
碎花
新芽
门套
衣衫
牢靠
##之地
阐
云平台
sx
##蔓
后跟
佛学
##bble
##埃
心肌炎
翠竹
##ae
益精
棋手
未遂
电线杆
烟头
华佗
喊话
倒退
德化
翘起
sect
横店
唐家
配种
光景
寒食
805
惊动
资格赛
彤
uncomfortable
末世
murdered
红树林
太冷
启东
凋谢
vaccine
周旋
parks
##ax
饰板
宽窄
职守
两户
业务部
正餐
##ese
生命值
prayer
巴拿马
50cm
水发
中奖
pregnancy
bas
v5
李现
coupe
流落
从古至今
断生
场站
负债率
巴氏
固本
加氢
白鹿
所愿
小东西
私信
chemicals
250g
嘉陵江
增发
王府井
scratch
三处
稼
美轮美奂
拍手
真如
修正案
裱花
倡议书
阀座
##nda
园中
落地窗
艾条
硕果累累
mann
乘凉
诸事
themes
bak
enterprise
边线
噎
##徐
##珏
合生
镇村
孟浩然
阿婆
迁都
reflected
北段
一幕幕
九日
插槽
回奶
参差
翳
自我批评
douglas
rewards
拗
爱德华
荆芥
直白
partially
华硕
秘境
登封
总装
硝化
commands
依恋
清空
进水口
喂料
拔尖
老娘
玉带
printing
诱饵
##遍
013
佟丽娅
王洪
浙大
屈伸
东台
毒物
明兰
buzz
trauma
##炯
炬
531
不雅
60g
一步一个脚印
rum
##午
李云
reminder
望月
成功者
冻伤
616
charlotte
供电局
油桃
散瘀
ecu
暖阳
464
暗黄
王凯
四代
冰棍
打消
海阳
面饼
那首
employer
nia
拌面
珂
licensed
子午
骨关节
不致
小脚
眼眸
hacking
髻
addressing
乐章
##遥
rivals
佘
##sch
爽朗
##鸥
婷婷
冰点
¤
##sey
沪指
wikipedia
055
酒糟
을
抽空
引擎盖
丹皮
585
身长
五常
装逼
钢球
氨水
延展性
coordinator
襄樊
灌输
出站
催收
盾牌
房前
裁切
两间
区段
第一卷
##izing
赢利
雷凌
东岳
摩天
wore
quan
歌坛
斗牛
structural
halt
勤学
海纳
李成
christianity
板房
河堤
有损
一程
东欧
竹海
好心人
builds
pricing
##买
complexity
二郎
大床
preparation
colo
输油
训练场
五中
市属
团结一致
朱某
切菜
洞天
半勺
打猎
hostile
落脚点
吃素
留校
曹雪芹
酸辣粉
郁结
秦腔
酵
奥德赛
爱问
##worth
预判
reply
还差
shooter
普拉
capitalist
明堂
冲撞
条幅
台前
字头
courses
##zu
蜗轮
满面
广告语
击毙
池子
大计
##sive
伸向
edited
学界
mill
对华
学部
backer
失水
芹
应征
分蘖
##lor
牧羊犬
古往今来
主产区
解郁
战法
绝壁
稷
小刘
##cer
h7
pressed
神医
tai
补丁
中南海
845
maine
##邮
调节剂
咽痛
集中度
信封
509
##梗
刚强
牛人
二万
随处
exploring
铜像
玉竹
无糖
跨海
汝州
瓦解
杨文
热气腾腾
武学
北戴河
雪球
newsletters
艾斯
trace
deb
开课
##潜
精力充沛
挤塑
宇智波
校领导
对错
刮目相看
pension
死活
鸡皮
董事局
无赖
枯枝
春分
脾脏
摄食
و
致病菌
皇甫
hearts
attorneys
全明
##遣
朽
serial
巴马
大金
尺子
头饰
发条
##崽
写诗
推倒
制版
caps
奥拉
心如
就绪
觉察
咎
cord
铁丝网
闯荡
深蓝
大中小
oliver
飘零
distant
心安
瞻仰
柳林
书友
故城
州长
璟
subscription
##bc
##伐
眼睁睁
##lar
##腊
remembe
善款
千斤
喇
出外
celebrated
关东
598
马鞍
沦落
delete
心力
对地
神功
婚车
引人入胜
守信用
湿法
咫尺
##驿
鸟鸣
学习者
##cent
sink
唐人
笔触
indication
陆上
reflection
trim
##rin
网球场
四号
停牌
乐居
山海关
##car
newspapers
鲜红色
合婚
太郎
guided
大果
foster
monte
野战
competitors
##夫人
⑷
寂寥
庆生
销售商
斯文
收藏品
僵局
生产性
≈
audit
##nch
1150
vague
notorious
跳过
金莲
炊
支队长
venezuela
浮夸
编入
tyler
franklin
东起
##赤
scrutiny
anticipated
cre
痛感
completion
节油
王刚
departments
首战
推进器
deserves
任正非
机件
limitations
簇拥
ethical
##盼
quietly
confirmation
arrests
clever
独占
点阵
病重
咬人
duties
补铁
陇西
四句
ugly
猜猜
铃铛
龙人
制式
急急
贵公司
骨刺
无休
常山
quebec
suggestions
鹰眼
鄱阳湖
installation
greed
##ott
七绝
四十九
explosive
电焊机
jf
不如说
expose
开标
外企
易患
活动房
老舍
qualify
src
简练
主战
一塌糊涂
难熬
filling
房颤
仿木
五成
5612
虾肉
磕碰
惠东
对讲机
##ung
九十九
tpu
焦糖
西蒙
插孔
潼关
兵部
北湖
顺眼
运会
十指
真言
包膜
鸡眼
1234
保修期
bears
查尔斯
eve
kr
难耐
壁上
心想事成
砍价
管辖权
不乱
仁寿
799
l3
蒙上
honour
肠癌
垂柳
仿生
龙宫
10th
分度
jie
单行
哀伤
香醇
buyers
lone
莱西
建功
望城
胡某
##氯
米尔
毛泽东思想
火种
本源
cin
学法
现时
##llo
红人
入海
hurricane
青花瓷
用功
template
##tory
割据
贪吃
追到
madison
土豆泥
废钢
歉意
炖汤
公尺
封盖
ethics
直饮
音译
洗洗
姜黄
ink
bath
cambridge
洪湖
方药
补习
篮下
火场
disclosure
可期
##ugh
女鞋
劳力士
无可厚非
致癌物
relatives
##给
397
1220
麾下
面片
磨光
雁塔
裱
黑龙
lac
发根
天主
魅蓝
spike
一百四十
bones
展露
标尺
韩语
transcript
十强
查体
蔗
禀赋
倒映
重头戏
##杭
514
##las
行路
花旦
速写
零担
免疫性
macd
az
厝
验血
483
发稿
凯文
565
严管
妞妞
##誓
催芽
##茵
jake
sle
archive
rei
老姜
actress
清亮
临潼
流光
元和
大和
米高
廊道
hindu
辣条
激素类
张德
\5
惩处
侗
对白
雷同
姜蒜
氨氮
硝基
##ication
铝制
玩弄
悬赏
超导
假象
云梦
一指
包装箱
滚刀
##ware
抗静电
肺经
tobacco
始终如一
observation
##各
摁
零花钱
躁动
瓯
称职
nv
边沿
盾构
罔
易拉罐
美瞳
狗年
pledge
女孩儿
惯用
校花
鹤山
七言
海洛因
嫩嫩
##岁
南岳
一成不变
焦化
抚平
于谦
冰封
狗血
demonstration
庆贺
晚辈
peg
常客
火鸡
auction
九阳
主战场
turner
mus
次第
口福
井口
buffalo
无理
宗族
账务
##嘎
##oon
870
篆书
竹炭
锦觅
焊工
陆陆
打火
破坏性
abbott
煮汤
农牧业
一块块
羊群
缸盖
七宝
rn
征管
边区
豆干
麻城
sword
蹇
gradually
generous
响彻
韶山
油液
奋发有为
喀斯特
表征
trash
掳
铁线
胆量
羽翼
537
四口
焦油
划破
weed
2024
##丞
pursuit
向善
河豚
文采
杂音
honda
delivering
异构
拌饭
白嫩
观致
色温
下风
rub
commentary
지
adaptation
ensuring
招摇
钦佩
作证
发财树
欢庆
横线
大举
生境
不堪设想
婆娑
面朝
中餐厅
mechanisms
张天
良田
筝
上城
曳
黑化
screens
渴求
detained
##狄
应答
##ates
听证
远志
带兵
布雷
古堡
地磅
computing
山麓
革命家
singing
##qui
充电站
冲锋枪
钎
disappeared
龙卷风
几倍
lined
1060
纷飞
aging
倒置
版主
南麓
泼墨
雷州
极板
pressing
反胃
针织衫
解围
课前
张店
##ili
##aw
接警
不一会
rage
acquire
小头
附着物
卷子
中文版
斟酌
bonds
鲁西
各校
涿州
免于
laptop
lia
皇族
replacing
笑语
玫
蛇口
地表水
城隍庙
开凿
拾遗
浦口
grants
迂回
怔
身披
竞品
上河
gl8
iso14001
指腹
杨晓
耳光
venue
瓦片
化湿
红遍
衣橱
竞争者
violated
##措
验光
勾兑
减肥法
萎
##迦
##lea
牡丹花
亚光
verizon
罗列
ers
创世
大饼
pok
flower
lag
荧幕
水平面
yours
芳心
耿直
黄忠
align
自汗
眼病
西段
skip
debates
清洁工
雷声
536
粉蒸肉
贴牌
成渝
unf
realm
水冲
初九
t6
杠铃
tragic
几场
黔西南
##肘
作废
简章
countless
重申
煤业
发布者
摊主
期许
矽
豉油
证候
2w
视感
妒
去年底
evaluation
1450
闭幕式
蛋白尿
物管
曦
专委会
群臣
氢化
##fy
投影机
advertisements
公德
肥城
comply
赏月
examination
##家庄
大功告成
回头率
rogers
friendship
分子式
悠远
十字架
南苑
峨
容重
珑
drinks
中心校
男星
##fo
禁不住
如烟
人面
##订
mcconnell
essay
颌骨
磨机
439
夜雨
涂覆
彩电
豁免
聚集地
事业有成
疟
蜥蜴
印刷品
公有
朝霞
拱门
酸碱度
棒子
大智慧
淮阴
瞧不起
蹈
号令
x4
翻过
沾水
witnessed
观感
##八十
电击
博山
permitted
loyal
独享
##痹
台中
钱塘
scroll
出狱
达克
枫树
九百
矫治
弄到
寥
变暖
磨炼
小二
文娱
艺品
邓州
纪要
套现
highlighted
##晏
##hem
bounce
大四
visa
蓼
戚薇
070
西临
大嫂
rein
纸片
普外科
陈伟霆
控制权
如歌
肝郁
瑞风
慢速
a9
要约
faculty
每期
有轨
社稷
缠着
离谱
床铺
含税
凉意
师弟
大观园
四通
石灰岩
剪辑
equity
名品
indians
hin
蒙特
宣化
深信
秘书处
黑帮
箩筐
求索
张嘴
安泰
斯坦福
藿
1l
管住
寻访
长丰
##馍
海蜇
依山傍水
rad
属下
pakistani
璞
严控
飞了
##ada
利税
吊柜
cou
494
恶毒
杜邦
##tors
难堪
imagination
johnny
义气
包里
reception
5th
##ug
感伤
练习生
nigeria
逐项
动脉瘤
assured
林彪
banner
商厦
absurd
1440
浅谈
灰白
##ges
高领
醒酒
敌对
填充物
支票
하
小满
流线
密林
annually
窑洞
多套
纸浆
接触面
为伴
zf
beef
读书人
vent
美体
宝龙
##over
株距
验方
四十三
和善
悬浮物
五号
tablet
蓟
leon
对比度
出价
973
农牧民
skilled
医改
不计其数
围护
连江
混战
glc
郡主
延禧
色度
购买力
妇女节
grateful
archi
戈登
海德
nas
玉米油
ps4
意气
高尔基
1550
##ado
针线
即食
阵发性
围裙
竖立
appointment
选民
缕缕
上风
arctic
懵
纵横交错
承兑
桥式
武安
朝鲜族
反应堆
romantic
枳壳
##ched
途乐
思乡
##骑
海内
##懂
送餐
##play
牙周炎
〃
‖
unlock
常理
菟丝子
立业
gmt
彼得堡
长石
探针
bab
dra
爆胎
路易斯
足矣
christie
百花齐放
直隶
グ
035
撤出
快步
高质
京九
玉露
酒体
新一
##泣
##ord
十字绣
上完
dict
quantum
stunning
apt
seventh
槛
肉香
土楼
##ume
526
mixture
骨头汤
王春
走秀
松林
processor
##gate
shine
洼地
让行
指挥员
句容
噼
水浴
腰酸背痛
黑烟
剥削
螺旋桨
expend
mort
##钓
##lis
羊羔
吓死
shower
瑾
母亲河
磺胺
暖色
drafted
mounted
兰黛
大s
lion
honestly
60mm
##ake
pretend
大抵
苍苍
指正
lynch
fame
iot
大手笔
省城
禹州
电磁铁
侠客
agriculture
circles
甘泉
mum
msn
好使
suitable
盘根
##3;
受访者
见红
电流表
煤层
抗皱
指战员
议价
kk
仙草
ю
游侠
嬉
4100
坐等
ami
金昌
ple
tampa

雪松
##藩
##酮
偏少
箱梁
肉厚
南端
478
永年
彩排
修成
李云龙
泵送
手印
土星
蜀国
ufo
645
百多
kp
先行者
维克
没电
护城河
supporter
励磁
佛光
τ
jennifer
spur
##nit
插接
治学
besides
613
落空
待产
佛门
pai
804
吸热
suggestion
##燃
麸
目赤
添彩
李红
出气
唐三
忘我
供稿
库尔勒
东安
大悲
534
左路
网游
463
眼压
勤俭
病理学
混血
472
alice
藤蔓
##ders
ュ
差速器
酸中毒
供认不讳
996
才女
弄清
来华
嫁妆
上加
难为
塔楼
ears
##旻
prevented
20m
灰暗
mist
fascinating
火光
入微
imf
stressed
招数
##tation
非正常
好累
1840
五十六
之乐
错综复杂
tfboys
fusion
勿忘
嘲
城里人
先贤
公募
拼盘
comm
##mis
5700
mountains
云阳
公仔
快车道
逃过
##衷
皮包
溺爱
如许
驱寒
oz
噱头
淡紫
节律
续续
该死
ub
张新
##8;
##洙
relax
果敢
卡卡
铺路
陈玉
楼台
镖
rv
于清
斑斑
outbreak
李秀
竞技场
围城
系带
安达
556
655
王东
物流业
钥
脆脆
遛
自省
##稀
trucks
天佑
434
直插
正装
野人
井然有序
标本兼治
和煦
密密
正午
测速
摘掉
窈窕
naked
火苗
高声
耐人寻味
固原
抗磨
harvey
赶路
不要脸
村主任
0004
538
treasure
避风
种质
longest
破败
reactions
雅苑
腔体
architect
分界
arkan
##ban
偕
口音
外销
capability
玛雅
心计
disturbing
计谋
##ros
琼海
##漂
juice
之三
fork
端坐
marcus
英美
省立
愧
发行量
脚丫
时年
drones
帐号
考辛斯
惊悚
扣板
蓝蓝
戒掉
播放器
中泰
humanitarian
逼人
市里
采食
flew
冷笑
bundle
擦掉
哭得
瓶身
##昀
清清楚楚
料器
捡拾
左岸
水分子
射流
教务
伯乐
蚩尤
经管
着力点
汇票
断线
cs75
买进
observations
老祖宗
缺一不可
protections
噗
##厨
三焦
##ole
汾酒
stre
2h
nou
##蓓
舞曲
到校
低空
拿钱
干贝
胸椎
王军
片材
状物
概算
暗夜
烟酸
猪舍
不哭
1b
漫山遍野
典当
##nel
非营利
集团化
长此以往
一江
hier
581
在编
助人为乐
工程车
糖粉
根本性
蚊帐
鹅蛋
惟妙惟肖
无缘无故
mlb
f5
钱塘江
##撞
equation
pray
试件
妨害
advocacy
鱼尾
贫苦
blown
笨拙
来来
农具
伺机
心里话
##瓦尔
造景
后脑勺
静压
结构钢
altogether
三清
足疗
directors
拟人
亲历
洞中
trap
摊点
prec
uhmw
恒压
tunnel
生母
吊架
生物化学
黎族
阿拉善
指使
专攻
繁盛
小南
锄头
球球
三味
고
traveled
sei
主楼
服食
追星
亭亭玉立
剪断
选区
三子
新河
招商局
##屹
成仙
失火
事态
elsa
国事
牛杂
激怒
米勒
俯卧
更迭
冻害
湖景
铺天盖地
fancy
黄渤
摇摇头
旭日
林荫
安分
牙周
分株
珍珠岩
花季
扫把
自大
高升
单亲
michelle
团市委
acceptance
开垦
礼部
weiss
膨润
独唱
##nti
罐装
都匀
celebration
kpa
京华
479
检视
不露
钜
ョ
ccc
按理说
怒气
迎新
##aro
rocks
途昂
蛇咬
三局
偈
历尽
座右铭
扛着
夏普
五脏六腑
黄泥
compliance
##ef
trudeau
赵文
转出
查办
顶盖
分列
苍生
锂电
筑梦
重复性
沿路
冼
皎洁
##vity
ani
泡澡
elaborate
头枕
白费
##via
火化
区区
沣
村人
花旗
switzerland
毒死
animated
啉
裂解
palm
4d
806
dose
##嵩
甸
榨油机
曹植
##舅
操守
accomplished
员外
一而再
五子
翡
敬献
鸡肋
难吃
电波
摩崖
陨
三届
crops
马某
雷击
suspicious
墨绿色
主创
男团
可见光
涎
35mm
神山
highway
维特
554
historically
微分
课改
匣
六朝
厮
▅
insure
青衣
492
##巨
529
大牛
576
复赛
面盆
趁早
易感
海龟
吊牌
领主
羊城
##履
特钢
不相
定海
currencies
青皮
夜行
686
中法
渔港
abstract
##昏
雷公
相称
调取
临危
杨国
prescription
##tric
只身
美腿
相公
料仓
歪歪
adjusted
毛细管
哑巴
入心
背书
##ees
土豆片
枫林
原籍
satisfied
光栅
织女
良渚
0003
1898
鲫
慕名而来
mandatory
新北
tat
presuma
初七
沙丘
初冬
npr
桑树
chronicle
shou
##ified
总厂
工程部
纹绣
上铺
藏区
灯谜
understands
花岗石
多见
##tr
救火
大板
##维斯
会师
受让
##sty
大暴雨
devoted
大排档
排到
明治
书局
两口
##罕
##碳
江面
revealing
无趣
华严
a4l
沉积物
显色
巴南
##据
gallery
设防
##君子
拔地而起
身患
晾衣架
操作性
正轨
evaluate
yun
搞怪
f7
驰援
thu
储物柜
欣欣向荣
砧
上进心
晚点
孙策
vacation
applying
crude
527
情仇
##dd
stomach
艳阳
辅导班
brady
恳请
木薯
石鼓
水湿
巴特勒
四起
样貌
能到
w1
赫赫
阅卷
entities
牙根
诣
足月
渝中
邳州
范仲淹
人形
b2b
等闲
mechanics
电冰箱
fastest
下海
大蛇
emerge
凤姐
illusion
禽兽
雪上加霜
全盘
bout
鲜为人知
耳垂
穆里尼奥
482
快件
nut
滨水
##泓
sensor
好闻
摊铺
窗框
##ort
岩土
险种
胸围
635
增氧
佛塔
沉没
面谈
神经根
会心
简阳
文人墨客
校友会
近处
杀敌
小西
山阳
sed
勤务
打药
敝
insane
铜奖
石英石
双拼
567
感恩节
交割
##曜
autono
庐江
assumption
文胸
英军
斯塔
同一天
pays
绵软
achievement
相提并论
研修班
蜜月
信道
##澈
满洲
##雍
clinic
坐标系
幸存者
文成
685
沦
看样子
##建国
临淄
exo
交点
春笋
rifle
大户型
两首
手榴弹
共处
相中
バ
几本
鸡西
##tage
房事
ify

检测器
字幕
收容
逞
多尔
热菜
滑膜炎
一尺
勤俭节约
兴高采烈
羚
vector
联姻
欢心
生存率
激增
春晖
肘关节
柏树
客家人
下压
encies
咖啡豆
相仿
breakfast
豆腐脑
卧底
suck
psycho
勾践
埔
朝圣
明灯
荣盛
护盾
李长
政工
佳兆业
心法
gally
##ption
恶寒
461
##闯
手指头
幼时
贾宝玉
不学
jets
横道
分切
敲诈勒索
##赵
##7;

striker
阑珊
冷水机
死皮
jul
##鸦
##苷
莴苣
edu
泰禾
蒙古国
颈动脉
饕餮
远航
建设性
ミ
学以致用
暴发
娴
imp
543
英式
##osa
东丽
priest
调光
boundaries
邻国
尚且
heaven
硬核
隔阂
abandon
lease
国四
6at
酷热
亮色
placing
出谋划策
演奏家
政事
midfielder
涂胶
邓肯
拉美
##ast
红石
山岭
##ivity
##萧
牛粪
领奖
女工
五路
一格
剃须刀
丝绒
伐木
运管
美孚
峙
命格
玫瑰金
萦
张立
水平线
推手
限值
hen
绿地率
该店
半价
闹市
aq
##掩
convey
近视眼
跑者
诲
##dan
冷拔
客串
sciences
一辈
修辞
补缺
胎位
浩然
tutorial
##豚
盔甲
拟建
irs
9500
千变万化
常为
##nis
先吃
768
盆子
铝塑
lean
书画展
做作
diamond
讲坛
周庄
源流
凉开水
双全
周至
发怒
筷
亮亮
叫好
繁荣昌盛
跋涉
跑男
活活
得道
frustrated
ned
月季花
交通部
侦办
jefferson
飞越
大话
消火栓
投影仪
##储
圆角
新港
笔尖
resume
小城市
835
威廉姆斯
大肠癌
土生土长
scary
audien
spo
lar
轮滑
小节
劲头
##lands
贤惠
离心力
陂
strongest
康宁
内亚
clash
转播
反潜
夭折
flexible
dea
步行者
rous
tz
史册
casting
controlling
意犹未尽
623
wrapped
恶搞
473
出口量
悔改
中南部
nathan
扈
华联
##螨
焊锡
认定书
##ova
娟
画报
显白
炙甘草
emer
denial
超然
##懒
蟾蜍
烈焰
剑客
scholars
成真
mason
##旨
##yan
专业户
cancel
兰山
##cious
给钱
边锋
凛冽
交流电
博古
青羊
胶粘
尽善尽美
puzzle
莱昂纳德
超好
李雪
龙海
三首
expertise
safer
骨性
审慎
一瞬
闹事
真香
手软
啧啧
银座
社科院
紫红
约克
徐家
阿卡
planets
bind
651
alternate
三棱
内需
##痴
composed
套数
男足
卤味
dare
迩
商旅
私利
的对
收盘价
延吉
集贸
外景
substitute
虹膜
炭火
monetary
来生
莫不
乱了
驻军
抗渗
disappear
conservation
芈
gy
乙醚
沉入
operational
bba
亚油酸
性行为
甲硝唑
timeline
西村
一统
467
抢手
琼瑶
strain
bv
继母
拼了
奥尔
厚街
杨戬
视同
524
咕咕
起效
抗辩
breed
车船
福安
quarters
quotes
oriented
立减
pioneer
钩子
顶多
水墨画
硬物
晶粒
外甥
前庭
愚昧
不孝
787
虚线
juan
放映
infected
jessica
诗作
547
brt
致人
话音
联控
宣威
gad
畸
扬言
546
大安
mala
##丫
戏骨
程式
零时
ww
金球
活佛
琐
工场
旅游者
yj
停停
台币
孜孜不倦
煤化工
咚咚
冬青
declare
见方
鲜甜
园子
坠毁
殖
辟谣
leo
连续剧
信用社
武神
宣传单
四件
面颊
交易额
施治
喷灌
端头
雪峰
多美
合川
李世
尼古丁
七成
可食
##key
高利贷
服帖
worn
##骗
终归
查证
高纯
汐
平板车
viral
tenure
受挫
上钩
747
铝扣板
岛内
##伯格
所作所为
镊子
人工费
agricultural
升空
伶俐
自由度
zones
耶和华
##吹
lesbian
responding
bradley
##4;
咖啡店
二轮
铁甲
亚泰
花卷
meter
experiencing
dash
吊钩
主唱
floating
investing
roth
乌兹别克
试听
tcp
料子
632
##吊
tele
搁浅
itunes
562
##logical
科鲁兹
##旁
截断
一传
➕
行径
鸡年
满清
难以忘怀
乘务员
##ological
冻疮
slo
黑猫
长颈鹿
大鼓
文博
湿布
奥妙
东郊
9mm
之书
respective
潮人
张拉
conclusions
伺
百鸟
衍生品
杨桃
采伐
##kov
明玉
intend
热胀
永辉
##髓
挂果
气韵
丰润
斗式
##gio
管理器
肌力
冬菇
spreading
龙川
##殇
enjoying
脸皮

禁锢
moto
勤勤恳恳
西子
自编
么么
年夜
penalties
##垒
九龙坡
20190
558
物权法
牡
锑
美滋滋
阻击
印堂
卤菜
regulate
水渠
叫卖
弯折
博瑞
##6;
陈乔恩
朝拜
食伤
pictured
新昌
columbus
发面
炉甘石
力不从心
旺夫
dnc
folk
特等奖
operates
lifted
saints
炮塔
女声
借机
夫君
放牛
迁就
系辞
热稳定性
史前
contributing
新鲜事
469
gan
mack
m8
煮制
ico
斤斤计较
内疚
养猪场
交涉
##mes
烧心
sbs
slice
##昔
株型
李煜
##焱
风儿
孕激素
土路
独居
sou
比萨
##log
归化
puerto
浪子
负债表
蜜桃
熔断器
保重
李强
起义军
司法部
盖世
揭幕
rachel
beam
贵妇
选题
治标
万山
生产厂
eos
淡漠
永城
红日
旖旎
惊蛰
gaining
四只
stin
cm2
千篇一律
573
百合花
南邻
教徒
doctrine
科考
联队
毒气
紫阳
heritage
暂时性
古国
热转印
ency
604
祂
闭眼
代销
polo
双肩
spr
##nity
存折
天仙
cultures
小资
雷阵雨
红素
626
造谣
喝下
hike
离岸
旗号
奶爸
求教
啶
五更
identification
康定
本片
弛
高差
p9
municipal
蜜枣
历历在目
显性
拇
石阶
探明
laura
学龄
鱼种
故土
切莫
##抹
打呼噜
ppr
表露
desired
落马
倭
##bre
##茬
刀剑
塔尔
shirts
通灵
ras
竞聘
三伏
屁屁
山腰
rou
家业
常食
optimistic
新进
xd
历城
##tv
lang
吴兴
directions
秧苗
每班
##磷
惊魂
狸
刘恺威
佛说
tent
枝繁叶茂
阳光城
nai
篮球架
分分
亚瑟
frozen
editing
念叨
费德勒
岩层
恩情
危化品
jokes
沙湾
田中
脉动
忿
婷
黑水
马匹
briefing
高品位
很甜
477
阈值
追逃
sq
triple
中巴
receives
classical
syn
distinguish
459
潮汐
stamp
味辛
峦
倍加
dock
瀹
712
†
##ically
李逵
难听
机长
婊
##ila
dumb
谷氨酸
一窝
两行
发物
复配
剿
541
官星
战备
无铅
单于
counties
蛋蛋
实绩
flags
紧锣密鼓
臼
伊斯
恬淡
dennis
背鳍
convenience
东大
文化园
外流
折弯机
ろ
kai
vf
如潮
富集
电导
耗资
青葱
scenar
才智
强敌
心口
类人
电钻
jamie
成双
小心谨慎
立竿见影
屡见不鲜
divorce
被俘
蟹黄
横山
金线
苦不堪言
##sp
manufacturer
吟唱
掌门
pale
浠
小新
##仰
童谣
痴心
患病率
紫罗兰
造出
温升
就学
青丝
habits
创口
村里人
方法论
手帕
2035
##隙
窘迫
建筑学
涉事
尘封
狙击手
enhanced
boyfriend
钢筋笼
拉风
牙医
卡座
##奋
酸化
反攻
犹豫不决
生者
谢意
798
滓
u23
甲等
钳工
拜拜
carlos
##玑
##rea
lip
﹏
睡莲
白蜡
佛罗里达
ite
自性
弹性体
mil
微细
grasp
怒吼
示范县
attributed
育成
400mm
旅店
摇匀
液氮
紫藤
下期
盐雾
##噪
7m
脑膜炎
丽景
affiliate
变淡
preneurs
银饰
chase
何地
##hl
濒
刺伤
金卡
敬酒
动迁
神农架
柔柔
古龙
动容
莱阳
蟒
野味
临睡
受用
凄惨
contend
加味
反酸
fabric
难易
sentences
exchanges
affair
漕
骞
报告书
半辈子
张云雷
濑
luci
##uma
calif
insert
补液
罢休
独行侠
圆球
低烧
雅居乐
投资方
小嘴
deva
不锈
552
诉至
##vic
天涯海角
算起
枢纽站
directory
珊
排泄物
梦乡
吸收率
##霆
末尾
施以
churches
nj
helmet
原定
安国
猪头
泡棉
胸膛
斧头
hills
景气
essence
老年性
过水
女团
格兰
挚
爹爹
硫化氢
奥利
地税局
挥毫
闹闹
本罪
挺胸
巫师
wallet
毛色
燕京
矿物油
有情人
岐山
拔河
通入
##谟
大同小异
九华山
consume
##300
jacob
供氧
阿勒泰
gig
花束
临朐
辉映
思明
五条
郑东
瘦小
jl
强效
奇效
红亮
东西方
转行
recruit
人从

马可
神经炎
texts
温服
分次
wash
##eti
本区
uncertain
##eni
脚背
小五
provincial
1380
松山
过猛
wings
xm
猜到
cricket
swift
真话
一百九十
matched
公克
秋叶
鼻咽
民建
##腻
437
##stone
devil
shorter
禅意
放空
再而三
formerly
condemned
鼓膜
各司其职
initiatives
boring
单刀
白皮
信件
百战
##弧
斗门
##钾
韦尔
破冰
借助于
berg
库克
黑道
##秘
outrage
西沙
淋湿
压倒
苦闷
预想
拓跋
粉饼
驱除
振作
ped
##win
设色
封号
boots
funeral
和一
islands
酒窝
secured
真武
mali
poo
雨声
合上
纸袋
攸
干净利落
五类
##nia
溶性
临门
时值
711
敏感度
北碚
刚来
##檐
norway
##陌
塑料管
梦之
烫金
本篇
郑和
kv
行宫
rosa
看不惯
上林
hawks
遗赠
质量关
黄文
驸马
王公
悲欢离合
wx
两对
bw
当量
醒悟
エ
原貌
cape
脱水机
憾
收购价
大群
临水
张华
女强人
作料
##禽
粘胶
股吧
兴致勃勃
琼斯
棒材
reserves
lanes
精血
水疗
健儿
纸本
glenn
亡灵
撼动
割舍
机舱
fitness
formally
巨响
失忆
萌宠
三字经
泥塑
打官司
台独
负伤
nn
accountable
扫荡
新房子
淮南子
drill
舞狮
野兔
识破
嗳气
nie
pence
##蒲
英法
冷色
brazilian
喵喵
千家
小脑
风能
肉身
peers
手肘
狂妄
白皮书
一罐
##柑
保底
##ste
字里行间
博鳌
升为
肌体
善解人意
千卡
黯
喷气
局域网
广东队
蓝白
mock
最晚
严实
头晕目眩
半山腰
经信
真经
##脾
果香
专用车
裆
##蔷
7200
很厚
##bon
outer
##ult
门厅
〜
潜质
太乙
成天
热病
月刊
串口
steep
坳
小件
鍏
船厂
切合
##5;
菌落
polish
约旦
颅骨
仁济
##500
airline
小猴
休整
715
后腰
告示
##adi
走错
##逼
##吴
自尽
严重性
舌红
势在必行
##ute
##桨
板结
尿尿
wl
30ml
依维柯
中甲
这身
不沾
trapped
养羊
黄州
mont
ari
pierre
阴干
拌合
上篇
脂肪瘤
早报
炮火
赔钱
联保
生硬
太保
茼蒿
湘雅
##ude
巴彦淖尔
南关
落果

永春
强项
五笔
deliberately
步子
创优
斥资
legendary
大扫除
probability
逸动
死心
instruments
本土化
后汉
双亲
好受
嬴
archy
harmful
mir
熟茶
开化
多边
忒
xf
三百六十
汽化
身体力行
聚糖
##oi
口唇
马里
##ree
中远
ker
王学
粤东
##堪
触屏
归根结底
唇釉
升迁
leonard
贫贱
携带者
释文
光棍
dsg
求证
仰慕
蠡
纸面
guo
礁石
小乔
##阙
杭州湾
##霁
波波
接住
下跪
冷冻室
穿山甲
三百多
菲亚特
推举
霸权
sunni
technically
封信
16th
惶恐
教具
童星
补发
小鹏
urgent
缇
打铁
暴富
报效
刀架
收钱
subsidies
##tein
贝多芬
西北角
好美
刘明
thor
气泵
熟料
flexibility
螯
谊
论著
elis
普吉
完事
toilet
5001
只差
从今
熔岩
对视
倾销
情义
菜心
不择手段
藏语
crying
##侨
北流
哈尔
spacecraft
好物
烧焦
##建军
nurse
winni
高家
驾驶舱
陋习
堆满
打水
二零一
化开
648
衬里
##钙
##aka
bite
hence
埋设
说不清
identifying
50m
帕尔
压轴
喹
ans
清透
昆曲
resigned
脯
汆
听歌
车水马龙
红牌
electro
给油
财险
酋长
字辈
lw
禁烟
difficulties
出人意料
亲肤
毛肚
黄白色
结构图
古刹
水色
老宅
吞下
盆底
块茎
煅
凛
洮
consequence
绚丽多彩
triggered
一只只
南郊
nightmare
廊桥
蛋白粉
##孤
##stan
studios
norman
风雅
宵夜
editors
vu
做空
鲜卑
李治
掉以轻心
灯头
直营店
钟馗
丽人
电讯
举国
王一
洒落
低分
操作台
百态
勤政
思潮
hbo
链子
尚品
制药厂
张勇
ˇ
银河系
君越
打骂
火龙
铜板
罗非
看淡
沾满
⑨
黏土
学社
王亚
##ration
没去
二十万
carson
模切
不紧
湿邪
伶
##char
memorial
vermont
ば
归家
横截面
往届
内伤
擂台
泵车
小洞
痰液
密室
v7
站房
秀水
龙须
渭河
宋慧乔
虚劳
外孙
控水
飞雪
擢
留白
3900
遗传学
猥琐
蝗虫
rumors
德胜
涨到
揣摩
刘禅
夜半
金寨
甲木
增援
豪气
眼尾
双城
rams
惨不忍睹
内控
集邮
开打
纤维板
沂
那英
619
reaches
cartoon
搬走
周冬雨
相映
狱中
八万
r4
贪玩
找上门
活人
工友
腊八
大秦
简略
烦闷
信守
除油
助威
库容
土地证
priorities
庄村
阳山
##list
光着
咬住
创先
不济
julie
好梦
粿
warriors
调戏
黑糖
clicking
甜心
奇数
团组织
软木
封杀
bios
respondents
热腾腾
宁国
##qua
ane
用场
shifted
随随便便
rational
翎
有心人
奶源
豪庭
百味
80mm
欢歌
追缴
btc
蜜汁
temporari
光年
缥缈
v4
菌株
scr
撰文
布什
posed
lai
freak
推敲
陌上
aggression
resolved
##妓
维和
执笔
liberals
血热
paths
##缕
铁道部
临河
壳牌
偷盗
二分
王德
演进
moo
杩
butt
粒状
山鸡
破洞
宙斯
阳关
赛鸽
一百万
下人
裙摆
烧鸡
王宫
国考
暴雪
冷媒
热切
毛毯
distress
尽兴
如约
excitement
中气
trusted
brussels
brooks
赛制
682
浓汤
毛毛虫
opi
tyr
mana
词曲
塘厦
magnitude
奇闻
628
习习
路演
jian
刚毅
新街
业务量
##wick
呱呱
武装部
cincin
炼丹
眉眼
仙居
柳宗元
心软
消亡
信访局
在所难免
tk
wit
advantages
##渍
矫健
fitting
一开
organize
布依族
祖辈
##羞
489
mutual
采血
participated
median
东乡
九尾
607
中资
##ima
对位
北美洲
564
洞悉
##nte
吏部
扰民
对讲
胡适
designers
减肥药
蟹爪
含泪
花山
lasting
豹子
云台
淡斑
丁字
拉夫
induced
添香
杨建
开立
poet
豆蔻
把持
墨迹
盱眙
641
703
耳塞
躲开
活期
生存期
王俊
邯
能行
五彩斑斓
##塞尔
竹筒
merkel
锅巴
单株
周遭
五金件
##ere
栎
面包机
弑
然则
思虑
清廷
四区
647
deposit
棚内
保护套
登记证
中车
whites
淹死
detected
高专
pants
496
里外
##蛮
通水
东流
初赛
资生堂
##埔
办成
阎王
尿道炎
jacket
仰天
肿物
参观者
恒流
ih
变数
throws
恶作剧
普贤
##划
ancy
buttons
酪氨酸
卖力
rhythm
cuban
dem
carol
猥亵
凤凰网
普通型
哽咽
调解书
上元
appeals
公司法
七种
部级
素问
丧尸
号召力
凶险
底商
不相上下
过渡期
0010
反问
翻拍
水车
代缴
821
贷款人
parade
castle
隔离带
续写
霸州
招工
embedded
reed
rushed
knocked
营长
寿星
虚度
美眉
青壮年
指头
fuels
力道
兼营
建设路
徒劳
雄狮
单日
flesh
exports
扫描仪
billy
海蓝
固安
albe
复印机
嫉
硼酸
全棉
波澜壮阔
光敏
轮渡
咒语
俾
ц
portfolio
邮储
高照
draws
virtue
stat
货真价实
河蟹
油光
乔迁
离骚
朗朗
主教
旧事
##肖
详实
772
bil
初试
细粉
##歇
##拉斯
山茶
silicon
mora
玉兔
倩
橡树
10k
gol
变少
劝告
顺顺
掉入
teenager
˜
初乳
多路
dong
碰见
打桩
0011
##婵
￠
兜底
wreck
长治久安
声调
##阜
满腹
temp
中心点
万无一失
洪流
抽吸
##燮
823
barrier
彩蛋
耐腐
肺泡
仪表板
影楼
肩胛骨
经济法
cleaning
淮阳
昆仑山
黝黑
五言
泛舟
exhibit
welcomed
肥美
四六
alternatives
447
偷吃
##缨
黑衣
夏侯
占位
烟波
新来
wishes
北端
hopeful
自言自语
词句
国风
酸枣仁
车衣
下坠
编者
小陈
玉柴
盯上
痂
热交换
缺锌
stocks
简明
李洪
\12
个位
##9;
预审
拘泥
陈子
一般性
前兆
取值
484
明信片
分水岭
shifting
drought
晁
economies
理工类
里昂
感同身受
腹壁
portrait
王健林
流涕
杏林
客队
乌拉
内痔
鬼斧神工
羊驼
漱
##峥
外币
spe
管仲
路沿
堆砌
吮吸
红绿
晴空
counting
refusing
全权
巨无霸
反常
半截
##ux
路费
拜佛
龙鱼
送医
夷陵
##bles
黄道
情敌
拿货
抚恤金
牵引力
冻死
陈梦
##借
indicating
婶
喷墨
拐点
豁然开朗
immense
￼
兰陵
参赛者
孙家
鱼钩
夏雨
咸鸭蛋
samuel
宝丰
孜
洗脑
跷
取长补短
羊年
峰峦
##衔
三小
不拘
使用证
urge
grey
变废为宝
0020
倒油
聪明才智
561
造物
出风
throat
令人羡慕
##lines
connecticut
新泰
数学家
移风易俗
隔离霜
三桥
五六十
烧杯
日暮
望而却步
大朗
出访
历史学
艺术展
destroying
省纪委
冷血
二百零
canon
##玖
##ean
耐药性
艾米
疏解
1002
变脸
😭
gur
##2;
587
天宇
讯问
卵石
受聘
浓淡
正畸
闻名于世
##逐
团子
葆
再开
作诗
嬴政
##hai
neighbor
##肆
石城
首脑
separation
stevens
indonesia
嵊州
北周
拉拢
cum
工具箱
吸奶器
熠熠生辉
西苑
齿轮箱
义不容辞
493
##az
交钱
柯桥
桃胶
世子
玄参
帆布鞋
舞步
完颜
足协杯
##jan
海战
top10
图库
丁点
登临
##set
东来
二段
商鞅
announcing
厢房
两日
贾府
016
小爱
全心
美玉
虫卵
樵
恒久
deli
膻
棉麻
抛售
massacre
猫粮
innings
涣散
鬼谷子
失联
吴文
史实
018
pledged
调高
举升
i5
包拯
大千世界
刷脸
功不可没
委派
tensions
猴年
absorb
领跑者
赶回
赫尔
抨击
corresponding
##寰
rip
正德
铡
远远地
tire
胃气
##ida
人事部
横批
新洲
ム
苦心
污秽
肥东

爱丽丝
凯越
祭扫
南康
信达
圣旨
孤身
奋不顾身
乳酪
无谓
若水
圆柱体
##rai
候补
贵贱
尾盘
silly
独门
两区
添置
医学界
811
击倒
##妾
真皮层
民盟
引援
charter
tendency
脖
图上
julian
飞檐
hau
老天爷
六亲
卷轴
鼓动
磨具
呆板
内窥镜
通江
乡情
563
636
年青
2o
之交
漫画家
オ
秦军
世乒赛
神车
乳清
足跟
黄庭坚
刘子
毛竹
旁听
激酶
会员卡
duck
当个
会合
加工业
##渚
祺
天梯
内务
脱氧
地王
amo
##point
陈永
地埋
544
齐心
训斥
横空出世
张爱玲
rl
theatre
走线
矶
##再
机顶盒
纹眉
划转
政治学
damaging
单列
堆肥
##聘
爆炸性
favorable
雅士
滞纳金
李新
tum
溜走
相向
修罗
锻件
坡口
人字
车棚
何物
kicks
##阅
spawn
沉淀物
药流
发福
李承
安全员
鸿雁
多花
反动
首节
六人
橙汁
跟腱
裂变
洗牌
奔流
细沙
开建
如春
辈出
研究型
waited
面额
跤
先发
assure
湿敷
##绩
太阳镜
调音
frust
##dale
wor
支腿
哼哼
上清
堤防
沃克
同窗
建交
attach
带下
bjp
哇哇
蓄水池
黄子韬
重做
感谢信
deciding
溶质
中转站
explicit
祖上
炖鸡
几回
捣蛋
习武
黄豆芽
生肌
潜逃
亏本
加勒比
锁扣
斯克
鼬
逆变
水粉
陆路
parliamentary
回缩
backers
白毛
如愿以偿
保险业
氯气
道观
铿锵
##西亚
活鱼
快艇
砖木
聚苯
寒意
污浊
装袋
##垦
金箔
加码
霞光
译名
557
来料
陈伟
avoided
##慢
蒙山
小妹妹
reminded
trafficking
553
吃吃
吴京
survivors
樾
荣昌
冬枣
单排
壁虎
后辈
语境
corbyn
无价
葱茏
熨烫
汪汪
散失
秋分
话费
手忙脚乱
4700
##iri
优等
##械
外缘
莲叶
坏账
5300
套用
##抱
啖
商朝
水费
清正廉洁
hel
专供
##厌
招股
长清
金堂
飞走
del
青城
红葡萄酒
竹节
揪心
包间
brush
转轮
ego
sid
散粉
代代
辽宁队
恩赐
很硬
霍金
腭
免检
woods
##town
判官
撞色
叮咚
二百三十
意蕴
自习
##rey
过街
横流
刚果
vv
linear
大石头
tuned
吸干
代发
馥郁
earlie
钢构
增重
571
539
相城
conducting
exhibition
内切
##tc
spectacular
马斯
汴
落选
务农
colleague
逆势
爱乐
山人
雀巢
dominate
同位素
自传
宕
提花
河滩
岳阳楼
回车
withdrawal
认领
丹凤
开闭
分页
潮红
medal
错开
高宗
##人心
坐浴
bros
甜言蜜语
491
translated
雪中
塬
实缴
ƒ
柘
gravity
tongue
腱
凤山
道闸
##樟
印刷厂
蚜
人保
用不着
保险柜
endorsement
克洛
pret
##窍
被毁
北川
志气
##分明
胸腺
马山
sel
江油
衣袖
拼车
聊斋
均质
remind
courage
开导
##屎
哨子
三品
五十二
买回
职业化
驯化
##里斯
modify
analyze
##hor
蹒跚
伙计
书目
##nut
恒丰
586
挂机
carr
撕心
サ
何须
口粮
不交
##毕
女宝
rar
休息室
sup
牛栏
烫手
劫持
037
fool
澳元
千寻
访客
帕杰罗
神清气爽
春卷
grabbed
拖链
confrontation
张望
sri
佰佰
retire
主会场
脑组织
玩物
勾引
风阻
畅想
屈指可数
假牙
secrets
90s
六千
车桥
营业员
胃脘
diagnosed
小贝
775
古今中外
沂水
##嫔
下篇
鸡冠
##不得
governing
胡思乱想
彭州
柠
硫化物
ebola
##tti
valued
sess
文选
defenders
红彤彤
巴山
二区
人种
决断
镌
sai
整备
站上
白昼
ide
高开
嘉祥
mcg
临时工
minorities
803
kal
purchases
##cia
hint
##hin
##棕
演播
preference
虚火
breathing
颌面
残留物
德国队
colonial
创刊
旗手
歙县
单选题
passive
实名制
初具规模
##par
##lion
幼树
赵氏
河沙
stones
桑椹
肉块
建功立业
风帆
黑的
少年宫
雌花
marg
浅蓝色
##浓
丝线
大沙
竹签
勾画
\2
水油
三等功
bicycle
脏乱差
angela
副科级
变型
authorized
翘首
要闻
脚步声
economists
惊天动地
725
镭射
aesthetic
014
超棒
科工
宣武
卡宴
救下
铜山
柚木
砍头
查实
##ame
古书
##愤
通缉
rr
##遗
藤本
苍凉
不可收拾
山沟
拨开
skate
扰动
swim
blogs
regret
门把手
剪除
地利
##擒
病假
五级
4c
效劳
grows
inspire
##uti
延后
leaning
性侵
泗水
pun
大富大贵
炒货
延年
石油气
涟
预告片
制衣
八种
三岔
惨案
清茶
壮阔
queue
干流
inclusion
宅男
三院
心语
interference
十条
barriers
林家
商代
bea
金宝
100m
政府军
鱼皮
winds
螺纹钢
炭黑
寄存
modules
##淡
星城
聪明人
correlation
turbo
llc
山丘
早搏
belgium
1040
影帝
阳澄湖
shoe
舰船
南唐
存世
迫在眉睫
药害
肘子
六甲
家养
加班费
挫败
不景气
张学
gifts
一山
nazis
洞里
耳道
707
油罐车
插口
绯
dz
净水机
codes
##屁
showcase
脸盆
oak
tfsi
screw
colleges
##kw
##imi
文王
农家肥
comparable
赤脚
approaching
张金
infamous
652
societies
整夜
吹塑
绾
蒸腾
劲爆
herb
支管
守护神
罗盘
工厂化
insist
👇
兵法
住家
霍山
##贫
financing
beast
乙炔
戮
sys
##arian
舞会
gates
先锋队
舷
侧弯
tourists
瞎子
上人
王宝
水化
##zen
的情
特里
汤勺
nod
1206
##oma
泸沽湖
信条
无妨
险恶
水渍
purely
忍让
金相
spencer
家常便饭
现价
rohs
熬过
铺子
南村
用书
古木
菜篮子
attitudes
剩饭
半部
开馆
嫁入
lim
精兵
氨气
富国
领头
开售
和睦相处
合称
掣
全貌
542
锲而不舍
善战
##滋
握拳
奏响
多指
甘薯
未婚妻
beth
维保
cri
##sti
射精
654
除垢
精神抖擞
thirds
拘禁
北京站
软水
票面
最坏
点胶
sparked
hdmi
列明
筵
唧唧
ィ
访友
泡温泉
匪夷所思
张一山
4x
深红色
伏击
商定
降尘
梦回
批改
风俗习惯
全名
明光
直升
石锅
心绪
创制
接二连三
variation
dirt
该药
三叶
升格
兴华
谜团
吋
##cks
uh
江中
巍巍
莘莘学子
559
李树
独行
10mg
焊点
yg
混双
凄美
nail
##误
青蒜
腺癌
疫区
夙
李鸿章
##ppe
说吧
主席台
网信
铁军
warfare
believing
大眼
确信
教研组
逗比
tory
pol
唇齿
逍客
4400
汪峰
daughters
茵陈
チ
把脉
qatar
##kie
蔻
饭盒
玉女
走位
增色
考拉
钩针
承包商
东南角
群众性
八品
riot
原配
918
高州
泮
张云
sni
##愚
宝钗
1kg
文稿
通明
次方
文职
##肾
##棵
飘散
simpson
clause
591
##凶
蛛网
响水
ster
deploy
549
阿波罗
小样
continuous
appro
忠厚
水涨船高
文天祥
欧拉
加征
infinite
渔网
洗钱
韩雪
真像
僻
篡改
起色
##tech
土体
三等
女贞
815
芳菲
thirty
香蜜
n1
直飞
少说
constitu
收场
##坯
万和
757
伪军
##彻
鸡苗
宋徽宗
沏
世园
行囊
负氧
珍视
wheels
红莲
l4
李克
殷勤
嫌犯
师妹
跨入
市域
骑手
余香
在册
##你
罗密欧
凡士林
京杭
hungry
ت
瓜分
图吧
白杨
布鞋
羌活
压块
utc
成倍
##lit
接任
小圈
disrupt
蜂王浆
常喝
咪咪
韩元
帷
仓促
##潘
最低点
买药
accommodate
interactive
nixon
头骨
妓女
economist
1000mm
荷包
粒粒
argentina
##肽
rushing
认输
空挡
bobby
gamers
绞车
##串
hv
大闹
较真
吱吱
起立
palestine
琉璃瓦
欢聚一堂
##株
刨花板
decides
衣领
大学士
猎犬
pursuing
压条
psychology
棋牌
房改
不祥
河山
革兰
admits
兴奋剂
制茶
15m
音调
打坐
出口处
春晓
王艳
ik
金叶
##惟
isolation
ems
科尔沁
安胎
奇骏
隔油
掂
还债
下流
莉莉
湿巾
喜气
血流量
旁观者
压低
神墓
创作者
generating
谥号
总院
gk
张军
大集
幼师
hackers
铁器
︰
adobe
##bil
dll
五指山
转阴
鹤岗
视而不见
橘红
矜
轻纺
eh
皿
蹉跎
商贾
farms
颧
对角
畲族
##xe
7l
董卿
固精
氽
脑炎
换证
后所
名扬
法界
剥开
flows
冲走
叶缘
奠
128gb
跑腿
breit
重汽
拱桥
blues
收房
##ev
康乃馨
张俊
##mus
猪腰
手轮
临川
注目
军事家
organizing
##镐
金国
李军
裁缝
排汗
平添
国医
居留
排涝
wf
dai
uf
昌邑
瑜
泵体
惨痛
##bury
不竭
开明
夕阳西下
薯类
无影
获奖者
khz
631
意见书
institutional
粮食局
嘅
人物画
真品
冀州
研读
腰包
卡斯
穷困
大马
旅行者
师风
大势所趋
花胶
线状
败坏
som
荣登
##玫
superman
粑
荣华富贵
诚然
宁远
收留
西青
阴差阳错
尚存
童真
吸烟者
p10
禾本科
苏南
迟疑
插手
marginal
founding
nomina
绝版
failures
海归
于都
品读
tact
inn
依存
舒坦
clan
详询
忠告
簇簇
正科级
dior
红肉
有奖
幸存
三四十
不靠
##idi
沙坦
车贷
ame
西起
##ml
中金
长白
万世
权健
纳凉
控卫
detection
跃进
从无到有
cigarettes
投资商
全真
老牛
牵涉
##不动
访问量
父母亲
钢瓶
harrison
老母
陈列馆
闭关
自述
638
馨香
花果山
搏动
枪手
坐牢
声优
matching
亦然
本条
租户
前段
执掌
独立自主
epc
迂
islamist
醒发
豆油
迷迷糊糊
卡罗
问号
慢火
罐内
marie
失业率
##笺
##hen
传遍
剧种
上届
梁启超
约束力
望京
大化
王庆
skf
滤纸
compiled
##eg
怀远
forming
##rl
##畏
磷酸盐
中班
校对
莪
整年
彭德怀
首乌
解禁
虞姬
文坛
##ond
神殿
punish
规律性
有声有色
编组
评论家
812
用兵
##aa
eeded
jy
退让
窃取
巴州
conception
从教
warnings
重压
己方
树荫
023
还钱
donated
##孕
寒冰
profession
回向
推诿
牙套
nx
##扒
气节
副产品
试水
gls
补习班
bottles
bennett
holder
酥软
尖角
##岔

赴美
ο
体校
reluctant
锅贴
通了
长图
夜深
马不停蹄
布达拉
tol
遮阴
##与
lecture
四库
collision
624
浑然一体
num
快攻
眼屎
1895
##ures
天降
门神
milwaukee
merc
述说
一贯制
##览
海城
bune
##vel
真美
griffin
已满
来来往往
##扫
对数
画派
雪纺
q4
赵王
表演者
腼腆
乐平
负责制
台区
霍乱
##粟
慧眼
下陷
此间
萎靡
肉羊
相干
外星
recount
genius
consistency
地质学
gis
武大
北郊
鹿城
batteries
括约肌
视神经
gabriel
어
phev
诗云
投用
等价
量具
三寸
masses
自转
横琴
乙级
##rp
控制线
做做
nk
qt
金碧辉煌
何某
焚香
##down
行道树
一算
胜景
5400
直列
陈俊
十位
名作
透光率
大坑
独活
ニ
passport
igbt
17000
近亲
绿茵
追偿
普天
诚聘
淡忘
一五
孩儿
diction
优酷
permits
电子琴
行了
底肥
酥肉
噜
disorders
##com
雪域
##啼
停泊
刻薄
inspection
30m
杏树
902
596
自力更生
发育期
sue
春城
##eld
尾端
皴
beneficial
内圈
格格不入
律动
援建
刘大
等离子体
单眼皮
无明
开春
孙红雷
首都机场
画幅
躲藏
火辣辣
accurately
灬
弋
donation
hung
寒潮
so4
晕厥
bour
##皱
隅
编撰
智能型
##sc
南天
generic
汇成
才华横溢
立体化
pump
敢说
沤
潜水泵
束手无策
咋样
副处级
溧水
翔安
祥子
歌剧院
吴晓
飘过
rental
磁化
善行
731
亲妈
字字
吓唬
dense
过敏源
transformed
andr
sheer
蛋卷
冰冰
日光灯
不眠
wrestling
loading
三班
贸然
helicopter
水循环
热捧
吟诗
围住
shah
##屑
考完
##nell
排长
三才
大气层
初始化
坩埚
appealing
当季
师承
伊尔
arriving
李沁
809
悲催
教学法
原料药
阿姆
comparing
二卷
##妤
纪年
首任
行踪
大堤
脾经
也门
跑马
浚
##row
任人
10a
放贷
elimina
不入
禽类
殆
病证
裂口
偌大
援藏
绝缘子
月夜
mara
032
陪审员
阿兰
曹家
发家致富
xc
吃香
colombia
跳伞
渺
磁带
砖机
碳化硅
平局
廉颇
嗜血
contacts
客户群
lacking
##尔斯
复利
国界
焦裕禄
##oth
jumping
惠城
awkward
zd
腋臭
bryan
张国荣
辨析
tit
双耳
一姐
冕
pole
facilitate
深意
保命
skins
主人翁
丰碑
rico
雄黄
wrap
漫威
仙剑
苍劲
希尔顿
闪存
牛牛
##忽
胶粉
流言
相容性
恒湿
lis
碧玺
钓到
##ification
清火
successor
蒙面
韩系
collapsed
触媒
佛罗伦萨
铆接
满天星
泰式
匿
氰胺
祈愿
侨联
xia
想开
带好
邓紫棋
invented
苗头
毛茸茸
regulators
金坛
姑息
重托
两院
扁鹊
崭露头角
潇潇
天启
##ered
阳城
镓
小巧玲珑
sandy
悄无声息
快讯
忍痛
榻
r11
枷锁
舰载机
conclude
套取
行李架
挚友
年复一年
案外人
phillips
莘
空间感
排线
选聘
聪颖
decreased
徐志摩
护手霜
愈演愈烈
healing
满洲里
八旗
喷剂
中冶
木子
互帮
炼化
自洁
doubled
随口
缴税
耶律
scrap
creators
1870
dru
撑开
刺身
北大街
派克
夔
locker
掰开
小岳
喷嚏
spoon
treatments
slower
disappointing
菜馆
兆瓦
分寸
魔都
苯甲酸
吴三桂
热水袋
彩钢瓦
拾起
中牟
髌骨
enc
贝利
合闸
拉塞尔
鱼翅
周迅
核苷酸
##篷
females
双歧
午时
labels
弹劾
士大夫
信众
1950s
联营
商谈
##gie
胎教
声势
上梁
instruction
glo
548
三双
赔款
官杀
##鄂
战果
hypothesis
474
接收器
cowboys
富平
十全十美
水蛭
非农
张继科
advances
枯草
跑进
因材施教
589
迎刃而解
架势
管业
##持
怅
18th
hn
凤凰城
traits
loft
冲击波
母牛
cinema
相依为命
东周
美展
##1;
青鱼
treaty
苹果树
卸货
赠予
悄
garage
小飞
##灼
自来
威猛
治超
榛子
齐抓共管
良久
格鲁
叫来
aken
微凉
太康
##闹
手提袋
铮铮
校庆
定时器
微辣
免税店
牧区
选票
injection
真善美
枪管
蜂群
烤炉
豆科
捕杀
劲旅
戴姆勒
肉味
新叶
伤风
三套
wondered
春姑娘
厚积薄发
brook
高压线
折射率
中心站
好货
税负
艰苦创业
紫草
呈贡
培训师
援手
亚运
赴任
民政厅
凌霄
部族
撂
特指
赃款
唱法
edwards
lamb
乳剂
t8
胱
nancy
扭头
榆木
羲
下摆
益州
两分
拉菲
妖魔
##德尔
resignation
天蓝
##els
选修
##尔德
鳞茎
18k
棱镜
观光车
binary
撕掉
foul
proceed
油酥
东明
博美
081
汽车城
手工业
樊振东
花千骨
lebanon
羽化
lasted
极差
intentions
藏獒
花蛤
##婿
农事
丙火
摇身一变
弹幕
预埋件
差异性
数位
##ches
人本
独步
果穗
剧痛
##不安
careers
迷迭
一炮
呼出
7cm
665
闽侯
精雕细琢
climbing
虢
罚息
车模
首座
总兵
透射
自提
龛
establishing
##执
肥西
kol
gru
降生
##nan
大通道
换档
成化
弹指
delta
jing
易发
卤汁
##low
测量仪
扁担
小食
扶摇
开衫
百步
铁人
雄心
玩意儿
##蔻
anime
力克
买断
彻夜
蟠
犊
899
曲礼
慈母
盟军
greet
致贫
错峰
亚丁
##褐
显著性
废渣
blair
克莱斯勒
整整齐齐
新希望
加高
浅层
铁粉
预防性
negotiate
跃跃欲试
一代代
图样
挤满
年过
证明书
aired
青秀
villages
苦笑
##迟
兜兜
socio
四两
regards
嫁到
真金
叭
palace
村道
风调雨顺
复合物
老马
千手
mau
之便
drift
福字
熔断
刘金
goo
取悦
anton
花园式
##room
刷洗
polis
利拉德
##itive
须根
drum
875
soho
普勒
莫愁
1180
sooner
张江
redmi
认筹
##蕴
天鹅湖
检票
碗筷
山脚
鞠婧祎
空客
轻症
路透社
便道
victor
拉布拉
torn
传道
振华
pee
销魂
清仓
justified
止住
##夭
licensing
下奶
大单
mak
下移
angelababy
6300
##rre
statistical
肉丁
侣
雨果
凶残
人来人往
scholar
老师傅
磕头
ê
889
614
远门
作死
窗子
glance
具足
##滞
刘德
曲度
蒙蔽
不中
40cm
药王
翰墨
浸种
备选
黑手
反叛
撩人
火球
军机
rev
psa
adidas
毙
七八十
bulls
呼噜
煅烧
cdc
laughing
锤头
解压
会阴
杨凌
arrangement
崇德
boats
连任
##竿
鱼饵
绝活
蜜饯
至善
合浦
win7
南江
降耗
争夺战
劳资
多张
听证会
铋
收储
四星
何家
黄蓉
平菇
加拉
##缠
tpp
sak
教法
恰恰相反
库尔德
青田
放气
米糊
锯末
耐性
纶
心平气和
飘渺
fn
ال
胸肌
库尔
下沙
彗星
盂
融通
credibility
creek
大营
陇海
出类拔萃
##渐
mentally
战马
肉皮
煎服
成行
beers
分中心
天界
retailers
自嘲
李振
水浸
螺帽
梅县
swap
ding
富康
##综
存活率
每套
小山村
wn
solidarity
拆迁户
##eli
阳角
##mine
外遇
翠屏
omg
ble
合谷
心路
卡地亚
浩浩荡荡
disco
余款
cage
##贩
斐然
青石板
电子厂
considers
根尖
超大型
fortune
七中
闻名遐迩
金阳
problematic
阿斯顿
维拉
垃圾袋
##斩
邓丽君
力挺
凡夫
574
branches
心中有数
受益者
pou
线槽
铁锹
腊八粥
李亚
丑小鸭
剖开
雄风
客货
毛皮
##eva
704
gle
缁
palin
晋阳
硬脂酸
shifts
卉
料到
实验班
泥水
煜
##lation
##bus
p5
##fied
苗寨
organisations
郭某
知识面
一九八
##辙
certificate
盒饭
后继
国粹
intimate
##遂
##esi
寥寥无几
天马行空
gentle
银针
建军
例题
e0
cz
张三
欧陆
啮
本季
雏鸡
邹平
天理
呋喃
syndrome
金三角
怀古
水煮鱼
金源
末班
垂直度
barbara
苹
常闭
出勤
##ique
首条
孑
##扭
snap
每时每刻
竖着
sep
则徐
encountered
命门
dated
烬
成衣
##sie
阴晴
冲绳
现代感
解放前
筋道
萌娃
阴雨天
孕产妇
美兰
迈开
练字
脑脊液
学妹
命脉
金发
paragraph
竞标
图说
า
走远
天资
抒
##erate
暮色
全剧
专题片
采油
称道
东航
kil
##table
yc
林俊杰
奥尔良
压线
接单
天文台
dubbed
心梗
入关
会稽
辽源
爱尔
夏利
个体户
来点
保护法
##辱
好话
王冠
627
住人
marking
站口
双星
celebrity
对点
上心
石岩
小曲
利川
企稳
万福
653
##tel
precious
孙膑
谦让
三颗
天晴
径直
og
##uin
宣德
西平
pilots
平昌
胎毒
低聚
arranged
电压表
##混
升腾
憎
tolerance
刻板
flowers
西雅图
南浔
##ily
蹙
董明珠
太史
塘沽
recruiting
##nat
kat
敦促
李维
无所不
报应
##rant
上佳
首当其冲
##ien
寨子
盈余
广德
远道
##dit
泰康
存取
早盘
警员
手推
发奋
出城
1w
inco
delicious
connecting
警用
恩人
##芮
punk
金顶
桑德
燕国
软件园
侠侣
磐石
江泽民
莒县
高仿
日支
佩奇
文脉
分步
urging
西瓜皮
变慢
车费
前日
fulfill
懊悔
焦黄
首尾
谅
子母
心肠
丰县
##hua
可汗
熏黑
加药
通用性
ž
郭家
村名
留影
盲点
墓室
浮沉
第三十
耻骨
screaming
熙熙攘攘
泥炭
novels
sap
nexus
小胖
带钢
蟹肉
鳜鱼
empower
成华
吃草
norm
cart
566
脊索
萌生
肛瘘
##pho
ÿ
酒量
文登
wallace
激化
658
转体
热情洋溢
核能
用布
agrees
735
踩到
shade
快运
开挂
leather
干法
榛
imagined
ccd
##bing
歉
新化
马蓉
防火板
礼乐
暴动
沟村
combo
醴陵
于海
塑化
旗帜鲜明
书刊
蚂
工频
forums
霜冻
坐位
1899
实效性
近照
煽动
7800
大足
方知
沸沸扬扬
投运
monsters
黄鱼
疹子
##ved
砸了
甜头
1008
乙丙
一隅
##看
长鸣
先手
卫生厅
收窄
标榜
堪忧
进发
开关柜
巴里
能源局
快快乐乐
典韦
试制
末节
师团
传票
正殿
cocaine
━
沙质
淋雨
##尹
##ight
##不平
##递
恶变
切花
##晃
甩掉
威慑
曼哈顿
4gb
routinely
阴险
rubber
清源
preliminary
承包人
清闲
打点
假币
新罗
多疑
建设厅
中梁
简欧
雨后春笋
indigenous
磨盘
串门
填土
##米尔
teens
header
缙云
洪涝
李斯
可控硅
保值率
两山
查摆
四色
李林
##卤
电子版
firmly
司马光
庭园
鬃
阿玛尼
意面
##厄
姊
peoples
佚
医大
跑动
待命
##900
跑完
魔法师
隘
reset
滑移
坐便器
##钠
铍
萱
推卸
编造
蒙古包
淀粉酶
人鱼
阴线
manifest
大英
摆正
strings
铺面
救死扶伤
湖上
编者按
空荡
疆域
硬仗
acres
costa
ats
gz
隽
陆丰
子时
米诺
疾苦
香瓜
lyrics
行经
验证码
sensi
套利
跳跳
妖孽
刮伤
enables
whit
张馨予
同堂
755
追查
燕麦片
四五十
sync
布吉
奶妈
浓妆
sox
immer
维新
pastor
ャ
寻根
仓山
zb
虬
公房
破皮
祛瘀
泡芙
合璧
鼓劲
î
炸裂
眼珠
blade
大公
谈笑
蒴果
2s
黄水
vest
周天
reg
线头
damages
蒸制
联机
私心
形变
mans
##rit
古天乐
脱去
青稞
每餐
hw
resign
读研
当务之急
炙手可热
北京路
鲁南
顽疾
余位
耳根
民革
晒黑
introducing
intro
dro
##拨
虾苗
远射
王阳明
weigh
黄鸡
##滕
decks
接球
一分为二
水利部
染红
书记员
膏状
易得
muhammad
老伯
潮热
earthquake
特训
低糖
长岛
业者
蛋炒饭
自始至终
teenage
飨
近况
食管炎
chill
烤鸡
##志强
歇后语
counted
一梯
8800
东线
荆楚
rg
##羡
灰太狼
无愧于
orthodox
长阳
返工
李华
沥水
无噪
不孕症
萧何
刘春
一天到晚
采煤
王天
##phy
花桥
如风
坊间
incentive
kent
主产
扭动
investor
交情
下落不明
铁骑
监禁
疏风
##oke
pon
金湖
月日
出声
旷野
offs
加收
胰岛
20ml
丙申
疏密
大行
吹奏
yd
大幕
开拍
shoulders
rit
malaysia
cai
西咸
毫安
创业园
旭辉
一碰
endorsed
胡杨
哀悼
invite
珠穆
切条
accounting
rel
特雷
作祟
滴答
速成
##灸
exceptions
看官
ala
一部分
内化
鞍钢
风骨
台儿庄
正处级
扮相
李学
jesse
feat
sheets
ain
incentives
跳板
musk
围困
statue
扼杀
烦热
汉王
累死
cafe
##蓄
人影
pleaded
咸水
gua
砖块
pseudo
长隆
未知数
百世
歹
绝色
葡萄籽
汉白玉
招揽
装裱
二村
##rate
卓有成效
chile
私密性
琴声
消遣
益生
advisor
负于
连招
轻生
十级
心病
妻儿
王熙凤
浇铸
俊美
##gger
凝望
从头到尾
亘古
爆满
缺阵
纳达尔
##箍
认得
##陇
县里
生产队
灵光
colored
脑室
皇权
柳条
融会贯通
##eta
cents
erik
入主
边陲
sandwich
锡林郭勒
转学
南岗
金川
周村
清漆
大汗淋漓
##800
降准
成事
子线
台南
吴建
茜
梅开
月工资
两河
河马
effectiveness
牙髓
添砖加瓦
静默
沈家
泛红
异世
康桥
金条
kam
树梢
极乐世界
贾静雯
行云流水
义卖
平易近人
看穿
快板
限制性
世祖
下台
熟地黄
##bal
ghz
气胸
柴米油盐
attachment
severely
下气
##gel
##伍
rag
韶华
邋遢
##狸
咖啡机
姜维
sensors
转成
没药
scp
钢塑
硫酸盐
长生不老
grind
##gne
店名
578
游轮
安眠药
吴奇隆
更有甚者
废止
reli
见惯
新发
圈里
##粗
花销
山梨
赋诗
生活馆
无惧
762
严冬
翻脸
流程图
四边
衷
创收
挪动
付息
kun
南川
fist
年制
jis
高斯
个儿
心内科
lau
wildlife
掏钱
电影节
罐车
圆领
乱跑
种猪
揉面
阿曼
格勒
倒水
晚婚
挥动
##窃
emba
斗拱
仗义
养身
冲淡
铝管
3x
忠臣
惠山
安丘
光面
デ
右臂
点灯
圈套
肝素
灭蚊
skull
不卖
invitation
临泉
下笔
swimming
子孙后代
deleted
639
天柱
绿绿
##of
李沧
喉部
calgary
筑巢
大放异彩
陆风
泪痕
新田
critique
水声
吠
铲斗
选车
##ami
讫
眺
求魔
回头客
做多
lesser
桂花树
贵气
起跳
罗志祥
pete
名画
橱
很难说
酒窖
bryant
##邻
kills
##纳斯
柳枝
拍完
athlete
verbal
unveiled
险胜
苦于
理查德
侵扰
布里
专修
lovely
白首
fic
辅酶
literary
convincing
##患
除雾
西线
bli
日喀则
黏性
易用
##ost
瑕
##诺夫
西海
裕华
30min
和蔼可亲
转租
助人
threaten
爱新觉罗
##琳娜
##烷
吹气
排污口
选送
ptfe
世界性
磁选
护罩
迈克
陨落
双膝
荆轲
##茸
组员
配电柜
witch
傩
pixel
大宅
gam
奖章
计发
釉色
连天
mach
##hs
sullivan
8g
就任
肉饼
掉到
572
大功
铜丝
catching
vulnerability
##yle
呼救
蔺
avoiding
恢
羌族
家宅
几层
##虐
##腥
以此类推
季报
scam
莲蓬
兰考
##ket
流星雨
白度
无所不能
瑰
自由泳
速生
杨子
控告
辙
creativity
1260
caucus
sectors
11th
专户
恳求
银泰
耐蚀
储藏室
slaves
酵母菌
比邻
万宝
应聘者
traditions
mea
落败
同班
厂矿
军火
苦荞
古街
koch
吃下
长尾
马伊琍
583
commented
千户
芸豆
费城
##淘
目瞪口呆
可耻
proceedings
空位
中堂
luc
香洲
八面
龙游
##bra
fang
紫花
政企
济世
孝义
48v
无疆
##毯
张大千
下月
纵隔
埂
拉姆
二百二十
prohibited
##bly
迈阿密
时序
监考
光热
cycling
##祎
lethal
别开生面
3v
blacks
dur
华安
听信
两门
德意志
denmark
albums
失地
上臂
戚风
heist
아
攒动
全国青少年
成亲
二班
天目
误入
枪击
35000
归脾
幕府
无碍
rex
党规
取现
761
farming
代管
木条
四届
奶昔
竹山
存留
名媛
利空
##琮
大大咧咧
引燃
双核
北半球
##腩
远走
##ep
涉猎
茶马
##fication
能开
轰鸣
江滨
布拉格
1120
相容
迷藏
齐达内
##萃
眉笔
推导
考题
大宋
美食节
specialist
plo
中投
迎娶
走失
大婚
销轴
摇摇
大仙
医保卡
wg
656
郊游
芦花
complement
无涯
charts
通讯社
袖珍
##苹
心电
陪葬
城邦
出租人
美院
虚汗
navigate
洪洞
凯撒
gand
闪点
警情
五十五
桡
望见
五峰
698
文员
765
demographic
soc
南溪
darkness
一比
aka
dancing
谩骂
##tto
咔嚓
真气
刷漆
cmos
链家
##裔
避孕套
meals
燎原
stays
梅山
真面目
刘少奇
手持式
多斤
炼成
深谙
prep
打滚
tes
持球
忠诚度
horn
党费
8at
##熏
惊心
joined
##和平
途锐
懊恼
##mble
无动于衷
前头
a10
温经
三片
一言一行
朱子
教育网
ox
##等
造船厂
诋毁
圣诞树
灏
佳佳
拿回
格尔木
罗德
##畴
干群
肩带
猛将
ご
kenya
铁链
人儿
郑智
菠萝蜜
冒雨
负能量
敲定
kel
善事
garbage
莱特
价差
潦倒
红参
吞食
##dra
总归
罗家
看涨
suite
主事
盈亏
epide
韧劲
dawn
工事
心静
宝坻
7th
弹头
凤岗
崩漏
##卒
遗尿
rey
outfit
心肝
习作
蕴涵
捉弄
rendering
新宠
homeland
newton
硼砂
加多
奥数
布加迪
黔江
咕
如厕
生理期
tribal
1888
触目惊心
##绥
anxi
##牵
椽
bud
¢
撬动
texture
回收率
脘腹
沼气池
scholarship
郁金
neat
红土
制做
averaged
overs
##枯
照镜子
##聿
果枝
butler
物化
承重墙
强攻
loads
eighth
春茶
小个子
##囚
锅子
##鹏飞
consumed
动员会
大忌
##ama
应诉
thailand
手拉手
茶室
李宇春
e6
春播
分站
爱家
mentor
渺茫
dublin
##耶夫
obscure
ndp
老祖
烧掉
托尼
新密
舞龙
美业
protective
上墙
大坪
同音
parse
灵秀
大码
业委会
前边
五虎
榜上有名
全责
藜麦
别太
imm
秋高气爽
碑刻
##nas
不显
梳妆台
先例
指南针
黄氏
搭理
上唇
更香
5100
##蕙
933
润物
偶数
丰城
补牙
071
闻言
黄页
丹尼尔
平平淡淡
崇州
四国
小憩
观者
电路图
明胶
后生
抡
暂定
tun
保养品
蠢蠢欲动
60m
满嘴
implementing
菜农
花间
wherever
915
笑点
压电
reasoning
siri
甭
皖南
生铁
眼膜
017
η
胞胎
遥遥
锦衣
郭碧婷
hq
毛驴
克雷
x9
记叙文
珍重
plum
元钱
五湖四海
逆风
##滚
鼓吹
近郊
##旱
麻省
corners
粉质
槿惠
退换
水波
砖雕
海丰
赵明
b2c
##滢
血液病
直筒
乳鸽
品茗
optional
蔡家
棉球
钳子
潜藏
weakness
trademark
##wer
의
坚韧不拔
同化
沙县
议政
收放
有源
产下
evolve
打井
齿轮油
凉面
牢度
消沉
结盟
棉质
谦卑
航天员
齐天
处所
飞逝
persistent
‡
paste
dale
群峰
选集
周文
澈
暖流
b7
开度
李泽
创办人
胆识
金泰
之灾
金乡
拘束
##爸
lightning
简装
solving
yt
stain
元月
陈丽
僚
6600
剪开
遮荫
液压机
好景不长
挎
64gb
577
谁敢
思源
slaughter
参建
##溜溜
##痢
倭寇
野鸭
窗边
东北角
安踏
diagnosis
##rr
护理学
processed
电芯
别出心裁
ieee
撞倒
leagues
jos
浮选
收买
神力
便器
stereotype
创维
汉唐
脸面
盛事
痈肿
##戚
忍无可忍
21000
狂暴
老小
民调
意气风发
fro
invalid
笨蛋
乙未
二百六十
临时性
escaped
香河
namely
月儿
疾风
杨广
嚷嚷
不妙
内嵌
丁酉
955
证券化
青楼
不屈不挠
pros
1210
暨南
四会
洗地机
024
炸了
亏了
nw
##沽
828
##sson
后车
ape
得志
坑爹
木本
sacred
##翎
##rel
716
##nant
白粉病
小鱼儿
497
南大街
8888
背胶
attributes
笑颜
红蜘蛛
于一
##graphy
差值
睫
西塘
hus
定远
不切实际
杆子
竞速
铜矿
灵石
粘上
洛神
慌了
口述
二话不说
蘸料
浓墨重彩
后记
凉山州
鲜叶
##ulate
层层叠叠
调处
决斗
##啦
谋反
志士
讨价还价
黑车
敷料
戒备
几类
近代史
嘧啶
loyalty
##nne
ner
压力机
滑石
consultant
食人
调直
##fs
##激
光速
gel
分生
金鼎
时宜
石嘴山
龙溪
伊宁
打假
掌门人
##茗
青鸟
温阳
水带
复叶
剑法
百家姓
溜冰
##unt
狂人
绍酒
713
limiting
专列
肘部
天路
迈锐宝
卡钳
粉末状
冷痛
奏效
诸子
守门员
信鸽
有方
丙烷
郑某
大骂
##matic
叽叽喳喳
相惜
入网
仙鹤
礼遇
wrist
还田
dude
牙槽
supportive
环游
抗冻
ウ
静海
##urg
出使
altered
艾瑞泽
清肠
无济于事
057
attacker
麻袋
牛筋
随波逐流
小暑
##ash
恣
6400
##ius
伤悲
暑热
一胎
窘境
反对派
捣乱
中置
沙溪
探查
小卖部
送行
吐痰
gods
无愧
purchasing
熟化
护墙
apology
028
盐类
肋间
股利
三实
夏枯草
integrate
追平
北麓
初选
试验室
高安
germans
耽
colin
载有
##裳
开灯
陀罗
玉米粉
万通
枭雄
两瓶
半途而废
affecting
analyses
付钱
乘务
鬼怪
##叟
stepping
责任险
任课
凭空
充饥
与日俱增
超能
氧基
三昧
丢脸
affirm
ب
术士
tactical
1314
杀生
助长
二队
菜油
漆器
strat
港台
拱手
上流
chef
582
越狱
白天鹅
relating
dies
徐悲鸿
实实
assumptions
潍
下关
胜仗
wii
撵
实况
黑熊
照度
测序
commerce
包公
生机盎然
碾碎
nom
熔体
慌忙
hoo
汨罗
弓形
加力
飞燕
摊销
幻灯片
服装厂
切掉
ipa
edges
diabetes
冰上
榨油
回水
kos
宣统
缔结
卡里
uncle
无影无踪
巴西队
仨
倏
865
平复
levi
临风
谪
##茧
三头
笠
峥嵘
sour
红皮
workout
大寨
诸神
arise
encryption
喃喃
imperial
矿渣
coincide
accuse
比价
演过
量级
大动脉
蜗
卢氏
冷眼
吾悦
俯仰
调集
admission
根深蒂固
ports
practically
##闪
揭发
千千
708
中雨
夜店
果粒
落网
富丽
尖刀
茶农
婉儿
润玉
中介费
长汀
ブ
嘻
##窦
b5
crow
程咬金
市电
超高层
未婚夫
江湾
杂念
翅片
##lve
绽开
斯基
bern
由来已久
outdoor
暴君
附表
九洲
pw
嫣然
蜀黍
40g
枳实
顺带
互信
喷雾器
极乐
鍒
0012
筒灯
thoroughly
面宽
赤字
网剧
##lain
生疮
幅员
8gb
渡河
生火
强拆
选调
萨达姆
郓城
万里长城
门路
小村
大悟
tattoo
课桌
庇
动脑
爱马仕
exceptional
多色
不轻
♀
增补
80s
九鼎
蝶恋花
油盐
刀柄
鲁山
richmond
075
气喘吁吁
休眠期
chemistry
杨坚
origins
二八
mueller
参展商
自卫队
撅
背对
ela
摄氏
消解
photographer
利咽
不悔
蜜柚
丁俊晖
592
剁手
白炽灯
##牍
被罚
析产
道岔
超短
温家宝
消音
小肚子
升官
转接
捉摸
篓
石上
受宠
外行
自保
利胆
tooth
开模
锐意
右翼
有错
邛崃
快干
爵位
晚风
煮烂
贵子
把门
lung
刻不容缓
了了
霁
教改
gangs
弗拉
纵火
阵子
铜鼓
米面
平南
铁门
其意
伯恩
振捣
大盆
vow
耳畔
呼吸器
政教
桂平
零零
##vat
蒙迪欧
闭目
避雨
严打
摩天轮
活动性
体色
整片
管口
nationalist
大浪
##馥
不厌其烦
鳝
ware
宋庆龄
私塾
##ffle
银鱼
小病
工业品
地宫
大溪
##rid
scho
大吉大利
旋翼
batter
红唇
乳粉
白痴
intensive
娇妻
阳线
佛寺
能动性
碎碎
身孕
秦桧
松岗
北京城
生煎
mitch
晶状体
马英九
长牙
卤肉
buses
锗
新修
纯银
喷油嘴
问鼎
宫里
abused
aero
buck
熬粥
正骨
副乳
##锣
ches
ssr
##钏
##mond
gue
左臂
脱节
人造板
##we
籽料
scare
烧茄子
能带
jh
深褐色
raped
musicians
诵经
##ening
内阻
bk
得胜
颜真卿
##虞
正方体
夜深人静
眩
奉天
魔咒
长轴
##mas
天啊
汝南
茶厂
神兵
中高级
持枪
raiders
张学友
全彩
milli
尉迟
##tas
domini
安安静静
underway
##tics
油桶
破溃
消化性
侧卧
画布
宋史
华能
ナ
raj
宠溺
时差
和声
合拢
glen
##ller
梁家
宏图
超脱
编辑器
predictions
vikings
老叶
retro
防污
##瓣
伸进
破发
放声
梧桐树
明史
ging
碎裂
扑通
喜气洋洋
入耳
宇航
趣闻
立管
heated
ㄥ
firefox
coco
##恢
海鱼
tender
##0;
根植
炼制
美标
中越
defining
云贵
批号
可恨
须要
空置
zoo
改过
statute
otto
越王
黄淮
681
零碎
湖区
offshore
杀出
包退
browns
回甘
品学兼优
陈平
星途
全羊
看热闹
风骚
广汉
连声
tiger
孤僻
干将
进口量
会得
山脊
mortality
菲利普
刺破
##tain
二百五十
disclose
李铁
冰晶
barn
利刃
如一
灾民
鸡血
crashed
龙港
两口子
亨通
cares
米粥
合众
frames
轻信
赘述
椰汁
zr
pred
invo
荣立
正字
跪下
握紧
巴比
鲜汤
折价
胶辊
locals
##tha
陈德
高某
禁烧
人生在世
多尔衮
有所作为
梦魇
辆车
油类
跳进
鸡蛋饼
端上
三度
tot
bikes
偷工减料
吸出
受托
无源
delays
labeled
包河
井井有条
jai
邹城
至高无上
所到之处
篮球队
沛县
暂缓
便溏
##ood
淡妆
双休日
zhao
locally
瓷片
##们
黄玉
冠脉
jeffrey
退路
葱头
柯基
ν
和亲
巨浪
hil
路西
绿卡
浸水
豉
硬生生
plea
##劣
端倪
crowded
assembled
心气
爆冷
小钱
陵水
废铁
##pse
lance
斩首
腓
喷浆
迷妹
定投
逃窜
obligation
善举
modes
青木
seizu
浣溪沙
shir
landmark
炸开
milan
超时
前侧
柞
共事
occurring
bishop
蹶
publishers
水机
6th
双门
伏特
divisions
志盛
##lay
罗茨
佝偻病
swi
鑶
清贫
八达岭
appoint
滑石粉
剧透
##浚
富丽堂皇
巴音
燕尾
한
洽谈会
出警
旺铺
抽风
##ination
谱曲
鼻窦
罗某
mik
丹江口
甾体
##冥
electronics
sisters
costly
供电所
创出
松山湖
青紫
臣子
益胃
三份
细选
插穗
费尔
白河
名篇
黑子
sounded
绝配
教导员
##ffer
盆友
胜者
柳江
肩颈
宗室
旭凤
惭
crowds
dioxide
nodes
圆点
##rch
餐前
岩茶
欠薪
别墅区
✔
hydrogen
compos
类固醇
澄海
vessel
包钢
利索
青瓦
curb
帕拉
淡水鱼
preted
笑眯眯
改厕
集齐
无垠
090
##翊
##nn
633
fundamentally
当事
包衣
人情味
##冕
多巴胺
药妆
飞花
jk
北苑
上吊
调头
laboratory
搂着
装甲车
##尤
景泰
岁末
科级
沪昆
下厨
##恪
iceland
蔡依林
horses
##璞
铁轨
慢慢来
substantially
regulated
bloody
诬
无我
687
超高压
疮疡
小说家
饥荒
膀胱癌
剪板机
憋尿
烦人
afterwards
##幽
完好无损
法兰西
秀出
着落
层板
neu
tao
丧命
砧板
此言
李小龙
😄
某日
smc
楼高
reign
苦干
佳苑
法务
丛中
疗伤
shootings
¶
walt
梳妆
尽职
光秃秃
金蝉
expressing
奇门
xb
掸
盘口
制鞋
019
👉
采挖
境况
老鸭
joel
先让
crap
黑曜石
艰险
ruin
单晶
梅花鹿
##被
蓑
刷机
beard
photography
领子
marin
痛楚
png
functioning
michel
高圆圆
四根
警犬
花市
长卷
新装
priced
一升
耳闻
assassination
何妨
何如
主客
商检
罗氏
五龙
##即
行礼
蓝牌
郢
亚特兰大
donate
日向
洛韦
嗽
rankings
砀山
演员表
常有
ferr
泰森
有请
乙木
冰球
热浪
看戏
bx
节奏感
饭量
苟且
c9
大中专
##宛
磐
mona
vh
岁岁
宅院
切线
奇缘
千辛万苦
钯金
thunder
##ii
高得
小刚
黄黄
disadvantage
##拖
小兰
农委
顶替
怀胎
粱
鬼魂
畅销书
745
香芋
愉
国槐
宋家
原水
普工
国名
##谏
手稿
entries
余处
姻
片场
桀
王昭君
泳装
类目
麻酱
蕃茄
toys
嫖
辛集
辜
篡
消防队
提纲
broker
泰拳
僖
水电费
##hips
打鼾
乳山
红原
认同感
萝卜丝
##zzle
昭示
e4
品性
##tine
叛徒
诬陷
closure
化生
贡献率
稠度
华文
恐惧症
回用
卡子
乐福
巡展
代步车
proc
告一段落
庇佑
藕粉
去病
插销
classroom
bts
彩椒
老远
小姨
cox
辣汤
狮山
bie
喀纳斯
罪人
临场
练好
预收
街景
忘机
射雕
只限
黄志
pronounced
大曲
开好
囚犯
杯水
肛肠科
思维导图
##喘
明锐
烦渴
南澳
916
生物体
dealers
prof
五十四
ments
spel
##oa
fh
hype
##签
盘式
dim
煎蛋
顺风车
守则
沙哑
秀山
东林
南瓜饼
无核
集热
##德里
神疲
territories
发烧友
一三
garcia
快跑
无霜期
广进
hcl
蕨菜
龙脉
食者
氟化
后段
delight
干布
d7
12345
蜷缩
一筹
取食
伞形
insists
啰嗦
赞歌
流芳
文竹
缔
嗓
塔拉
##uth
查房
忌神
牧童
interve
枫桥
舂
##毙
lauren
耶鲁
老妇
##uch
鬼王
针尖
fle
花露水
标准版
娶妻
大兵
midnight
玄学
spotlight
calculate
辽河
招架
二日
尾货
母羊
余晖
寒露
触即
当人
常春藤
##遁
vegetables
上盆
叫停
回回
clone
家世
##醛
榭
大任
汇通
偿付
homicide
佃
量力而行
一二三四五六
041
透风
双飞
迎春花
杏子
万豪
日粮
争冠
testified
contractors
单核
陈冠希
##猷
长流
巧手
karen
痿
埋头苦干
597
649
解约
condo
丁火
肤浅
一星
yb
稳态
洞察力
governance
音律
电火花
霓
配乐
闽江
兼程
现世
切刀
法轮
少时
抗弯
芈月
embassy
外展
五十三
aids
止疼
红黄
helen
飞流
carriers
拂面
向心力
pru
arabic
宴会厅
威马
原浆
unlimited
调查组
刹那间
skeptical
瘦瘦
婆罗
privately
塞外
##ago
团建
云峰
富察
一命
呜呼
rings
昱
楸
832
##偶
杨林
chains
wade
回廊
##篱
用词
方志
风和日丽
遐
吟诵
棹
v10
隐士
目不暇接
hispanic
欣欣
黄曲霉
月入
悲情
banglade
帮派
凝集
冰河
nad
##千里
ⅴ
四部
擦擦
proportionate
变窄
克拉克
深红
登门
访华
行凶
言道
转手
屠夫
元稹
##矢
神似
应援
##600
缨
##uit
烁
822
##鳞
县道
泰斗
bella
宽恕
嗡
conced
排布
娃哈哈
上海滩
操刀
tul
扩增
ignoring
截肢
569
南越
大脚
巴克
unrest
列队
sponsors
##raph
执行局
##osis
餐车
龙纹
一脉相承
‹
影业
exercises
架桥
##疤
奥义
命宫
i3
0021
precedent
circum
一劫
串珠
戏剧性
##bert
qualities
neg
没想
英雄传
寄主
华发
无伤
吉普
隐隐约约
放血
socket
mou
连理
鲁智深
中脉
婚嫁
871
thrive
卡西
污点
子叶
资治通鉴
不太
憋气
订金
##city
青玉
公路局
无间
k4
659
蓄能
胡家
medication
##姆斯
苗子
quinn
高富帅
น
cargo
785
丁卯
东进
电子秤
上校
粮草
墓穴
索菲亚
心切
shaw
嘉陵
mercedes
水果店
6200
宋仲基
超微
外溢
何乐而不为
购买者
怀特
##uce
义齿
讷
朝野
单发
脑神经
胎芽
lian
有得
晶硅
worm
sensitivity
##羚
translate
菲菲
水泥浆
主梁
enrich
searches
accidentally
corre
干洗店
正果
质料
法桐
黄鹂
光能
contra
西方人
observers
##滥
酥香
风景如画
云杉
匕
bannon
青年报
holmes
棉纱
刁难
凡间
孜然粉
##泼
##鸾
wat
哈雷
inde
羞耻
##pen
牙龈炎
accountability
fw
阁下
##onic
塞上
信义
怨气
舞台剧
祁连山
症结
张庆
水彩画
带病
807
##弊
enthusiasm
固始
韩国瑜
倾泻
bmi
拿掉
##洵
僵持
梵高
ammunition
behaviors
务求
lam
二百五十三
附魔
蜜糖
两艘
流道
堆场
埋没
壁灯
重演
二百四十
陷于
沓
死守
grim
果壳
穿墙
accent
过弯
韬
##rma
正本
spurs
颐养
分集
陌路
##ject
干呕
天星
迷惘
mich
##ust
灌入
luis
机甲
型男
申请者
壁挂式
楚楚
刀法
新近
海派
vitamin
玄宗
rj
blanc
翻腾
眼疾
historian
天虹
gem
##苯
零陵
无人问津
银幕
护国
##ball
败给
餐椅
sticks
629
斗篷
鹅肝
三藏
四子
preneur
喜光
斜纹
放人
##nc
败血症
金枝
川东
同色
厨柜
回龙
cheat
大船
toyota
684
eddie
色相
rever
莲湖
小舟
709
公署
bei
质变
飞碟
强碱
att
mj
r9
有味
728
长夜
曲柄
tourism
消灾
斗士
冤枉路
飞升
apologize
煤粉
c0
incorporate
倒扣
精确度
萌动
讨喜
吃面
5kw
基带
快闪
以次
吊杆
吵醒
世袭
东胜
飞机场
胃火
憎恨
做功
dir
假释
死伤
revised
范蠡
grandfather
人偶
墨色
suited
渗透压
acute
仁者
迪亚
spacex
赤裸裸
李丽
门庭
玥
宣战
荏苒
大伙儿
##ising
太尉
货号
17k
经济林
塔塔
xe
后厨
穿透力
streams
##bor
斯蒂芬
北师大
气态
铺地
demonstrations
装填
湍急
bolt
819
莫言
小虾
##椿
屽
张红
塔吉克
1830
采信
connor
供职
华新
片式
thai
libertarian
distribute
切片机
princess
生意人
##俑
celebrating
##赌
##inal
电阻率
aide
恪尽
攘
apo
看破
vincent
鎏金
州立
##番
分封
四成
清一色
萨博
盒装
忧心
乔布斯
民权
玻化
##ching
href
高阶
lips
撩妹
白肉
璐
风油精
拼凑
无所事事
一箭
车款
glimpse
biden
管式
环球网
veto
违禁
袁家
花上
资信
loses
农科
阿娇
阡陌
长江路
光标
##ald
普陀山
昭君
回音
灼烧
鲁豫
广告词
祖坟
柬
ゃ
魅惑
网面
belongs
奸臣
亮出
637
confusing
石井
##祁
##帛
新朋友
细软
1896
迁建
湖心
黎巴嫩
肥胖症
1cr
confidential
阳谷
塔城
观叶
甜蜜蜜
metres
公仆
沈梦辰
一章
尾随
歇息
变强
犯困
送电
荒谬
凋亡
猫狗
野果
共聚物
管理站
氮氧化物
康德
行当
显高
高教
sneak
界首
无拘无束
平卧
丫丫
开塞
账目
混纺
fines
哗啦
工笔画
脱粒
知情人
attain
养车
飞起
desperately
边城
坍
地震局
入行
粉彩
跺
短毛
手电
误工
恒生
历年来
rin
韩红
动乱
草木灰
regain
整编
晴好
新纪元
马士
摘抄
木槿
刘云
续签
d4
今年初
##cti
群英
精辟
##oe
固守
851
推动力
resistant
sweep
等边
差速
killings
得逞
喘气
难处
泥潭
散货
militant
##sco
水工
压到
gucci
钛金
陆生
阿伦
结点
施耐德
龙光
symbols
退步
壁炉
挂图
刷头
警戒线
大难
地府
不醒
府邸
明矾
肺腑
谋士
酷酷
小臂
灰分
张瑞
644
艾克
李连杰
本纪
##itt
颔
悬吊
妙手
亚当
chin
衬套
宝沃
stealing
灵力
五十一
学力
reduces
首台
吉首
结束语
果业
##alo
跌到
没劲
达尔
心满意足
##柚
闲话
作对
rolls
##sky
glasses
##aki
swan
华清
坦桑
ず
运价
王勇
相濡以沫
生父
堆叠
662
城厢
大气压
v9
withdraw
pine
活灵活现
occupy
冰霜
如鱼得水
牛肚
##tur
bash
whilst
美育
artistic
##燊
plates
砖石
电缆线
dangers
krist
so2
亚欧
apollo
活塞环
烟云
兼得
1820
李湘
##teen
##rad
浒
站姿
半包
钢梁
细胞壁
值日
权责
一刀切
血战
溃疡性
罪过
高亮
悬崖峭壁
小海
扶风
gao
发烫
卡顿
885
熊市
葱丝
宇通
骄阳
emily
居住者
检验科
宏达
选股
hans
磨合期
八中
近身
街办
下辈子
要务
刑拘
非处方
软布
菩提心
多利
敷脸
阿米
刷刷
没见
致敏
丰泽
flowing
activated
虔
绝情
单点
重围
presidents
midst
丙午
劫财
毒液
电位器
975
collar
纺纱
张继
寓教于乐
伽罗
托板
mild
先走
嘞
马可波罗
闪避
晶圆
rope
床品
嶂
华亭
卢比
石像
悲愤
寒邪
听雨
输赢
自爱
张宇
牲
枪声
发硬
青莲
港务
出师
棕黄色
九华
猕猴
##咒
猪手
过火
摩拜
代代相传
轻狂
芝罘
高淳
口口
denying
风平浪静
flex
灞
拦网
拖拉
tommy
布林
侍女
wells
##cho
小卡
枯叶
沃特
嬷嬷
稻城
原意
顾忌
雄激素
988
泳衣
喷码
皎
遇难者
硫酸铜
点焊
medi
##gra
披荆斩棘
严酷
成长性
珠帘
同乐
jud
彪悍
上上
撮合
无止境
洪亮
拉大
automated
##vy
塔顶
热管
employ
##倾
faithful
纵贯
horizon
补交
三所
的士
absent
尽如人意
岁时
叔父
新语
扬名
##炬
错事
延寿
bau
算式
tigers
静物
nin
饽饽
烟消云散
碰瓷
桥段
潮阳
殃
乐享
草图
安床
##苓
豆渣
猫腻
浅薄
小数点
peng
热泪盈眶
神社
本心
12th
最冷
林徽因
ore
红娘
##斯顿
榄
张旭
那头
decisive
algorithms
老幼
西南角
旧情
psi
measurements
##橘
enters
钓点
现场会
朱丹
地台
shipped
单片
philosophical
后仰
##pot
深交所
视窗
彭城
pron
开大
variations
别怕
junk
宝应
本位
检方
拳手
砾
destructive
功夫不负有心人
航空兵
张秀
布罗
##纺
汰
露娜
流亡
寻宝
▍
中上
粉皮
凝神
战地
比基尼
881
白瓷
贺龙
打打
##wei
灵璧
白衣天使
ths
民族英雄
预交
日日夜夜
##rg
糖色
confront
nyc
cooling
油库
侍奉
簸箕
睡袋
经书
讽
径流
首末
solicit
毯子
homosexual
川藏线
瓯海
三进
猝不及防
变长
907
monument
庸俗
##祜
断路
responsibiliti
胸罩
转给
平顶
##鲢
大埔
##巴巴
蒜苔
矜持
木木
volumes
揖
何来
burger
诉称
半日
国共
钢绞线
油机
liz
straw
751
zc
billionaire
校门口
塞入
丑恶
劳碌
906
lj
刘嘉玲
羽状
上党
铺好
车削
药片
中江
##啤
除法
五座
神威
膀胱炎
elisa
pea
俗名
鹧鸪
蝌蚪
沙尘
publications
halloween
浴巾
د
享福
抬腿
杜康
prey
海外版
仲夏
紫气
硝酸盐
呻吟
##贸
刘向
圈养
色块
fortunate
##扑
生水
0022
刺耳
扇面
1011
几朵
鞋类
共和党
塔里木
squeeze
总价值
ょ
##gent
贺岁
594
壁挂
腊味
一干
shanghai
用字
austria
##励
委任
前些年
晋安
言传身教
luna
spite
sali
张若昀
esc
猜疑
学成
副食
长歌
手拉
##犀
变坏
freshman
情思
乐此不疲
白玉兰
丹心
suppress
干粮
荒诞
流云
岛国
加纳
郭富城
收好
销售员
tracked
714
轧辊
生卒
二更
丹桂
汗珠
畜生
自爆
##咬
呼啦
取暖器
发凉
尼斯
##dro
外运
坏话
sod
petro
emphasize
安琪
笔筒
杈
虚报
##gas
declining
走强
子胥
赛拉
欧曼
中底
秋裤
地龙
破格
brick
cheng
两广
汉化
大案
贴标
##ele
赃物
畅所欲言
spirits
脂类
票数
高呼
经典之作
correspondent
mccarthy
zach
教皇
##fl
的真
宏远
sive
五台
丧偶
##喝
脱氢
fpx
pitcher
靳东
uu
远视
sells
一水
##矾
神童
潘家
体悟
gul
南朝梁
王平
野菊花
旋涡
loot
机务
锐界
花生酱
裂果
三下
##pl
爱迪生
tricks
mathematical
评析
林志颖
油轮
夏夜
闪光点
贝斯
17th
##sters
作答
集权
微动
德才兼备
夹头
股息
schu
newest
悍马
锲
迥
安顿
恣意
##侃
择业
phd
zj
1003
贷记
莲花山
laughs
起跑
外交官
relies
股长
大智
clouds
西北风
adrian
布条
傲然
龙洞
克林
可持续性
馥
方钢
劳苦
proxy
织带
缤智
租界
紫竹
逾越
觉着
唱戏
啄木鸟
待见
化州
dlc
潮气
甲寅
纯白色
人工湖
二桥
同情心
中银
lighter
祁门
achieving
##光明
闲逛
cq
蒲城
发大财
齐王
##姣
火车南站
心结
支取
hughes
吹出
这周
extends
净额
##fr
捧场
mold
903
该所
沧海桑田
生猛
薄雾
加餐
久治
迸
relate
筹办
经久不衰
手推车
单证
石质
crawl
prom
跳投
playback
##巫
曾几何时
jag
hostage
陈云
反比
云飞
冷热水
咽下
756
aqua
植酸
两县
火辣
643
赛期
心上人
战国策
示波器
招待所
hon
大亨
澧
蓄热
661
lite
耽搁
求和
密植
ノ
跟人
隽永
663
1005
卧铺
膘
修士
白手起家
济阳
闲来
迈凯伦
manages
聚散
clarke
麋鹿
706
cancelled
卢克
翻番
不负众望
尾数
施放
东大街
outlet
山根
坐船
电子化
天津港
klein
schemes
早茶
屠宰场
出水管
kro
maintains
wis
阑尾
朝夕
暂住
clarify
香江
明洪武
rode
荞
脱垂
天灾
虚损
纸屑
喜获
新沂
蓝山
丽丽
packers
精矿
击剑
单笔
压敏
laughter
cant
高筋
幡
hedge
ofo
928
扑火
出逃
restrict
kee
##扯
洗脱
技能型
glory
疑心
卡佩拉
太忙
forests
条条
记不清
虚荣心
贝勒
电报
roa
墓志铭
##寇
coastal
vir
黑影
空余
水灾
颍上
过问
懵逼
太公
液力
活该
条目
九重
遗书
卑鄙
本尊
校尉
supervisor
restored
田村
横着
泊头
##珺
预防针
##nu
80000
标点
genuinely
digit
学弟
实线
exempt
##垠
博格巴
怠慢
13th
泄洪
incoming
塔身
虚化
##里克
绅宝
市价
去油
天公
调质
担架
热干面
广博
触手可及
##斥
大丈夫
adverse
anonymity
##窖
白洋淀
045
merit
五五
各型
wart
酥皮
大事记
姚晨
分频
##岑
烂尾
髯
截取
耐水性
二爷
灰烬
kap
欠债
墓前
农人
tide
浅绿色
四叶
stri
氛
licenses
刺刀
不可估量
sierra
后主
一梦
浩荡
桉
可别
腹内
amateur
渥
政审
732
##graphic
合二为一
##爻
皂甙
二姐
微乎其微
傻眼
芒种
算账
doubted
727
茅山
portray
高栏
零落
外痔
起落
畲
consuming
1580
5x
深奥
tid
万源
盘踞
非农业
subway
obligations
kris
王石
battlefield
navigation
初代
霓虹灯
女婴
分心
flame
##tori
国务
nickname
自曝
帝都
永福
biology
##老虎
东川
冰敷
格尔
nap
解雇
轮作
prevention
适逢
星宿
悟性
meme
偿债
玉佩
马场
句式
文末
枪口
头巾
大竹
吉隆坡
天女
##uro
attribute
干草
hunger
可也
希冀
共聚
殊胜
武钢
自下而上
minus
老婆婆
命理学
包机
demonstrates
梅兰芳
advise
圣灵
薄饼
无性
佸
springs
天行
张韶涵
银花
菌斑
cruel
文化路
节间
眼花
各有千秋
抛物线
goat
王成
对子
于正
药厂
789
比照
kx
disappointment
ipod
英明
法王
##霏
不认
专治
韵母
尝到
bru
炫彩
奉节
dns
很帅
锦城
月票
脖颈
西口
nokia
60cm
新衣
优厚
rot
misconduct
饼铛
孔庙
善心
如出一辙
1070
看多
cliff
油润
curse
短评
关西
大肚子
个体化
李忠
##ndi
木棉
大干
duncan
溪边
阴冷
眉形
铁杆
wounds
根雕
一景
浮萍
池底
朱文
饱经
藓
重振
动产
血泪
嘉宝
##随
弹片
boeing
续集
clue
放送
##uo
cata
转场
海州
底数
内行
相亲相爱
摞
气浮
强县
使用费
头皮屑
南延
invisible
粳
vowed
teenagers
corrid
进山
石竹
缺憾
##ache
guilt
生花
吃水
联创
1030
第一手
compiler
启幕
tackles
金域
fia
霓虹
蒋欣
r15
先试
aboard
布设
九宫
ez
##rf
春雷
pom
残骸
事理
絮状
忍术
修习
高亢
秦时
仁怀
配戴
健美操
人丁
稠密
stir
癸水
溥
核动力
warn
##轲
配售
献唱
995
郭晶晶
周海
俗气
nutrition
箩
镇咳
甑
绵竹
polar
正南
埋弧
特立独行
临产
报喜
造访
sexuality
西园
财团
北非
##gor
魏延
##犹
搬砖
水柱
夏洛
钽
林允
基督徒
##而为
stro
行署
20ma
##绰
氙气
闲情
##att
switching
spends
莫高窟
autism
长安城
聊着
contamina
迈步
ι
姹紫嫣红
免赔
竺
母语
花田
马兰
转诊
交投
啜
lgd
大荔
useless
浅显
嫔妃
叮咛
绸缎
##疝
康师傅
惊鸿
异曲同工
榆次
战俘
系列化
受访
justification
陈宝
婀娜
厨电
仪征
conquer
船队
malware
刷毛
耐受性
kane
organizers
qx
mohammed
焦躁
原指
disruption
railway
张衡
和成
##娶
作客
outlined
宋国
potter
神秘感
吕后
b4
开成
gs4
铁山
兴城
头尾
##hou
二头
米家
杀毒
菊酯
公变
格罗
z3
亲热
概要
期房
教练组
hag
##ogen
串通
adapted
国青
超滤
酱菜
淡红色
迁延
生辉
霓裳
种粮
磨灭
审结
ek
##chu
笑谈
硬着头皮
heal
conn
pwm
甲申
普林
海陵
陈奕迅
缤
德宏
赵敏
展架
聪明伶俐
老歌
伏笔
贪欲
如火
辉县
节操
大年夜
硕士生
官微
警句
##sto
菜籽
川味
有说有笑
一过
靛
放平
centered
闹剧
杀鸡
空转
酸汤
分房
qg
移步
bir
复盘
stimulus
enthusiastic
其内
空档
赣江
905
中证
诏书
快看
育雏
压型
井陉
゛
最高价
肱骨
道奇
好菜
自走
单招
择日
自恋
渎职
预混
抹黑
怕死
咬死
双眸
入秋
停经
d8
退位
##sity
朝北
冠军赛
剩女
castro
hap
云和
利尿剂
首层
马步
毁损
半壁江山
wow
##俄
没事儿
揩
念书
预感
核糖
网路
银滩
连山
合著
浴池
爱看
化油器
迅雷
##lk
出街
912
折叠式
特发
jen
##sin
屋脊
贺兰
八国
款待
小鸭
堇
upside
碎末
火情
马儿
##秽
nobel
##enti
特兹
内销
带土
中印
申论
nonsense
高年级
##哧
凤鸣
reb
chim
purple
##wl
短租
工业部
革质
名宿
合身
身前
二部
花哨
广岛
小字
蓝本
fascist
小村庄
矮化
谢尔
傲人
profitable
鸡内金
毛边
gag
benchmark
analyzed
原辅
编办
习气
sporting
幽谷
智障
marl
理睬
refusal
剪影
时政
南桥
676
drilling
华宇
瞰
自测
昂科威
剩菜
十种
中村
北疆
博格
猎头
吃人
王忠
coll
p8
守恒
晋商
京东方
月利率
不惑
wid
spi
mani
古语
risen
理直气壮
[...]
