<pad>
</s>
<s>
<unk>
<0x00>
<0x01>
<0x02>
<0x03>
<0x04>
<0x05>
<0x06>
<0x07>
<0x08>
<0x09>
<0x0A>
<0x0B>
<0x0C>
<0x0D>
<0x0E>
<0x0F>
<0x10>
<0x11>
<0x12>
<0x13>
<0x14>
<0x15>
<0x16>
<0x17>
<0x18>
<0x19>
<0x1A>
<0x1B>
<0x1C>
<0x1D>
<0x1E>
<0x1F>
<0x20>
<0x21>
<0x22>
<0x23>
<0x24>
<0x25>
<0x26>
<0x27>
<0x28>
<0x29>
<0x2A>
<0x2B>
<0x2C>
<0x2D>
<0x2E>
<0x2F>
<0x30>
<0x31>
<0x32>
<0x33>
<0x34>
<0x35>
<0x36>
<0x37>
<0x38>
<0x39>
<0x3A>
<0x3B>
<0x3C>
<0x3D>
<0x3E>
<0x3F>
<0x40>
<0x41>
<0x42>
<0x43>
<0x44>
<0x45>
<0x46>
<0x47>
<0x48>
<0x49>
<0x4A>
<0x4B>
<0x4C>
<0x4D>
<0x4E>
<0x4F>
<0x50>
<0x51>
<0x52>
<0x53>
<0x54>
<0x55>
<0x56>
<0x57>
<0x58>
<0x59>
<0x5A>
<0x5B>
<0x5C>
<0x5D>
<0x5E>
<0x5F>
<0x60>
<0x61>
<0x62>
<0x63>
<0x64>
<0x65>
<0x66>
<0x67>
<0x68>
<0x69>
<0x6A>
<0x6B>
<0x6C>
<0x6D>
<0x6E>
<0x6F>
<0x70>
<0x71>
<0x72>
<0x73>
<0x74>
<0x75>
<0x76>
<0x77>
<0x78>
<0x79>
<0x7A>
<0x7B>
<0x7C>
<0x7D>
<0x7E>
<0x7F>
<0x80>
<0x81>
<0x82>
<0x83>
<0x84>
<0x85>
<0x86>
<0x87>
<0x88>
<0x89>
<0x8A>
<0x8B>
<0x8C>
<0x8D>
<0x8E>
<0x8F>
<0x90>
<0x91>
<0x92>
<0x93>
<0x94>
<0x95>
<0x96>
<0x97>
<0x98>
<0x99>
<0x9A>
<0x9B>
<0x9C>
<0x9D>
<0x9E>
<0x9F>
<0xA0>
<0xA1>
<0xA2>
<0xA3>
<0xA4>
<0xA5>
<0xA6>
<0xA7>
<0xA8>
<0xA9>
<0xAA>
<0xAB>
<0xAC>
<0xAD>
<0xAE>
<0xAF>
<0xB0>
<0xB1>
<0xB2>
<0xB3>
<0xB4>
<0xB5>
<0xB6>
<0xB7>
<0xB8>
<0xB9>
<0xBA>
<0xBB>
<0xBC>
<0xBD>
<0xBE>
<0xBF>
<0xC0>
<0xC1>
<0xC2>
<0xC3>
<0xC4>
<0xC5>
<0xC6>
<0xC7>
<0xC8>
<0xC9>
<0xCA>
<0xCB>
<0xCC>
<0xCD>
<0xCE>
<0xCF>
<0xD0>
<0xD1>
<0xD2>
<0xD3>
<0xD4>
<0xD5>
<0xD6>
<0xD7>
<0xD8>
<0xD9>
<0xDA>
<0xDB>
<0xDC>
<0xDD>
<0xDE>
<0xDF>
<0xE0>
<0xE1>
<0xE2>
<0xE3>
<0xE4>
<0xE5>
<0xE6>
<0xE7>
<0xE8>
<0xE9>
<0xEA>
<0xEB>
<0xEC>
<0xED>
<0xEE>
<0xEF>
<0xF0>
<0xF1>
<0xF2>
<0xF3>
<0xF4>
<0xF5>
<0xF6>
<0xF7>
<0xF8>
<0xF9>
<0xFA>
<0xFB>
<0xFC>
<0xFD>
<0xFE>
<0xFF>
▁,
▁.
▁
▁a
▁de
s
▁-
▁(
▁in
▁)
▁la
▁en
▁the
▁'
▁l
,
▁e
▁、
▁。
"
e
▁di
▁:
▁s
▁の
n
▁of
i
▁y
▁and
▁to
▁в
a
▁is
▁que
▁die
▁el
o
▁le
▁и
▁un
▁se
▁der
t
▁的
▁et
▁o
▁に
▁on
▁を
▁und
▁d
▁i
en
▁A
▁на
▁del
▁na
▁1
▁des
▁il
’
▁da
▁sa
▁は
▁con
▁年
▁が
▁van
▁à
ng
▁た
▁و
▁2
▁t
▁te
▁was
▁«
▁...
▁si
“
▁do
▁;
▁/
▁no
▁an
،
▁du
▁es
▁ja
▁as
▁で
▁u
▁The
▁–
ed
▁と
▁los
m
d
▁!
▁una
▁para
▁3
▁с
а
▁por
▁at
е
▁les
er
▁for
”
▁С
▁het
▁est
▁し
es
r
▁n
▁?
▁La
▁5
▁per
▁In
▁von
▁В
▁4
)
▁su
▁а
▁be
y
▁S
и
▁yang
▁dan
▁pa
▁・
▁r
▁C
c
▁»
an
▁|
▁I
▁een
u
▁den
▁che
▁ng
▁er
।
ing
k
▁mi
▁with
▁ה
▁by
▁—
▁6
▁m
▁10
▁B
▁las
▁im
▁em
▁En
▁une
▁في
▁g
▁在
▁it
▁по
▁mit
▁در
▁M
▁L
▁T
▁that
▁не
▁como
▁за
▁от
▁me
▁com
▁E
▁ב
▁7
▁das
▁am
▁ang
▁من
▁P
-
▁К
▁8
»
▁के
▁て
.
▁della
▁Die
▁zu
▁De
▁dans
▁και
▁به
▁А
▁「
▁Il
▁lo
▁ta
▁O
▁um
▁op
▁ל
у
▁Le
▁D
▁è
ی
▁so
▁dem
▁pour
▁」
ς
▁ve
▁של
'
▁he
▁K
▁or
▁月
h
ы
▁kan
▁met
▁日
▁và
ly
을
▁ma
▁12
te
▁from
▁ka
ta
▁El
▁son
▁wurde
▁%
▁9
▁qui
й
х
▁az
▁auf
▁és
▁mente
ой
▁„
▁از
▁c
▁his
▁ko
▁する
м
의
in
▁ال
▁11
▁του
▁ha
▁20
▁für
▁Б
ó
re
ом
▁sur
l
▁года
▁में
ים
ה
ه
▁中
▁0
َ
‘
▁tu
▁е
▁nel
g
▁ที่
▁是
▁war
▁है
▁G
▁Н
▁из
▁are
▁М
▁sich
▁،
▁voor
▁N
p
▁も
▁к
▁和
▁eine
я
▁é
▁から
▁V
ا
▁ある
▁[
▁15
▁ti
▁R
▁H
▁О
▁می
:
▁את
▁qu
▁F
▁30
▁k
▁П
▁era
▁Р
▁nya
▁ו
▁一
on
▁人
▁да
▁大
ة
▁dat
▁mga
▁dos
▁το
▁của
▁ke
▁ni
▁·
▁all
▁की
▁16
о
▁году
▁entre
da
▁ne
▁He
▁ini
▁که
▁ou
▁os
▁της
▁了
▁]
▁uma
▁más
▁מ
▁non
z
▁14
▁о
▁な
▁b
▁om
▁Д
▁aan
▁U
▁то
▁aus
▁13
▁..
▁что
▁dengan
▁avec
▁were
▁untuk
▁had
▁là
ого
▁کے
▁ca
▁fue
▁ب
▁mais
▁&
▁her
▁და
▁man
▁ver
2
os
us
▁but
는
▁p
▁有
▁18
▁است
▁re
ת
▁not
▁je
▁れ
ов
▁על
▁ている
▁which
▁را
▁bei
▁се
ra
▁با
▁την
▁No
▁Т
▁sua
▁wa
▁ku
▁dari
▁plus
▁auch
▁có
▁این
▁zijn
▁να
▁ใน
▁nach
▁bis
이
▁f
▁pada
▁การ
▁до
ً
se
月
에
le
▁parte
▁2010
▁bir
▁alla
▁J
▁上
▁على
▁over
▁25
▁2018
▁से
▁come
를
ю
nt
▁17
▁dell
▁у
▁has
de
▁2011
▁2019
é
▁nie
▁vi
▁2017
▁με
▁km
▁h
▁こと
▁को
은
▁کی
ت
as
▁đượ
▁Se
▁का
ment
▁000
▁ce
▁और
▁や
▁として
▁И
▁24
▁ser
ات
▁был
▁also
ს
▁และ
kan
▁ai
▁wat
to
▁他
▁sus
ndo
▁19
▁dalam
▁film
▁sie
/
▁为
▁wie
▁には
mente
ी
▁pas
▁では
▁।
#
▁2008
▁pag
(
▁Der
▁από
▁для
▁*
▁các
▁ter
▁100
▁esta
▁ay
▁ש
va
ي
ni
▁不
na
▁have
do
ая
▁های
▁さ
▁2014
▁как
▁21
ُ
ne
▁Z
al
▁2007
ِ
▁2015
▁میں
▁one
▁2012
▁một
▁this
▁2016
▁werden
▁v
▁後
▁2013
▁sont
▁при
ות
ti
▁された
▁2009
▁zum
▁=
▁einer
▁itu
▁《
▁über
▁foi
▁Er
▁『
▁г
▁』
та
م
b
▁tra
▁door
ся
is
ia
▁va
ak
▁เป็น
▁》
▁É
▁uit
si
ar
▁can
ò
▁+
▁ت
人
ja
ن
▁New
▁50
▁nicht
▁W
▁ي
▁their
▁มี
▁werd
▁ได้
▁я
▁ki
▁22
ის
et
る
▁cho
▁oli
▁first
▁II
▁ba
▁lang
ם
▁trong
▁Les
▁ของ
▁第
▁ad
ו
▁اور
▁San
ம்
▁ہے
▁Е
▁που
▁who
ം
▁•
▁م
▁被
▁23
▁//
▁его
▁ل
子
▁durch
▁It
▁più
い
가
▁men
▁th
▁delle
▁dit
▁он
ek
▁ေ
▁sobre
▁い
▁mas
▁fu
▁για
▁2006
▁hij
▁up
▁など
ের
▁Im
▁η
▁nella
▁က
;
▁sind
▁Đ
ban
ა
▁Al
т
▁ook
▁time
的
▁este
▁新
▁_
▁Y
▁On
▁aux
▁Г
▁れる
ها
▁einem
▁この
▁ben
▁anche
▁2005
▁एक
▁႔
▁its
nya
▁alle
▁以
▁မ
▁sono
no
▁下
▁tot
▁но
▁आहे
▁với
▁x
ми
▁28
▁hogy
ية
▁2000
ten
ہ
н
▁you
▁26
▁이
▁ない
っ
▁mo
▁been
ma
▁comme
▁إلى
▁ge
ko
▁été
▁meg
▁или
▁vir
▁tidak
­
▁ako
▁>
▁ο
den
▁gli
▁سے
▁У
ую
▁三
f
▁X
▁nem
▁27
▁bij
x
ите
α
▁due
▁أن
▁lui
▁Los
▁out
▁einen
▁Das
น
▁いる
한
▁wird
▁more
り
▁पर
്
▁oder
el
▁高
▁°
▁bu
로
▁may
▁等
▁zur
▁durante
▁為
▁与
▁ses
▁não
▁των
la
▁egy
ba
▁40
▁کا
▁As
▁đã
▁elle
▁日本
▁آن
▁हैं
▁而
▁they
▁под
▁년
▁σε
▁Nel
▁không
▁người
▁ed
▁two
▁және
▁小
者
▁29
▁Л
▁之
▁ab
▁Na
▁出
ных
▁ont
▁pero
man
▁ให้
ro
山
▁Un
고
▁Es
▁【
▁کو
▁2004
▁ها
▁市
▁St
▁Em
ი
▁לא
▁31
র
▁my
▁maar
▁ra
ों
▁分
▁】
▁ため
▁本
ן
▁năm
▁after
ей
▁या
▁τον
▁suo
ل
▁수
▁時
▁τα
▁mag
▁akan
1
▁Di
▁也
▁j
▁Het
▁Az
▁จะ
▁されて
▁2001
ा
▁ber
ْ
▁dass
▁2003
▁adalah
ေ
▁ကို
े
도
li
▁vor
ами
на
ين
▁into
▁于
▁הוא
▁στο
▁we
▁その
▁An
▁like
3
▁ما
ّ
▁oleh
▁other
▁part
▁telah
ان
▁という
▁Per
л
ki
▁ا
it
▁deux
▁כ
ной
し
ь
▁στην
에서
▁پر
く
st
ен
▁she
▁اس
ে
과
▁Si
▁前
▁juga
▁2002
▁co
▁ने
▁unter
▁Sa
▁final
▁同
▁עם
ka
▁وال
▁名
um
▁pro
▁Be
▁及
▁มา
ο
▁So
près
▁seu
▁由
▁him
w
▁ban
▁như
▁word
▁John
▁Sie
▁hat
▁۔
▁cui
▁へ
▁uno
▁برای
日
▁Nach
▁后
▁años
家
ương
▁По
▁will
▁prima
ం
▁よう
▁sin
▁لل
ção
ス
▁fait
▁album
▁niet
▁tahun
▁wurden
▁ไม่
部
▁atau
▁။
▁р
▁nhữ
▁ความ
▁forma
▁00
▁地
▁なった
ть
▁Ü
▁naar
▁ပါ
د
▁también
▁είναι
▁مع
▁nos
ant
▁This
▁hasta
▁when
▁about
▁video
▁new
▁จาก
D
ista
州
ler
▁cara
▁ze
▁会
地
▁anni
▁आणि
▁ရ
▁would
те
▁Ф
त
▁York
▁также
▁Ш
리
▁Э
▁कि
▁内
ers
▁dalla
▁III
ные
▁most
▁られ
ный
▁到
▁まで
▁solo
ben
v
▁же
▁н
▁60
▁Am
ok
▁あり
▁全
▁са
▁cette
ik
ر
▁Su
ного
ga
▁Con
▁回
▁está
▁desde
▁worden
▁İ
▁cual
▁mu
▁waar
ά
ата
村
市
ка
em
▁grande
▁us
ình
▁sebagai
化
으로
▁并
▁donde
▁ở
▁1990
▁время
▁这
▁भी
▁later
▁τους
▁noch
▁nur
▁cm
▁từ
▁Jahr
▁contra
ä
но
ung
▁были
▁用
▁Ο
ки
ri
▁было
▁西
▁University
at
ή
▁当
▁また
▁그
▁於
์
▁была
▁car
▁其
▁waren
▁З
▁အ
▁Η
ни
▁where
▁أ
斯
▁Α
▁τη
▁sy
▁й
▁お
▁volt
▁中国
ie
▁200
▁但
▁公司
▁1999
▁years
▁یک
▁村
ых
▁ان
▁ไป
▁để
▁ten
▁الم
▁club
国
会
▁成
尔
▁بر
▁use
▁Ha
ने
च
▁عن
sta
▁año
▁多
ப்
▁bien
▁Re
▁си
י
田
▁กับ
ม
지
ción
▁או
▁kwa
▁fin
▁sein
▁vez
A
▁႕
▁ว่า
ى
je
▁isang
▁ez
▁être
▁mm
▁二
S
▁stato
▁أو
▁po
▁至
ли
▁même
▁đến
ды
▁南
▁year
▁Saint
▁thể
▁ada
▁To
▁500
▁लिए
▁ও
▁1980
▁سال
▁này
▁со
▁일
▁န
▁long
道
és
▁使用
▁во
▁best
▁水
▁only
▁pela
▁金
▁khi
▁时
▁Ab
▁ile
▁essa
▁place
▁some
к
ur
ό
ला
大
▁北
ை
▁1997
क
am
▁もの
▁ஒரு
▁mai
▁т
▁1998
인
▁National
▁sul
▁ons
▁seine
ون
ge
▁家
와
▁Ma
▁www
性
▁­
▁мен
▁había
▁mana
▁对
ía
▁tanto
ში
▁ex
ง
η
▁aber
▁та
ның
▁نے
pués
▁France
▁made
лись
▁تو
▁ही
▁công
ға
▁seiner
▁dia
▁Me
▁there
ών
ssa
▁used
▁Bu
▁such
▁なる
ες
▁tan
sa
기
▁April
▁đó
生
ے
▁nag
▁手
▁menjadi
▁September
▁dopo
▁县
▁orang
▁contro
中
▁Pro
▁1970
க்
▁التي
▁She
ou
▁meer
▁United
4
ve
力
▁ทํา
▁hier
行
▁mereka
▁นี้
ျ
ções
上
п
▁leur
▁jou
▁http
▁1995
be
▁vom
ce
கள்
▁than
▁شده
▁ပ
▁после
ir
▁quando
▁Ang
▁1994
▁base
▁بعد
ем
▁kung
다
▁kepada
▁serie
▁World
ca
▁thành
lar
▁м
▁US
▁次
ん
▁Ε
ές
▁gegen
▁lebih
ும்
▁天
▁under
das
▁degli
ं
▁所
▁だ
▁外
▁August
▁hatte
▁인
▁Man
▁était
ent
न
克
▁так
▁1992
▁व
ado
▁מה
德
▁için
▁کہ
не
he
▁For
▁ek
▁wo
▁कर
с
▁go
▁раз
▁അ
▁zwei
▁pelo
▁bat
▁开
ই
▁35
▁how
то
▁80
án
▁ci
▁че
적
▁tak
id
บ
▁自
▁during
▁တြ
▁נ
▁American
▁kita
▁Σ
城
▁où
▁か
▁Paris
▁essere
▁万
▁1996
▁November
▁về
▁法
▁οι
▁dapat
▁sous
▁All
▁haar
스
ش
ет
▁لا
co
▁lugar
▁将
▁ف
▁total
land
▁tempo
▁Para
ùng
▁Jahre
▁nog
▁art
ら
▁主
▁तो
▁well
▁work
用
▁wordt
▁это
▁котор
▁가
za
▁1993
▁Por
లు
▁ၾ
▁ఈ
j
出
me
▁Elle
▁یا
体
▁部
▁Ver
▁ผู้
▁تا
▁国
▁At
го
▁between
▁خود
▁että
▁τις
лась
▁Com
▁Х
▁Ta
▁local
▁ای
▁וה
లో
▁Da
▁Van
▁شود
▁Dit
ك
وں
▁شد
▁না
▁Las
ch
▁inter
ب
▁City
▁個
▁א
▁real
▁vida
▁او
▁your
▁dont
▁者
▁media
▁عام
▁za
ு
▁satu
▁করে
▁aussi
ine
▁王
▁tai
▁myös
▁Ein
▁70
▁get
▁हो
▁45
▁gran
▁lors
▁nombre
ée
▁back
う
▁May
▁nu
▁都
▁90
▁them
き
시
▁then
▁onder
▁if
▁partir
س
▁toi
▁grand
▁可
▁anti
▁ito
▁see
▁làm
▁גם
▁three
▁també
▁đầu
▁最
▁任
▁han
▁作
어
kin
▁θα
▁original
nak
▁ning
ι
▁ఆ
▁3.
ని
▁戦
▁元
▁jaar
ด
▁TV
▁ג
▁Dr
ke
해
▁deze
▁tag
▁viene
▁1989
ная
▁general
物
▁като
川
▁特
ах
▁hindi
▁л
▁poi
▁We
▁کر
法
▁w
▁32
dos
▁де
▁Ö
▁$
▁tras
io
名
و
▁doch
▁1960
▁就
▁alors
ル
▁هم
며
ия
▁nome
▁daar
ता
ina
▁fut
▁世界
▁โดย
▁入
▁公
事
▁sự
▁lain
▁号
▁Als
▁loro
nek
▁hari
▁Π
▁name
▁1991
▁tạ
▁volta
▁wieder
த்
▁through
च्या
il
▁Op
▁ole
▁おり
▁इस
▁있다
▁என்று
▁being
▁dove
▁todos
▁初
▁al
▁Jean
▁people
▁kann
▁bị
▁cuando
さ
▁jy
▁זה
▁vers
▁ๆ
ก
▁many
ren
▁second
하는
▁school
▁Paul
▁Europa
ων
un
▁autres
▁美
zione
▁cada
or
▁бы
▁Q
特
▁их
ot
▁West
▁1945
▁Zeit
▁khác
▁တ
ya
▁tiene
▁junto
▁တာ
▁set
ു
lik
▁olarak
▁any
▁zwischen
▁Du
▁Art
▁전
利
да
ий
▁post
▁mal
▁premier
▁School
து
र
▁kon
ый
N
C
▁sido
▁י
ram
ое
▁بن
▁nell
下
▁Film
ton
▁trên
▁ます
▁300
▁лет
長
▁ngày
▁net
▁mar
▁số
▁sistema
▁hulle
▁Ce
に
▁Jahren
▁大学
▁kui
▁대
▁dieser
▁Stadt
▁just
▁tres
▁area
go
▁became
▁day
▁https
水
▁questo
▁pe
▁puis
▁contre
▁월
▁eines
▁également
▁位
▁Co
▁water
di
▁नहीं
하고
▁andere
▁го
点
▁fel
▁nhà
時
▁ن
▁zich
▁cũng
▁z
▁After
文
▁Des
▁してい
▁вы
▁省
▁б
▁lại
▁ans
▁ใช้
▁st
▁data
▁Το
▁စ
▁अ
▁são
▁eerste
ト
▁mismo
5
ver
▁hay
▁main
▁off
▁guerra
ズ
面
лся
▁两
мен
手
ter
▁ျ
▁@
▁見
ão
▁國
位
▁qual
士
ন
▁כי
ге
і
年
á
▁где
▁saya
▁Je
át
▁including
▁air
▁四
区
▁before
▁或
▁正
▁muy
▁政府
▁သ
▁بود
▁oor
▁行
▁ก็
▁bisa
▁За
▁งาน
▁line
▁היא
▁による
ில்
▁ciudad
▁Ke
ron
▁saat
▁並
▁海
▁生
K
▁کرد
ε
▁ア
ను
▁長
▁mehr
▁ik
場
▁δεν
ム
▁auto
hiện
wa
▁ông
▁주
▁Mit
ского
▁এ
▁nhiều
▁gaan
▁while
▁title
గా
▁1950
▁Maria
▁pre
▁tout
ным
▁heeft
▁primera
▁各
▁primo
▁against
▁により
▁1987
▁plan
て
ού
▁כל
▁без
ks
▁1986
лось
▁bi
▁重
▁pois
▁pun
ry
▁tháng
▁किया
▁היה
▁지
▁Do
ன்
▁ഒരു
▁1944
度
▁ആ
▁区
▁一个
able
▁sama
▁veel
성
▁học
ल
▁online
▁加
入
▁<
▁General
▁Os
ла
B
▁end
▁tal
ha
員
▁Hij
ना
れ
▁fueron
mos
▁ur
▁该
▁state
▁ces
lle
▁Á
▁हे
▁él
▁36
▁ع
▁Ж
▁第一
▁person
▁season
▁primer
▁東
ят
서
▁который
▁によって
为
사
▁voi
자
▁об
ando
▁已
▁1985
▁與
▁grupo
▁安
▁山
▁ще
▁原
▁Santa
▁米
ും
▁War
▁все
▁आ
▁À
▁sub
▁tre
M
▁dụ
▁same
▁था
里
▁joka
定
G
▁ایک
▁実
▁После
▁因
▁วัน
▁1984
▁peut
▁1988
ci
▁研究
▁gia
▁hai
▁venne
ig
ン
▁otros
▁Mai
▁Lo
▁vous
▁You
ке
所
▁nei
▁anno
▁tour
▁లో
▁なって
▁seperti
▁caso
▁พ
▁My
▁both
▁၊
ク
▁более
線
▁यह
▁bar
▁Κ
▁social
▁importante
长
▁game
▁sem
▁eran
▁home
▁fa
▁public
▁band
有
▁chín
▁top
▁型
▁ปี
▁động
み
▁ano
▁mundo
▁كان
▁กัน
▁دو
ът
수
▁இந்த
▁God
라
▁kami
نا
ste
▁hy
▁بال
▁kata
ley
▁คน
▁David
▁anos
ν
▁המ
কে
▁ہیں
▁Nam
ation
▁Italia
▁1940
V
▁なり
▁seen
▁改
▁её
▁1982
ও
▁anak
▁Я
▁moet
▁Is
▁1975
▁seit
▁première
▁đ
▁間
▁what
▁won
▁でも
▁33
း
▁sẽ
स
▁Bei
▁très
▁Ko
lo
▁ότι
▁dall
▁网
▁twee
▁nak
▁神
▁sex
▁五
ner
ების
▁1983
▁fois
ო
▁service
▁việc
▁vagy
▁相
ου
ق
én
▁تم
lla
▁וב
▁known
ым
▁või
▁1941
했다
か
▁στη
格
▁ס
▁ersten
▁deur
▁var
▁eu
▁States
▁nhất
6
ית
▁个
▁apa
▁vier
▁these
▁ovat
ები
ской
▁هو
▁Anda
▁land
▁League
安
che
▁mutta
▁finale
▁super
▁1979
T
▁რომ
ait
方
▁про
▁제
▁사
▁ת
▁until
ले
▁partie
▁בין
▁Ge
▁hän
▁только
▁可以
▁leg
▁Super
▁現在
▁web
▁Au
هم
▁drei
▁tem
▁先
▁nom
▁より
▁puede
▁International
▁1972
▁ด้วย
▁bagi
▁bạn
▁haben
▁לאחר
ita
కు
▁בשנת
ciones
▁作品
▁代
明
▁Durante
▁არ
hàng
▁です
▁1920
▁1930
一
▁नाही
▁これ
▁車
為
▁ville
會
▁სა
▁約
▁1978
▁chi
▁Park
▁li
▁ര്
8
▁得
▁通
L
ez
в
▁así
▁number
▁এই
▁曾
内
拉
▁années
▁James
▁数
軍
나
▁न
队
▁阿
▁now
路
▁34
▁ది
ით
▁life
▁1974
▁1976
▁chỉ
局
ली
▁Robert
▁match
ात
▁agosto
า
R
▁可能
▁Um
▁д
▁รับ
▁four
ismo
▁momento
▁том
▁merupakan
▁vai
tu
▁Ar
ზე
म
器
▁向
которые
▁来
▁Sin
▁Zu
▁1981
▁nelle
▁nhậ
▁program
der
▁avant
▁antes
▁single
▁38
▁später
▁tipo
▁ere
机
▁性
▁IV
▁400
▁vuon
▁であった
▁nước
ही
ок
▁India
▁軍
ൻ
▁อย่าง
▁beste
爾
院
▁Pada
▁sempre
▁diese
▁文
▁起
▁siècle
ые
▁Charles
▁Can
▁我
▁بين
▁стал
▁ri
▁Club
▁Don
色
▁Mar
ド
▁erste
▁XV
▁보
▁China
ul
▁principal
▁katika
ะ
ada
▁olan
তে
▁temps
ट
▁再
▁Son
▁石
gi
▁id
▁....
▁fino
▁هذا
▁1943
▁등
▁kun
▁March
▁One
▁要
▁साथ
თ
▁Berlin
▁did
▁William
め
▁代表
▁李
han
▁org
▁目
▁고
▁Bi
▁estaba
▁台
▁לה
ல்
son
▁sans
▁Estados
▁更
▁유
▁sulla
▁mer
▁South
▁থেকে
وا
▁Не
▁無
▁play
ità
ナ
ア
▁sever
▁said
▁FC
▁tiempo
ラ
ú
▁Or
nte
▁temporada
▁从
▁много
▁down
理
▁zo
▁หรือ
▁causa
▁부
▁mentre
ux
ется
▁high
▁При
▁Von
▁এবং
▁thờ
▁George
▁между
▁His
▁کند
▁College
▁hal
▁teen
▁使
▁jusqu
▁करने
▁quien
▁Ja
▁الذي
▁called
▁1939
▁1971
▁発
▁她
▁1942
▁بھی
数
ato
W
ล
▁quanto
ischen
ത്
▁だっ
▁Vi
▁London
▁того
▁far
▁city
▁vita
▁Қ
▁centro
▁တဲ့
▁oma
▁Ч
员
金
口
▁point
▁capital
▁에
▁中心
장
▁presidente
▁事
▁Δ
▁even
▁1967
▁01
▁през
▁Land
▁期
▁way
▁白
▁س
▁الله
▁09
▁José
▁ക
▁한
▁Home
▁시
▁150
成
드
▁Dans
▁比
▁یہ
▁แล้ว
▁هذه
▁อยู่
▁maka
▁verso
▁जो
▁此
▁nord
▁Ek
野
▁support
▁arte
상
▁modo
ria
7
▁They
▁町
▁48
▁Air
军
线
え
▁mayor
▁There
ین
ő
▁Sch
西
▁ένα
▁quan
▁hand
▁เข้า
▁의
▁ตัว
▁جو
▁ihr
▁sai
▁national
▁Unidos
▁self
ón
▁series
▁دارد
▁faire
▁아
▁very
▁平
▁1968
▁banyak
O
ш
▁受
▁나
चे
▁hơn
▁family
▁país
河
ী
▁香港
▁could
わ
▁tussen
▁Juan
▁場合
▁1965
▁house
▁она
▁ch
▁put
ille
F
▁Peter
ـ
▁這
▁能
▁עד
官
▁Este
ling
本
▁1966
▁kam
▁kau
▁ר
▁tt
▁trois
▁1973
▁vient
▁ihm
ര്
pa
▁beim
▁गया
▁até
▁反
▁Una
ster
▁sekä
▁geen
▁seinen
▁red
les
▁65
▁fine
学
▁近
▁Michael
▁etwa
▁phả
▁sử
▁ihre
▁test
▁seks
▁terse
▁Roma
টি
▁mà
▁€
夫
▁они
ları
▁55
▁make
▁ho
▁機
▁版
inen
ную
▁sebuah
▁സ
▁dar
機
▁女
ൽ
▁ese
▁Mac
P
▁tetap
▁már
ून
▁部分
های
▁قرار
▁station
▁Tr
▁Grand
▁weer
ย
▁Black
合
す
▁אל
▁avoir
▁ส
▁ขึ้น
林
▁37
sse
▁cha
leri
▁Dan
▁radio
▁Her
▁Ba
트
▁depuis
▁Mi
▁Nord
아
ini
▁送
▁×
▁今
▁Auf
▁zona
▁pra
▁39
ния
▁ok
▁sud
▁1977
▁人口
▁Red
▁Nacional
▁last
ว
▁လ
▁Louis
▁Ç
海
avait
▁sou
ే
▁können
ét
▁นั้น
चा
ند
▁plusieurs
▁ค
ие
▁未
que
할
▁quale
▁dann
▁Thomas
▁ایران
▁ή
യും
à
▁แต่
க்கு
平
▁над
于
▁तर
▁csak
age
▁ၿ
▁又
▁42
▁အေ
▁ते
▁同年
ச்
▁ك
ді
ken
▁world
▁ich
▁large
▁год
▁return
게
▁1969
▁Việ
▁円
▁08
▁hem
▁face
▁uso
▁なかっ
ף
▁Kon
▁Ze
▁ד
▁jo
лық
▁aja
▁Te
▁ば
ye
▁marzo
▁music
▁lagi
▁Μ
▁باشد
▁това
▁공
▁அ
光
▁球
江
▁Ende
▁group
▁ہو
▁打
来
▁年代
▁2)
▁our
▁1963
▁boleh
▁opera
▁early
▁им
▁nhân
▁British
seinem
▁città
ർ
화
▁ander
9
▁karena
▁June
▁直
▁vie
▁altri
ே
▁định
▁novembre
▁hi
▁yo
▁ידי
ک
▁μια
ное
▁করা
南
르
ின்
ٔ
▁Oktober
ский
▁By
期
▁grandes
▁오
▁হয়
َّ
▁siglo
ع
▁ซึ่ง
▁poco
▁יותר
▁44
▁través
・
면
대
▁esse
▁mula
ची
న
▁parti
▁Go
ित
▁Star
▁является
berg
▁중
▁ella
▁seus
ต
Z
▁foram
▁しかし
▁ע
▁Europe
▁numero
量
心
▁because
▁Martin
原
▁Vor
▁sinh
▁этом
▁molto
ам
動
▁этого
▁help
▁sudah
des
▁dai
▁stesso
ты
▁总
ados
ف
▁ดี
0
▁式
▁기
▁material
▁hợp
▁Tu
주
▁その後
▁ig
▁学
島
▁бар
▁გა
▁Malaysia
台
▁groupe
▁system
▁ず
ന്
ют
▁hanno
▁清
▁ήταν
▁α
▁sei
ל
uk
▁essen
▁année
▁suoi
▁있는
▁کار
▁nous
▁官
▁首
▁lah
▁began
了
▁които
▁му
ksi
科
▁1000
▁free
원
▁October
▁신
▁embargo
▁mission
sel
▁wel
▁Қазақстан
▁म
▁公里
▁できる
▁Esta
▁State
天
▁リ
▁1964
일
▁ذلك
ר
ক
αν
▁July
▁قبل
▁במ
▁Mc
▁voit
▁based
▁州
▁好
▁മ
mi
▁نام
▁padre
▁نہیں
▁Hy
▁ပီး
ah
▁副
▁Bar
▁January
▁マ
ari
▁光
▁เพื่อ
된
მა
정
▁since
▁còn
▁တယ္။
▁Indonesia
sch
하여
zi
కి
tel
▁found
▁giá
στις
tes
外
▁Cette
ής
▁aveva
▁sang
ి
▁世
▁క
▁社
▁segundo
ロ
前
▁thế
ться
▁much
▁pu
▁سر
▁について
ze
▁られる
ische
▁त
▁North
▁etc
區
▁城
▁ഈ
▁each
▁1918
▁werk
де
▁ж
▁Festival
▁phát
▁~
▁သူ
▁live
▁着
▁ต่อ
▁02
▁sản
▁Bau
料
ส
▁كانت
▁tema
▁שה
▁1946
▁hun
▁ни
▁equipo
▁old
▁still
▁開始
▁长
品
▁around
ty
ते
▁هر
▁周
▁cao
▁มาก
▁存在
▁autre
р
▁章
▁မွာ
ва
ح
▁세
▁kg
▁đồng
▁1948
戦
소
X
▁工作
▁Sex
▁主要
▁quella
▁book
分
▁Mo
3)
▁See
▁steht
▁ק
始
▁정
▁Tour
▁יש
য়
ại
▁rend
▁国家
▁75
th
▁以及
▁stata
▁п
ны
ি
▁hành
▁don
▁XX
▁होते
▁ခ
ز
▁στα
▁行わ
▁Mal
▁†
▁zurück
issa
▁آپ
▁↑
▁Brasil
ian
▁即
▁カ
▁upang
कर
▁played
▁ทาง
▁Cup
▁konnte
ει
▁CD
▁own
და
▁1936
▁Ben
ном
▁05
▁东
▁pi
▁banda
▁06
▁dân
▁自己
unque
▁자
▁Teil
ite
▁郡
▁когда
▁Video
▁nuevo
▁seguito
▁population
이다
▁song
▁rapa
▁día
▁ш
▁questa
▁1962
전
▁member
ino
▁đi
▁along
▁thì
▁zen
▁होता
▁Music
ji
▁Real
▁ח
▁области
lan
▁anderen
▁monde
▁ده
▁ことを
▁đề
▁King
▁tel
在
▁form
ai
▁government
▁လို
▁古
▁atas
▁izan
men
▁花
▁Royal
ड
▁popular
ната
▁ศ
▁gente
▁1938
▁كل
▁bộ
▁1949
▁cách
▁路
▁کیا
▁qua
▁हा
nen
▁1-
▁alta
▁无
▁政治
tor
▁它
▁около
ად
▁有限
▁1937
▁Geme
多
▁já
▁USA
▁41
ج
▁hanya
▁type
▁1955
▁פ
制
▁అ
▁пере
산
种
音
▁tin
▁ali
▁December
▁side
立
த்தில்
▁cerca
ity
▁1956
▁ging
▁Union
ang
▁right
▁número
▁бойынша
▁mee
▁obra
む
▁série
▁Juni
▁1958
▁mang
▁House
▁站
▁born
任
▁方
Y
▁encuentra
▁Hän
E
▁駅
▁company
▁só
▁punto
▁1933
和
▁中央
元
im
ி
▁ق
▁үшін
▁heute
▁suite
▁स
政
▁poder
▁против
▁mon
▁released
▁otras
王
▁Ka
▁明
▁sä
▁07
▁04
▁ถึง
▁bajo
▁sotto
▁會
▁dort
▁уже
▁1961
▁besar
▁Top
tan
▁took
多く
▁点
aren
니
▁hebben
▁России
▁tous
▁道
▁mint
부
▁نیز
國
▁Bo
▁secondo
県
▁nga
▁600
▁文化
ting
ut
▁tutti
▁kind
▁Francisco
▁στον
ies
ニ
▁ως
▁dự
ante
▁foto
▁км
キ
タ
▁പ
▁なく
▁çok
▁비
▁1953
их
▁motor
号
▁1919
▁لم
▁tarde
▁bereits
▁1947
sten
H
▁tenía
▁три
▁120
▁open
▁Jan
▁参加
▁cả
▁memiliki
▁面
▁And
▁mình
▁Par
▁조
間
▁VI
▁held
地区
木
▁43
▁masuk
▁age
▁primeiro
▁Aus
▁الأ
ా
▁美国
▁আ
▁人民
ните
zo
ர்
▁科
▁ihn
▁ဖ
▁take
дың
ic
▁超
▁还
▁pays
▁control
▁São
▁six
▁quân
▁два
נו
치
▁historia
▁dello
▁आप
▁encore
▁thự
▁baru
▁49
▁Β
▁saison
vi
▁64
▁campo
ாக
書
信
▁masa
▁kuwa
▁1959
▁เมื่อ
▁nó
▁naman
line
▁Juli
▁ול
▁Men
▁وجود
▁Ş
J
▁điề
▁民
间
之
▁বা
▁hierdie
▁अपने
▁化
▁record
▁आहेत
▁viên
▁Entre
▁あっ
▁mesmo
▁提供
ノ
▁において
▁High
ული
▁falls
▁человек
प
▁pan
▁发
▁現
ica
▁periodo
▁ش
▁जा
▁want
▁muito
▁46
▁может
▁leurs
▁社会
▁Mas
▁menos
▁立
學
jo
▁包括
▁系
▁זו
▁liegt
ος
▁diferente
▁ihrer
▁village
val
▁peu
▁kom
▁Joseph
▁অ
▁zelf
コ
اء
hi
단
▁dira
▁03
▁昭和
▁đa
▁música
▁ご
í
▁left
▁cơ
ון
▁真
▁時間
ך
▁Madrid
▁former
▁nagy
ो
▁教
▁52
▁إ
场
वर
▁八
▁布
▁bb
▁Dopo
▁حيث
களை
▁马
▁2-
カ
mo
▁kes
▁استفاده
sen
▁those
구
▁Une
▁คุณ
▁stagione
▁immer
▁1957
mento
ion
▁電
▁1954
▁ami
▁建
▁version
▁River
▁Pour
后
▁Mark
▁trườ
▁pode
▁ต้อง
ı
తో
▁വ
▁Fue
▁soit
▁idea
▁vol
▁semua
ку
▁bahwa
▁notamment
mann
▁太
ata
ì
▁Google
▁形
▁250
▁programa
▁quelle
▁design
ông
؛
球
▁power
▁né
▁findet
만
▁Hall
▁ยัง
▁教育
ー
▁線
▁Он
하였다
▁နဲ
▁production
▁Ι
▁해
▁sangat
車
▁Richard
フ
▁head
▁run
▁dentro
▁เรา
▁محمد
▁hoe
▁jadi
▁tempat
▁জন্য
nin
▁daha
▁cor
▁發
▁DE
▁central
▁época
▁туралы
▁定
▁mine
▁1952
▁diri
▁nang
▁dé
▁എ
▁ти
▁流
▁appear
▁те
▁ब
▁nas
▁武
▁población
▁연
ία
▁Τ
ουν
▁వ
▁47
▁卡
▁אך
▁Ve
им
表示
ు
ige
▁1934
▁צ
ज
▁álbum
▁ప
▁党
▁tegen
▁morte
▁sehr
▁指
▁常
▁活動
代
▁3-
▁сам
▁Ki
尼
lı
▁管理
▁még
▁Universität
–
▁stand
▁especial
石
▁1935
▁电
▁gebruik
▁già
gen
▁Antonio
▁Universidad
▁desta
▁ken
▁eben
hin
▁巴
▁When
▁così
兵
▁ഇ
▁Ter
社
▁サ
▁town
▁af
▁それ
▁rock
▁آ
▁ring
▁כמו
▁important
流
▁din
▁এক
യുടെ
▁Como
▁wil
▁彼
q
့
▁وہ
▁هي
́
▁mil
▁エ
▁dua
▁case
▁တာ့
aux
vat
▁ancora
▁Inter
▁hacer
▁アメリカ
▁gibt
▁สามารถ
▁1917
▁County
▁halaman
▁lado
▁里
▁Company
▁tant
▁ج
工
▁Ц
▁Washington
▁porque
▁1929
▁其中
ab
▁February
▁Mont
யில்
▁norte
▁800
▁international
▁Ho
▁hacia
▁News
▁lượng
▁交
阳
ale
ল
▁구
▁集
▁xuất
▁début
▁მო
▁称
▁php
idad
ット
▁స
сы
▁két
▁開
▁以上
▁small
▁бір
▁min
▁Th
▁войны
▁소
▁Radio
▁result
▁However
υ
▁quello
▁1914
作
着
▁كما
▁其他
▁diesem
▁Canada
▁todas
▁след
▁51
▁century
意
▁following
▁color
▁Li
▁nên
▁America
य
▁English
ées
店
ett
▁segunda
ाच्या
nud
rá
▁בו
▁particular
ло
▁Pierre
▁mela
▁mientras
▁presente
▁März
I
星
▁平方
▁وي
▁siendo
▁position
▁၀
ല്
▁während
▁seorang
▁Street
」
▁Bank
▁process
體
▁España
▁Windows
▁director
▁thông
ku
集
▁blog
▁木
▁hu
▁zusammen
▁California
▁formed
▁pang
▁pues
▁ス
▁Carlos
ano
回
▁亦
▁ante
▁города
ịch
യ
▁tutto
▁무
リー
▁如
▁过
▁Post
▁개
▁studio
▁trình
▁Car
▁Diese
▁Love
來
▁può
▁lieu
▁után
tik
▁Neu
▁동
ăng
▁～
▁എന്ന
▁serta
▁También
▁Seit
മ
後
▁আর
▁Unter
▁natural
▁équipe
vano
▁Ne
ஸ்
▁1932
▁familia
▁派
▁sonra
ネ
▁Rio
▁הם
▁1928
▁ทั้ง
▁ela
▁Fu
▁ő
비
室
ებს
▁rất
ными
▁най
▁bin
▁19.
▁million
▁bằ
▁Hier
▁北京
व
▁Januar
▁Francia
▁制
▁Euro
▁बाद
式
门
▁centre
▁进
▁ise
қа
б
▁放送
マ
▁என்ற
到
▁Met
チ
▁東京
pe
▁nakan
▁Liga
▁tener
井
▁ന
▁части
▁More
▁것
▁major
▁received
д
▁mới
ू
▁groot
▁good
ts
美
▁Australia
▁become
▁posto
▁→
▁erhielt
▁1951
▁마
▁độ
▁több
▁col
▁họ
▁56
▁每
▁nueva
▁cours
▁அந்த
▁Deutschland
▁nouveau
▁馬
▁keine
▁হবে
▁named
▁During
▁membuat
是
▁baie
▁Internet
▁는
선
▁Но
▁construction
▁nun
▁guerre
ال
▁შე
▁fra
▁terug
語
▁Cha
▁kay
▁လာ
▁assa
▁style
tion
▁ainda
▁μας
▁54
▁第二
▁origine
▁αλλά
▁soos
▁歳
▁သည်
ته
রা
▁lên
lin
▁Band
▁children
▁אם
▁曲
▁első
▁απο
▁majd
▁心
▁Sur
▁อ
▁sta
▁another
▁ရာ
▁king
▁pen
▁elke
▁menggu
▁پس
▁তার
団
▁Tag
▁singaw
▁歌
ల
▁senza
▁לו
▁terre
▁解
▁365
▁primeira
▁vụ
民
▁ever
▁Mais
形
த்தை
က်
▁మ
দের
▁ამ
▁között
▁vas
▁Eine
▁order
▁သာ
▁ออก
▁होती
▁Eesti
▁μ
▁军
▁Team
▁plaats
ங்கள்
▁则
bar
ad
▁സ്
▁circa
ais
▁него
於
ып
▁Tra
ブ
mm
▁き
▁德
ás
▁Auch
ев
▁利用
▁chúng
제
▁damit
▁1931
率
▁선
▁beiden
▁которых
▁abril
▁نظر
స్
▁можно
▁اگر
വും
▁different
െ
▁番
▁Kirche
▁cause
res
族
▁tự
▁Rock
▁များ
▁here
門
▁към
▁news
▁otro
▁kuin
▁コ
▁général
▁sana
▁1927
▁设
마
▁через
▁partido
...
▁building
▁내
▁بی
▁1924
▁க
▁Dal
ões
▁само
동
▁د
സ്
ier
▁స్
▁पण
▁έχει
▁Association
lu
יה
▁kadar
▁バ
ville
▁bila
▁quindi
▁Bay
▁ကာ
々
▁Karl
▁達
▁1926
▁Für
▁secolo
▁आज
▁vị
운
lt
히
▁オ
▁Guerra
▁quali
ende
tzen
▁gobierno
▁built
▁κ
▁న
▁英
▁begin
들
▁اما
▁годах
▁伊
▁alles
▁成立
bo
世
▁goed
▁dernier
▁tua
▁যে
▁女性
▁cidade
▁ハ
▁gibi
▁siis
ában
▁baik
ầu
▁老
▁다
情
ま
▁Henry
▁kết
▁何
ются
▁toda
▁bản
▁з
▁คือ
▁White
▁состав
▁mejor
▁место
—
▁need
▁바
▁Mitglied
▁maak
ons
▁1900
▁保
▁共
▁Estado
▁Group
▁lý
%
▁papa
▁È
▁schon
▁Center
▁Long
▁bo
▁させ
▁خلال
▁article
▁六
▁Islam
tal
▁1922
對
▁रूप
▁แบบ
ire
▁trai
▁kar
▁modern
▁Γ
▁alcuni
▁chủ
▁nuovo
▁DVD
▁father
▁1921
▁1925
▁عنوان
布
▁termine
▁상
▁week
dir
▁信
▁sendo
▁αν
யை
ός
▁again
▁低
▁Ez
▁काम
▁át
▁dois
▁Ca
ған
۔
]
ాలు
▁́
vo
พ
業
▁cấp
ツ
▁生活
▁furon
▁Ni
▁trướ
▁aku
▁ر
िक
▁قد
▁子
▁接
見
▁presenta
ती
▁এর
▁include
▁Saison
▁Chi
▁От
▁donc
▁因此
▁antara
▁remain
▁Christian
▁ရး
▁空
ম
▁Pa
▁members
▁장
▁కూడా
▁pesar
му
ol
г
▁sport
▁进行
▁体
▁full
▁anh
▁mars
▁င်း
▁Из
▁hard
▁Pe
▁within
▁58
▁1910
▁naam
▁sini
▁san
▁त्या
tas
▁하
▁fast
▁59
▁wir
▁yan
aire
▁商
▁piano
▁Japan
ാണ്
▁אשר
▁ומ
建
▁品
▁five
▁Big
▁Fi
▁Platz
▁musical
endo
▁mort
▁提
▁رو
▁dahil
教
관
▁1923
▁Live
▁lu
▁death
け
▁ဆို
▁kunnen
▁学校
▁kali
▁성
▁internet
▁несколько
▁menge
▁בה
▁도
tta
身
▁Dezember
▁porno
▁got
▁hui
mar
▁doen
▁pendant
主
▁dag
▁కు
▁England
波
目
▁53
▁δια
▁dibdib
▁ship
▁story
▁gunakan
са
▁thấ
▁物
▁деп
Q
located
С
▁mondiale
▁土
▁پیش
▁Welt
▁Anna
▁Mon
▁เขา
▁دیگر
▁非
▁sera
ын
▁合
▁Green
ard
▁tiếp
▁事件
▁entonces
▁看
▁moment
达
adas
tti
▁wenn
▁olla
▁moins
▁選
▁chức
▁sede
▁என
한다
▁hizo
▁link
▁mental
ally
▁風
ny
▁tổ
mer
▁information
▁でき
lich
▁model
▁tuvo
▁must
▁Tom
▁Serie
টা
▁Val
▁който
▁प
▁مثل
▁Deze
▁weitere
▁വി
▁ఎ
▁ని
▁강
▁frente
▁served
▁1912
▁presso
▁Ali
▁German
務
▁ఒక
▁度
▁基
▁シ
▁jälke
得
▁East
▁Kom
▁points
▁hom
▁男
▁titre
▁وی
യില്
▁algunos
▁funda
ळ
▁Ku
ב
▁hội
▁Museum
▁κατά
▁suas
▁สําหรับ
▁57
نے
▁services
▁林
▁hoặc
▁dalle
▁один
▁미
▁اند
▁Vill
▁করতে
▁country
氏
▁territorio
次
▁没有
▁Division
▁色
▁เรื่อง
з
▁ogni
▁bả
ist
▁thường
▁行っ
▁With
▁Ch
▁selbst
▁Grande
▁apenas
▁disco
向
▁vasta
▁zou
▁published
нің
ként
▁Central
▁著
క
▁nuova
▁Gran
▁Records
▁vì
▁Jesus
▁trabajo
▁受け
▁तक
グ
▁Of
▁buho
▁business
▁最高
군
▁Sport
▁Award
▁masih
▁Marie
▁keer
站
▁把
▁If
▁wees
▁bad
▁mendapat
▁원
▁lớn
▁PC
▁ещё
ico
▁similar
ide
经
진
ω
ưởng
▁next
▁אחד
取
▁Del
▁went
▁連
▁completa
▁dis
▁pessoa
▁Ort
▁XIX
▁има
▁ligne
▁fatto
▁ar
▁commune
▁张
▁Best
▁شهر
▁火
▁aver
▁sent
дан
ero
▁Οι
▁course
▁ему
▁분
ाने
▁უ
▁जाता
▁மற்றும்
▁egin
▁配
▁היו
▁全国
▁juin
▁ผล
曲
ң
▁半
▁ส่วน
▁près
era
源
▁favor
▁tard
▁sino
▁negar
▁地方
▁law
▁tik
요
▁trở
馬
▁mah
▁校
▁half
▁صورت
▁есть
▁personal
▁Λ
称
▁भारत
▁days
▁aki
▁ลง
▁நான்
▁năng
▁ก
▁bem
▁них
宗
▁pueden
▁hace
▁cuộc
조
▁project
▁青
▁tôi
▁governo
▁ty
▁đối
高
▁62
▁کرده
eket
▁الت
iert
▁Facebook
▁ح
兰
▁extra
▁Jahrhundert
▁phầ
▁fi
isch
▁чем
▁trans
县
▁無料
nes
▁toute
▁후
▁kell
▁came
▁tế
illa
▁ကီး
▁ی
▁French
▁using
好
rik
▁스
▁follow
▁tác
▁level
▁giữ
▁कहा
rsi
ott
▁בית
程
ā
체
▁nin
▁gian
▁修
▁đại
▁ဒီ
▁وفي
স
▁所有
▁際
▁obras
ella
▁Ю
▁iba
ール
▁重要
▁mind
▁بین
▁একটি
▁Afrika
▁say
▁título
▁99
▁tạo
தான்
▁своей
ป
▁khu
sche
▁gruppo
▁진
om
▁nghiệ
ท
▁百
▁получил
▁Trung
▁一般
▁period
▁Quố
▁便
ham
10
▁18.
▁Online
▁edo
▁papel
▁debut
▁حتى
மாக
▁women
▁當
▁mondo
ால்
▁sue
▁septembr
▁máy
▁Ro
▁عدد
▁ישראל
▁時代
他们
▁명
▁商品
▁Monte
თა
▁來
ას
▁座
▁start
▁ment
ους
▁转
车
▁proprio
ய
ette
▁should
▁oltre
▁français
▁near
▁Angeles
ação
▁moved
dan
ల్
▁быть
▁pertama
▁giới
▁drie
▁През
ani
▁á
▁tat
▁oficial
▁varios
▁ihren
▁台湾
▁ത
大学
▁थी
▁área
▁además
▁Frank
▁船
▁folgte
용
▁כך
▁aastal
▁Porno
тың
▁感
▁Day
▁nova
▁হয়েছে
▁ये
▁Smith
▁века
▁salah
▁celui
▁ellos
▁Ele
▁Max
▁third
▁cuenta
ien
▁current
▁estos
ٹ
▁אי
▁映画
▁Pedro
ida
▁From
ить
▁selle
▁medio
▁région
▁那
▁Israel
▁ခဲ့
▁만
界
▁luego
kat
▁niya
▁मी
▁included
▁outros
하게
▁کنند
러
▁모
sti
▁environ
▁ли
▁jó
▁led
▁精
米
▁Asia
위
당
▁काही
ץ
▁收
▁plant
నే
▁Ober
▁Tor
▁gol
重
▁旧
ме
stä
▁pedig
▁haber
▁--
▁agua
▁bang
▁party
▁Sy
▁tijd
▁meno
ото
▁alto
▁mano
▁గా
▁दिया
▁河
▁Non
▁שב
▁late
▁Sau
▁thị
▁ohne
▁15.
▁body
▁often
▁weg
ei
▁Gold
burg
▁último
▁ir
▁rumah
▁π
▁madre
▁愛
▁libro
▁Media
▁パ
▁재
ted
▁phẩ
▁تحت
інің
▁थे
▁chiến
ker
▁lá
▁nieuwe
▁fase
▁95
▁samen
▁chế
▁every
▁Amerika
▁bank
sin
▁Auto
▁松
▁اللہ
▁term
우
▁นัก
▁sien
▁వి
通
ил
▁對
▁ज
▁Ν
▁love
▁เครื่อง
▁獲得
▁empresa
േ
▁Mary
תי
하
ité
▁ele
▁chiế
▁عمل
▁格
▁hang
▁1913
▁finden
ría
▁digital
▁سی
▁快
▁nacional
▁字
▁составе
▁ეს
▁4-
▁view
▁largo
▁شما
▁నా
보
▁front
▁cargo
▁mehrere
▁ทุก
▁อีก
eux
၊
▁مورد
助
▁Según
▁donne
▁komen
ంగా
▁период
▁ตาม
▁година
א
ден
▁Free
▁vista
寺
▁tr
▁lett
▁interes
дің
▁Open
려
▁永
ば
▁few
▁Musik
▁iki
▁כדי
▁famille
یں
▁dir
▁mois
ης
미
▁role
▁двух
▁buat
▁hoạ
kel
▁위
▁デ
heid
▁放
▁防
▁波
া
▁Ber
▁別
▁失
ید
▁เงิน
▁mes
▁成功
▁斯
▁千
▁sung
▁chất
vel
té
▁without
▁拉
ούς
▁안
ிய
명
▁giải
▁身
▁Portugal
▁libre
▁squadra
력
言
つ
▁rằ
▁说
du
▁cuatro
ா
▁战
aan
▁רק
▁Lee
▁வேண்டும்
ша
気
▁szerint
▁mense
▁пре
▁ஆ
től
▁προ
▁nime
▁死
না
▁других
▁وقد
ார்
fa
ன
▁seconda
▁ग
▁प्र
▁tính
▁Hal
ии
▁nouvelle
▁Party
▁பல
▁celle
dor
▁negli
▁ไทย
▁tên
▁力
▁diverse
▁altro
len
▁porta
▁書
堂
▁الا
型
▁started
▁park
▁川
▁wikipedia
▁Kinder
▁debido
▁তিনি
▁Februar
▁Mu
▁Pen
▁Haus
▁ilk
▁1915
▁interno
▁годы
되었다
்
不
▁位置
▁часть
വ
▁Friedrich
▁および
▁zunächst
ック
▁ဒ
▁Χ
▁ถูก
▁possible
▁最大
▁غير
ura
rat
▁amely
rono
iden
▁असे
▁Tras
▁Society
▁están
▁黄
▁harus
▁kah
▁seguir
tek
one
完成
▁Sir
ี
▁ครั้ง
▁great
▁問題
ación
ियों
▁তা
▁cinco
▁качестве
▁success
။
▁website
▁може
▁Roman
▁той
▁quatre
頭
个
▁famiglia
▁ので
▁出場
▁затем
▁aantal
▁present
▁தான்
▁经
ور
▁呼ば
▁פי
ven
▁正式
op
▁đườ
ाची
▁всех
▁Hindi
级
▁huis
▁12.
▁provincia
▁Hotel
ç
▁地域
▁很
ков
▁района
க்க
シ
進
▁নিয়ে
▁пред
ار
▁13.
▁beliau
オ
▁Wasser
▁ثم
▁ص
▁участие
eur
▁ru
▁política
▁چ
动
▁여
▁內
▁bio
haus
▁allem
▁Jack
▁mặt
న్
ті
▁loạ
▁Che
▁hit
tól
▁thứ
▁hin
▁hotel
▁past
▁レ
▁Ces
▁új
▁Web
▁მ
▁Et
▁Luis
▁局
▁പി
▁себя
题
ാ
▁700
▁omdat
ous
▁juillet
▁وت
▁vad
▁ketika
▁giả
▁nii
▁أي
rà
▁neue
▁一部
▁toàn
洲
▁去
▁э
▁sehingga
▁unos
▁SA
학
▁stati
正
▁روز
▁Dalam
▁Sun
基
▁서
▁вместе
▁Ook
▁cô
▁mayo
▁работ
จ
▁Во
▁လး
יות
▁吉
▁mempunyai
▁上海
ത്തില്
▁weiter
▁kuko
▁grote
▁ал
▁principalmente
▁These
▁早
房
谷
▁tao
▁staat
▁港
index
ി
管
▁does
▁十
▁تھا
▁Chicago
▁jika
▁Argentina
▁немесе
▁Φ
▁口
lected
▁octobre
ค
ốc
▁14.
▁thiết
▁1911
ס
▁및
▁Pan
▁Seine
नी
▁引
▁altre
▁发展
▁ft
▁לי
▁Jo
▁单
에게
▁quier
スト
▁But
িত
▁कुछ
▁のみ
▁বি
▁הייתה
▁ט
ד
▁però
▁vain
▁بعض
▁הת
▁histoire
▁ক
▁combat
▁Desde
省
ому
ring
werk
▁dus
▁sol
▁史
▁تر
▁review
ာ
▁にある
▁điể
▁Однако
ген
▁店
▁Trong
▁будет
▁forte
▁17.
▁Paulo
▁xe
hoz
▁位于
▁European
▁സി
▁利
▁magyar
▁బ
▁星
ग
▁México
▁hệ
▁tarafından
zu
▁Sud
eren
▁Bij
▁fils
业
▁route
▁очень
▁among
▁組
▁nada
▁福
sz
▁น้ํา
▁ré
▁جا
▁kat
▁سن
▁action
▁career
ाचा
▁مت
▁nt
▁sendiri
▁இது
▁方面
▁games
発表
▁自由
َّ
▁having
ếu
ర్
接
ese
知
▁което
▁Institute
isi
▁otra
isme
▁Copa
self
▁bukan
▁85
적으로
▁change
▁做
▁気
▁両
▁Johann
▁پی
▁1905
सी
▁erst
▁mens
▁gara
ான
▁reg
ból
▁ဆ
▁Berg
▁biế
▁zij
세
▁表
▁rest
▁един
▁esto
▁tats
▁때
▁minden
ời
プ
▁語
▁Sam
▁たち
ran
▁সে
加
▁島
▁大会
▁ド
▁agli
▁Ti
▁đây
▁Road
▁Pero
▁history
▁Sohn
nda
▁镇
▁Sol
▁quer
▁支持
▁Ya
▁1916
▁بوده
▁로
дағы
▁lista
▁Allah
▁gas
头
▁מי
▁students
▁必要
▁mento
식
▁ז
▁yılında
ement
バ
▁Daniel
kar
▁種
▁रहे
▁Pre
▁Bad
▁тем
▁Со
▁音
ില്
▁ه
▁客
▁bay
▁இ
▁影響
▁Hill
ỉnh
are
▁principale
▁夏
▁zoals
▁該
▁၏
▁朝
▁Casa
ali
▁rencontre
▁tuo
ее
▁período
▁begann
&
cia
use
▁파
▁niveau
▁ఇ
▁Kim
▁ö
▁نا
▁époque
▁nói
▁oldid
chi
К
ат
▁เวลา
▁大きな
▁Ρ
▁making
▁کرنے
▁seksi
▁روی
ë
▁chez
▁jaren
▁miss
レ
▁なら
▁น
▁Read
校
▁ہی
▁ใหม่
▁bawah
▁عليه
▁ラ
▁algo
▁short
▁never
▁მე
▁دست
▁х
ക്ക്
语
▁esa
▁sila
▁Island
▁72
▁kaya
▁star
▁uta
ique
初
派
▁Bel
▁fall
▁九
ады
യിൽ
▁всего
▁支
▁president
▁မွ
リ
▁этой
వ
▁kemudian
maan
▁ot
மான
ְ
ত
▁tito
▁Albert
職
▁ұл
▁เล่น
ช
่
▁ביותר
▁force
po
▁dabei
ाला
ラー
▁insieme
까지
▁porte
계
▁avril
▁selon
ική
▁mini
ong
ának
▁Sul
发
▁nhiên
▁不同
▁예
▁película
▁左
▁human
▁década
▁divers
▁hiệu
▁город
▁app
ब
-1
戰
ű
▁หลัง
크
▁contact
▁\
▁décembre
=
▁שם
▁रहा
東
▁ミ
▁Hans
tud
赛
▁불
▁win
▁tư
▁強
▁special
tie
▁meng
▁show
▁追
▁반
▁italiano
▁ensuite
ウ
▁superficie
▁明治
▁کتاب
▁nationale
▁HD
▁என்ன
မ်ား
▁とも
▁President
ất
▁Namen
▁público
网
▁septiembre
రు
▁seda
▁거
▁אני
▁工
یم
▁அவர்
▁方法
▁務め
▁đá
ха
▁marca
▁étaient
▁群
ాన్ని
▁свою
▁赤
chen
vece
▁وقت
▁ဝ
ाचे
▁quả
▁אותו
ใจ
ito
▁octubre
▁Kan
▁زمان
▁ん
▁posterior
▁работы
▁julio
▁展
▁深
▁phố
▁करते
▁жизни
▁Carl
▁உள்ள
ché
▁タ
▁ബ
▁試合
▁Form
▁なお
▁kasi
▁sala
▁Act
▁így
▁tersebut
▁dice
يا
▁国际
隊
▁春
▁Show
iêu
▁Mor
נים
▁tâm
▁anterior
▁neuen
▁light
▁dire
▁क
食
▁นํา
▁Final
-19
pi
现
▁hecho
▁однако
▁sold
ắc
▁말
▁Hi
▁após
▁times
▁lập
▁勝
▁development
তা
sal
▁όπω
▁trị
ము
▁junio
▁paano
▁terra
▁thủ
▁セ
zen
▁office
▁Sen
ták
ola
▁välja
▁bate
tar
▁tuli
▁総
▁azt
▁七
▁María
▁первые
▁ക്ക്
▁院
▁gratis
▁deren
▁list
▁common
ck
▁class
▁Han
▁bet
▁viel
▁deutschen
؟
▁私
ש
ō
ert
▁63
ник
▁regular
▁شرکت
▁남
▁側
▁bersama
居
▁System
▁1908
▁nou
▁กว่า
▁trouve
▁世紀
los
▁мира
▁επι
we
▁misma
▁Ph
▁août
▁हुए
azione
▁died
▁ราคา
ец
▁lực
ミ
호
▁able
ма
$
▁community
▁88
▁perlu
▁desa
▁Giovanni
▁ရွိ
▁إن
▁Hu
▁trat
▁Anh
▁muchos
武
▁თუ
▁Maar
▁kinh
▁ஆனால்
▁away
も
ының
▁عبد
▁gut
▁sólo
▁Ia
▁enero
▁Den
▁dunia
ák
οί
▁oh
ह
▁番組
▁退
▁वह
▁statt
▁municipio
ָ
▁整
ấy
▁တို
▁66
▁días
▁maior
▁ensemble
▁nito
▁における
▁隊
▁naka
ungen
▁ขาย
神
▁さらに
▁increase
▁със
▁αυτό
▁လူ
吉
▁politique
▁Mr
ち
▁త
▁จัด
მ
▁Daar
▁รถ
▁muka
ന
யின்
▁meses
▁εκ
▁vice
▁שלו
▁ran
▁jour
▁manera
bi
▁père
▁bekannt
▁Ur
▁要求
▁실
▁sing
▁σ
▁チーム
lah
▁lange
iin
▁performance
▁начала
▁termina
ങ്ങള്
▁Gu
▁Menschen
▁طور
▁김
▁worked
じ
yo
▁ανα
est
▁奥
rio
▁वि
bel
▁working
▁Titel
ট
ile
ov
▁ఏ
ların
ിൽ
▁reste
▁2012.
ത
▁culture
▁мая
vad
▁hingga
▁方式
▁一些
▁装
▁maken
▁考え
้
▁1907
7)
per
▁Mer
▁diciembre
elle
▁political
▁你
▁UK
▁學
▁logo
pen
▁結果
ٰ
▁estar
ส์
!
▁armée
gar
▁resto
▁خ
▁情報
▁SS
▁established
▁ہیں۔
▁thức
▁Tal
▁1906
▁2014.
▁Ad
像
▁pop
▁zone
▁kok
ぶ
备
▁trung
▁massa
▁لئے
▁Plan
mine
▁kwam
▁開発
▁black
▁非常
女
花
ure
▁住
▁multi
dem
▁président
▁estilo
hat
▁race
过
▁sống
▁Familie
تها
bach
▁questi
ట్
야
▁round
▁aasta
무
▁nama
▁ながら
▁field
▁given
▁если
▁残
▁problema
▁最初
▁мемлекеттік
▁เกิด
▁която
▁Blue
▁болып
ター
▁male
▁част
▁various
▁tri
▁chef
▁track
▁августа
▁primi
bau
zeit
片
▁minta
▁記録
▁tới
▁toujours
館
▁نمی
置
▁court
▁Haupt
ول
іп
▁films
▁ın
▁corpo
系
起
종
▁permet
發
ble
ín
▁estava
▁服务
▁ந
▁dio
▁Chile
治
క్
하기
ख
ness
▁территории
▁พระ
▁欧
▁Alexander
▁esi
▁actividad
▁Ban
时
せ
▁thố
▁Brown
▁Church
▁laat
▁机
▁کشور
▁走
ện
▁条
▁تک
▁右
▁tun
▁seis
्स
▁Vol
행
新
▁kerana
▁Zo
▁времени
ハ
▁61
▁ഗ
▁First
▁países
신
ssä
က
▁συν
ּ
▁cambio
யும்
▁fan
▁shop
▁nahm
▁通常
▁Up
▁Council
▁Bis
勒
▁festival
▁attività
▁iyong
▁2015.
▁ထား
▁ป
▁Bir
▁फ
▁sea
▁announced
▁Ga
த்து
▁anderem
ება
▁母
▁1909
feld
▁कारण
▁له
▁tweede
ダ
안
▁rollo
▁време
▁fünf
认为
▁тот
▁یکی
फ
▁passe
▁대한
▁அது
▁Gli
களில்
▁thu
U
▁取
モ
▁传
▁existe
▁影
ि
▁simple
▁sondern
▁saja
▁điệ
亚
▁Rome
형
▁まし
▁police
▁บ้าน
師
▁tentang
க
မ
ַ
ガ
▁hul
電
▁評
▁storia
▁加入
▁అని
▁LA
יו
ీ
▁carrière
▁cần
▁Ә
▁sola
▁pass
یت
▁Life
▁roi
4)
▁find
▁Wa
件
▁Centro
▁بار
塔
▁Over
▁เมือง
▁thuậ
▁২
▁工程
ika
▁До
خ
▁ம
▁യ
▁ju
▁kim
▁باید
▁Unis
▁июля
▁Suo
iệu
▁private
▁Bill
▁civil
▁Grund
▁车
end
▁этот
▁Mundial
▁prend
▁января
▁黑
▁あ
▁perché
▁Hot
▁参
ური
▁deve
▁corso
▁октября
案
▁neu
▁החל
▁vật
▁interior
ٍ
▁Dia
▁Hay
▁giugno
▁Pi
▁nào
ానికి
▁mukaan
èrent
ခ်
ல
▁단
▁spielte
級
डी
▁2016.
▁forces
▁Army
▁bzw
ण
▁nay
▁normal
▁research
▁ви
▁melakukan
נה
▁Apple
▁Spiel
▁以降
メ
▁своего
▁问
▁Anti
種
▁江
▁Además
解
▁Qu
び
▁сентября
比
华
лар
▁Fort
▁maggio
В
മാണ്
东
▁echter
▁nombreux
▁passa
▁жұмыс
▁wegen
▁सु
ски
▁married
空
▁IP
▁需要
nut
aient
▁joined
▁начале
▁यांनी
van
▁Times
▁2013.
▁projet
▁Texas
▁ပဲ
▁contrar
▁tiếng
▁noviembr
▁110
ది
오
▁estas
▁若
▁nek
卡
▁경
▁phòng
自
▁Während
▁muerte
▁Ex
▁என்
▁כאשר
▁settembre
▁във
▁ม
▁nila
enzó
▁兩
▁推
▁द
▁अधिक
ger
▁ను
▁числе
▁fare
▁საქართველოს
▁片
▁Nella
▁Po
▁人物
oni
П
▁Service
▁מת
▁意
▁tiên
▁две
▁wrote
▁Pas
▁只
री
▁bởi
▁militar
▁euro
▁yer
▁jossa
istä
uglio
▁даже
ống
യാണ്
▁2020
▁唐
▁table
▁頭
▁Voor
▁開催
ാന്
▁進
▁حال
▁Court
▁親
▁制作
▁đội
ावर
▁azon
▁know
▁इ
ін
▁対
▁政
▁พร้อม
▁جس
▁июня
▁Kung
▁वे
▁kota
▁プロ
▁setiap
▁Quando
▁ibu
ских
▁دی
▁ساتھ
▁出演
▁Cor
▁関係
▁gether
▁начал
列
권
▁tienen
zia
▁ச
▁포
▁Ri
將
▁连
▁نسبة
▁ర్
▁Time
▁lần
▁68
▁hadap
들이
▁内容
▁denen
▁size
▁చ
▁আমি
▁にて
▁130
▁west
▁processo
▁lalu
▁§
橋
▁让
ho
▁ह
▁trova
▁হয়ে
티
▁bere
▁disput
ieren
▁2018.
യെ
▁среди
▁Manuel
▁market
▁attack
▁由于
都
公
▁저
商
▁award
▁jonka
▁lavoro
▁ကေ
▁você
카
▁治
▁église
▁طرح
ская
ذ
ialah
ရ
▁liên
▁mille
▁Suomen
▁οποία
nia
iúp
▁Lord
▁シーズン
▁fő
▁марта
▁آب
▁actual
战
▁สี
▁Ra
些
▁trê
▁habe
▁там
▁หนึ่ง
▁نہ
▁Durch
▁wala
▁bit
▁発売
▁lama
▁因为
▁quattro
▁მი
▁декабря
▁Ker
▁Feder
so
▁ہم
▁created
▁Kui
▁מו
▁Các
▁edificio
▁alt
ate
▁ดู
▁será
▁Sub
▁bas
20
▁bon
▁système
▁沙
エ
+
▁2009.
ത്തിൽ
▁llamado
▁ollut
த்த
▁bulan
友
amente
▁church
▁zaman
igen
▁テレビ
ци
▁alue
پ
▁español
▁fort
▁投
▁Professor
oso
ικό
▁Hà
▁Wilhelm
▁quasi
▁انجام
▁étant
▁ý
府
▁cosa
▁fosse
▁安全
▁平成
▁oro
▁stad
ándose
▁Для
落
▁Kunst
토
물
ana
ường
▁ăn
▁وهو
வே
▁זאת
▁Eu
宮
▁Academy
▁district
osa
▁Game
mme
▁Fa
▁então
▁cet
ük
▁约
양
тер
kon
▁אבל
▁metal
ef
▁février
▁roman
素
▁gennaio
▁克
▁achter
▁less
வை
報
▁1904
保
▁available
党
▁rôle
▁рас
が
ოს
▁داد
ე
▁哈
▁triển
மா
tä
▁lahat
▁Ons
▁cultura
帝
▁Kar
▁Ten
▁ประ
മായി
ൂ
▁배
ത്തെ
kor
▁关
▁soll
産
▁мы
▁Ana
ыми
▁biệ
레
▁मे
▁段
▁going
ίας
▁works
▁Barcelona
▁少
▁certain
tus
▁つ
▁verde
▁division
▁autor
▁Buch
▁produk
▁הש
मध्ये
▁၁
▁ενώ
ுக்கு
▁జ
▁grado
▁varie
gas
▁visit
▁Alle
▁シリーズ
▁metros
ത്തിന്റെ
▁Pag
ビ
▁將
▁commence
▁hóa
unk
ジ
▁演
北
▁varias
▁שני
▁ottobre
質
▁线
▁última
▁კი
▁ah
▁בכל
▁реки
▁contract
▁Indian
ин
ร
▁أكثر
果
▁کنید
▁reso
jen
▁รวม
dır
▁ehemalige
▁direct
▁76
▁gouvernement
יים
▁医
马
▁importantes
龙
▁tinggi
▁bekend
▁কি
▁eigen
▁είχε
▁kế
▁pole
▁Comment
▁einige
▁β
▁pihak
▁souvent
與
▁Port
tz
園
▁koko
▁級
▁Ä
▁pena
▁bắ
▁trí
ском
▁votre
▁fire
▁proget
▁football
ко
▁río
▁AS
▁οποίο
▁除
▁کم
▁апреля
▁waktu
▁सरकार
▁率
▁破
▁darauf
▁bán
▁هستند
ju
iendo
▁region
▁מספר
▁ร่วม
▁తన
▁ми
▁tập
▁69
▁Album
▁lehet
▁comple
▁white
▁pay
之后
less
▁đán
문
âu
▁پ
gu
ünk
▁広
▁द्वारा
▁gehörte
▁த
▁hoàn
▁博
▁lot
द
12
▁см
8%
▁liga
▁اپنے
▁더
▁Plus
णे
▁ven
▁陈
▁igual
▁Dis
板
▁သည္။
▁big
▁발
▁Om
小
iz
表
▁hijo
த்தின்
sie
▁ترین
▁north
▁kerk
▁once
▁zuen
▁给
재
▁figura
▁يمكن
▁甲
ford
방
중
▁Lu
▁付
▁kse
▁training
▁kleine
▁wife
相
▁continued
根
▁পর
▁短
▁конце
▁effet
▁bilang
ญ
▁Master
▁mediante
▁địa
డు
▁Fe
▁علی
лы
▁chứ
프
▁Sein
▁low
▁役
▁toutes
▁列
מן
▁aller
▁vuoden
경
▁മാ
su
▁kawasan
▁Rom
▁अपनी
▁look
ше
▁才
森
되어
▁группы
▁管
ई
▁కి
▁edad
▁ส่ง
▁care
▁最後
▁74
価
▁은
▁legal
▁présente
▁游戏
議
▁完全
▁kama
▁febrero
zioni
▁带
▁tham
lerin
た
▁차
▁akkor
▁〜
وس
▁livre
▁chaque
▁Era
▁अब
▁Leben
▁biasa
εί
▁聖
rse
▁gi
▁dieses
▁父
ями
▁గ
▁노
▁kong
차
än
रा
ati
▁kus
▁bus
▁ना
▁kuitenkin
▁quyền
察
▁dịch
▁წლის
▁う
▁direction
▁第三
▁ကြ
以
▁NO
▁増
gal
様
▁Ing
▁tien
▁carrera
▁שי
▁96
▁Sal
▁দিয়ে
▁paar
章
▁イ
▁allo
▁campionato
▁port
▁VII
μ
ưới
、
▁code
▁mando
வும்
▁หน้า
▁系统
▁लेकिन
町
纳
▁nivel
▁含
▁south
▁classe
▁rond
▁quá
▁稱
▁Τα
▁μετά
stein
▁또
▁av
ओं
yan
选
▁persona
▁Ju
▁status
▁работал
wan
▁77
▁הראשון
▁vs
▁कम
▁登場
▁話
▁ห
ฟ
▁যায়
▁180
▁ک
施
▁sí
▁comment
வர்
▁amor
▁saw
▁homme
▁jan
▁氏
▁Frau
▁pré
▁travail
▁67
тің
▁形成
▁rol
▁proceso
罗
სა
权
▁ク
▁ต่าง
ques
ud
▁tốt
▁sê
▁عشر
▁เลย
▁François
una
▁rang
▁Minister
▁nın
▁pouvoir
ח
▁ob
▁день
▁音楽
▁ခ်
▁dila
ének
▁두
▁140
▁നി
▁Power
iste
▁普
▁1903
▁América
▁nghĩ
害
▁双
▁Chinese
ας
▁trọ
座
▁source
▁ام
▁pháp
▁chuyể
▁Tod
▁tand
▁deuxième
▁登
▁কথা
ан
▁Parti
▁olyan
▁chiesa
サ
▁único
▁ဘ
▁Android
▁Miss
▁conocido
▁华
ো
ც
▁စာ
▁posso
▁rapport
ეს
縣
端
▁み
▁localidad
▁98
Ε
▁sollte
▁nhau
법
tore
▁cast
▁neben
▁र
▁sampai
▁finales
▁ப
▁赛
▁স
▁tutte
▁mucho
▁hospital
▁封
las
ط
ros
▁情
▁Neben
ோ
▁Nederland
▁hall
▁そして
▁content
▁há
्
巴
▁pala
▁llegar
▁但是
▁gewann
材
▁military
▁Championship
வ
▁grazie
▁εν
▁iPhone
▁имени
▁расположен
▁σας
▁trabalho
▁jours
▁thi
感
▁Mag
▁जी
朝
▁pur
们
▁降
▁больше
津
▁particolare
▁yet
▁sebelum
▁Nueva
▁ultimo
▁tement
▁想
▁further
▁осы
▁raison
▁BBC
義
▁賽
ber
▁mayoría
weg
▁Londres
जी
▁多い
▁standard
ോ
▁ゲーム
內
▁While
ట
ో
▁Great
▁体育
▁運
▁führte
▁强
▁República
▁ပး
ീ
▁nunca
▁免
▁Anne
▁1890
▁inoltre
▁Old
▁1870
▁देश
▁Gi
▁đất
▁Dar
▁годов
▁ayant
▁welche
▁ल्या
▁exemple
▁Young
▁Bob
net
宁
تا
▁Burg
▁vari
▁compte
▁par
llä
▁CO
▁industrial
▁RM
▁Ken
▁aprile
▁病
▁log
▁Some
▁fazer
▁Tri
▁pelos
실
▁село
▁Science
▁dernière
▁EU
▁Ed
▁ноября
▁Que
マン
bu
간
▁ダ
▁設置
イ
ია
▁過
命
▁71
▁baba
▁miles
屋
經
▁1901
▁өз
▁足
유
▁Yang
▁設計
▁стала
▁Mah
▁valor
▁Arts
▁同じ
ांना
▁भ
▁staan
iểu
▁rund
▁გამო
▁According
▁ఓ
▁器
▁5-
▁1902
▁取得
ニー
▁Jacques
▁采
▁behar
▁系列
▁طرف
▁room
别
▁desar
▁نفر
▁处
▁自身
הלך
▁văn
▁Posted
▁时间
▁أنه
▁AM
▁бұл
▁Lan
▁92
▁केली
▁पहले
ere
▁fille
志
▁selama
客
▁global
死
cha
▁деген
师
▁रही
▁Ik
▁büyük
▁muda
款
▁alleen
▁activité
▁Jones
▁英国
▁continue
▁预
▁SP
თან
▁eri
▁തന്നെ
▁לפני
▁große
▁PS
▁taken
▁街
▁مختلف
▁亚
▁üle
▁ა
▁دور
▁That
▁superior
▁Under
출
▁Nu
▁sistem
▁question
▁通过
▁centrale
▁توسط
▁किसी
▁知
▁Sus
雷
▁बहुत
▁tudo
▁signed
▁tijdens
▁セット
▁교
▁chat
▁`
▁82
角
▁duas
▁年間
side
▁Meter
▁Landes
▁′
▁kanssa
▁ႀ
▁bahasa
▁சில
Α
▁persone
▁ശ
्या
▁ဖစ္
İ
മായ
▁aren
amento
isten
▁ز
ין
▁viele
▁оның
▁สร้าง
▁erstmals
ナー
▁rey
▁900
if
▁player
▁hati
▁78
▁仍
選
▁司
▁مو
▁recherche
▁ด้าน
万
임
委
лік
▁mata
▁हम
▁camp
▁page
▁之一
▁neces
テ
▁personnes
▁航空
▁болады
▁たり
▁komt
▁ख
▁tinha
ski
▁Carlo
▁rue
火
▁भारतीय
▁night
▁할
▁opened
▁Force
▁ejemplo
▁கொண்டு
▁young
▁жылы
▁vẫn
eurs
▁hot
▁Qui
▁பி
▁produced
等
▁Frauen
▁How
▁acht
▁არის
▁罗
ע
▁egyik
schen
ында
▁सर्व
▁ボ
▁同时
▁І
▁sort
▁q
▁structure
▁بازی
▁Sea
▁통
▁siempre
▁हुआ
▁Edward
▁oggi
يات
▁سو
▁prime
▁jeu
▁84
▁จึง
▁ambos
aria
载
▁获得
▁hänen
▁호
▁göre
▁Kun
min
▁lavor
▁نو
▁नि
▁卒業
▁Deutschen
▁months
▁assim
▁droit
▁영
装
타
▁binnen
nis
▁problemas
三
▁Wie
▁وا
▁ومن
▁学生
▁เกม
▁formation
▁yung
▁随
ティ
יין
▁figlio
▁Africa
▁individual
▁election
οι
論
▁ใหญ่
▁infatti
vor
▁97
▁millones
▁且
▁ドイツ
▁ဦး
▁volgens
▁Trans
▁어
▁Social
▁example
▁армии
▁设计
▁تمام
▁thuộ
اب
▁Так
▁ജ
▁manda
포
▁dise
▁Lake
ض
으
▁建設
▁ピ
▁своих
▁ảnh
▁energia
▁ए
▁差
국
▁февраля
▁paling
금
▁gat
▁फिर
▁studierte
▁mat
▁vaid
▁française
▁trang
▁食
▁evento
ket
▁имеет
▁రా
▁nommé
▁ihrem
ből
▁တယ္
▁Department
▁Hand
▁ולא
▁curso
▁Centre
▁meter
▁sulle
▁би
▁Foi
▁81
ről
▁diesen
と
▁ロ
▁MP
▁veces
▁जब
nik
▁Bue
ua
ara
ч
▁giáo
▁AC
▁others
▁メ
▁ประเทศ
▁image
際
▁pueblo
▁הנ
tte
ş
▁当时
▁elles
▁sector
▁现
ях
▁kuu
▁करता
▁较
▁独立
▁moder
▁harga
ഡ്
ức
кой
▁کسی
▁font
▁großen
▁بخش
▁国際
▁高度
▁corps
▁successo
ीय
▁決定
▁kerja
▁1500
▁район
18
段
▁ouest
یه
fi
▁visto
▁lost
▁Michel
▁Otto
by
▁Law
▁programma
▁terus
▁Santo
▁arbeitete
▁均
ына
scribed
▁科学
▁generale
ával
▁hát
▁เปิด
점
▁最終
▁自分
▁kedua
交
ၿ
▁編
▁Har
▁समय
▁技術
ности
ேன்
▁algunas
▁უნდა
▁सं
ват
▁mujeres
▁société
▁电影
▁实
mak
▁addition
▁우
िंग
▁落
▁space
▁seines
▁nature
▁honor
▁Kor
ँ
▁に対して
▁Song
▁आता
▁입
賞
▁Türkiye
▁memberikan
▁giorno
▁交通
▁Jahrhunderts
造
ந்து
▁Most
ит
▁86
▁little
▁ahol
▁grupos
▁jotka
field
▁versione
tak
▁basis
▁juego
▁связи
▁mulai
▁though
▁করেন
數
▁години
▁yeni
▁キ
▁73
▁gun
能
▁XVI
ern
▁作为
▁lungo
업
istas
▁アル
足
▁relative
▁peuvent
వి
务
▁होने
▁Ci
▁Will
▁έχουν
वा
ized
τα
▁double
奇
▁sok
या
▁городе
黨
▁သိ
▁nä
▁Geschichte
▁canción
▁Norte
wood
▁ట్
▁sedang
▁первый
▁经济
松
▁decide
▁选
▁siguien
▁แห่ง
▁sĩ
ائی
▁лишь
▁راه
▁排
▁cap
▁cultural
▁которо
▁שלא
▁DC
▁vera
▁Press
▁ʼ
▁राज्य
▁cover
ова
▁ఉన్న
straße
▁software
▁ч
▁Cuando
▁association
역
▁primeros
taan
▁section
▁宣
▁voorbeeld
▁living
▁areas
▁21.
▁mother
▁ပာ
ικά
▁recht
kal
▁enfants
ça
▁durant
▁한다
▁testa
恩
▁Western
▁steeds
▁ji
▁兵
▁教授
▁ၚ
ांनी
juk
собой
▁香
▁野
▁नाम
О
▁Tan
▁应
cher
▁única
▁demi
pernah
▁hold
備
dores
▁هایی
▁vissza
టి
ങ്ങൾ
생
▁1898
▁health
▁kommen
▁Empire
▁125
▁ผ่าน
▁masyarakat
▁ครับ
▁ဘူး
▁alam
▁県
kas
▁suur
▁ari
▁Đạ
▁మా
▁圣
▁Rad
μα
▁vardır
▁कोई
▁본
望
▁kembali
▁tài
义
lcune
▁báo
အ
密
▁entreprise
ート
cy
▁gave
▁различны
▁Office
ж
던
▁лед
▁τ
▁Joe
▁kukan
▁富
▁sekitar
▁objet
▁study
▁フランス
▁petit
▁能力
费
▁ナ
▁一方
tzeko
▁বলে
▁枚
ạch
▁canal
▁xã
ام
▁iets
ার
ിന്റെ
И
▁ideal
▁横
▁¿
▁Simon
▁Main
▁kamu
▁handel
▁Nem
▁वाले
au
▁incluso
▁彩票
▁hommes
▁sekolah
에서는
▁micro
▁What
etti
▁အား
▁한국
▁●
▁fest
▁могут
▁issue
役
▁Hospital
▁위해
而
▁molti
▁luz
పై
▁彩
▁ან
ंग
▁sabi
▁বলেন
ise
▁gement
▁δύο
▁屋
▁用い
▁Come
▁principales
7%
ث
▁Costa
える
▁داشته
▁нас
▁Hong
▁течение
▁language
▁1880
▁đô
▁geboren
▁Chris
▁realizar
▁Bas
▁mode
▁District
▁dès
▁京
▁Scott
▁Microsoft
▁89
▁夜
▁liste
▁written
▁モ
▁cost
▁گفت
▁ယ
▁proyecto
▁schließlich
▁इन
▁2006.
▁человека
ിച്ചു
▁olduğu
▁membres
త
▁internationale
تی
gel
▁tierra
▁दो
▁ε
ưu
jes
▁Adam
▁完
▁داده
▁ứ
記
zer
福
▁Henri
▁แรก
▁独
▁cử
▁श
▁فیلم
▁novo
▁études
tích
▁城市
▁计划
▁đổi
▁سنة
▁Miguel
▁対応
▁seul
▁目的
▁education
▁pot
▁release
نگ
ido
▁espèce
▁Lang
▁مي
▁yêu
▁उ
▁Heinrich
ғы
▁زندگی
▁parents
6)
▁ruolo
白
▁recent
ения
▁lead
▁வி
▁属
▁Wat
▁Walter
▁คํา
▁Hof
▁mercado
▁Mann
▁Ray
▁รู้
ーン
▁غ
▁考
ろ
▁以下
▁गई
▁सा
▁வந்த
▁Bor
▁Kong
▁இருக்கும்
▁萬
▁moja
▁ম
▁攻
▁باز
▁例
▁เช่น
气
▁considered
▁联
▁gleich
ပါ
▁average
დ
▁internacional
▁sto
然
ían
▁依
▁■
▁บาท
▁刘
ούν
▁เพราะ
▁train
▁কিন্তু
heim
▁Out
▁vực
▁变
▁Fall
▁採用
▁luar
▁Bundes
▁falta
▁minutes
▁др
ந்த
▁ဘာ
▁بزرگ
▁达
▁केले
▁LED
▁себе
▁PM
ίες
▁Nova
▁kein
ена
लं
▁რომელიც
▁ビ
▁להיות
▁アン
्य
▁पा
▁我们
nce
▁Institut
കള്
공
▁hombres
▁femme
▁ဟာ
ierte
▁ambiente
▁access
▁grave
ность
▁Arthur
rah
ер
▁移
▁hatten
▁出版
8)
▁दी
▁Cal
▁Var
▁свой
▁deutscher
▁Ini
أ
▁mari
▁আমার
▁لیے
▁bệnh
▁とき
▁兼
ட்
▁food
▁utama
▁EP
▁proses
▁매
▁eeuw
▁Untu
▁pai
▁zweiten
▁Anfang
▁pari
類
▁เอ
▁attend
▁jos
▁suso
εται
▁ziren
▁فقط
▁ย
ию
▁חלק
מה
▁agar
▁folgende
▁Jos
▁charge
▁close
ap
모
▁jeune
▁resultado
▁承
▁設立
▁ä
лер
tum
▁свои
▁余
여
変更
图
▁Research
▁93
▁升
▁Mei
▁heel
▁調
▁وب
権
lang
▁Johnson
▁mond
ベ
▁gang
▁territoire
▁prix
▁collection
▁Ы
▁令
▁mua
▁Good
▁истории
ira
▁組織
▁беру
▁shows
の
▁Aires
▁داشت
-18
az
▁화
▁包
▁villa
▁మీ
▁自然
ца
▁往
ڈ
▁ฟรี
תה
▁XIII
▁Williams
റ
▁gọi
▁teki
▁这个
▁professor
▁休
▁למ
ici
▁fe
▁bal
اس
▁張
▁kort
▁视
린
▁က္
▁ი
威
▁乐
▁nơi
▁event
▁cita
▁양
▁án
▁মধ্যে
▁1897
▁射
▁parla
▁ల
▁например
▁म्हणून
תו
▁diversi
▁ingin
egún
تر
▁دل
▁तथा
▁几
▁couple
▁Fernando
sid
▁Net
▁sull
?
▁سي
▁काय
▁brand
▁خط
▁سب
▁phươ
▁1860
▁чего
▁Line
▁sui
▁kommt
▁febbraio
ról
گی
▁號
▁võib
▁spesso
ांच्या
▁就是
▁bene
▁izango
▁ней
▁たい
▁gồm
▁bên
▁let
gan
▁key
▁artista
▁tud
▁घर
영
▁tiền
▁πολύ
▁也是
▁1896
▁1895
▁致
续
గ
मा
▁都市
▁網
లను
▁materia
▁সময়
▁ヒ
iva
▁Năm
▁Night
루
ras
▁Design
▁semana
ru
▁weit
▁bahawa
▁ก่อน
▁pää
▁Awards
▁назначен
▁uomo
▁bot
▁trata
மே
▁nahi
▁جه
▁box
▁находит
▁transport
▁другие
▁sitä
▁Ich
▁Vuon
▁Saya
▁ల్
▁人気
▁IN
▁Johannes
▁đặc
▁ทีม
▁München
ében
羅
ф
面积
▁klein
▁背
▁costa
▁gaat
▁maison
▁стали
▁stop
▁ရဲ
▁across
▁Play
▁memper
tos
▁enige
ство
▁دهد
▁ओ
ぐ
▁grâce
郎
▁đơn
ive
▁give
▁94
▁Amsterdam
▁1899
▁专
▁клуб
파
▁ら
▁结
▁erhalten
▁Tall
ല
▁образом
▁letzten
phân
ぎ
▁知ら
▁Harry
க்கும்
dó
▁diven
▁siste
چ
▁comune
▁tutta
▁Victoria
▁mande
▁outras
▁विचार
▁テ
▁83
▁방
▁ま
ното
▁Mari
▁tie
▁sexual
▁草
gamot
▁وكان
▁Not
▁泰
▁Вы
▁তাদের
▁leader
港
aba
▁Bon
э
▁ол
▁মা
▁certains
発
▁info
▁激
▁XII
▁從
▁kohta
▁modelo
▁fit
▁carriera
▁tätig
▁בן
ίου
▁cole
▁Rose
ര
▁Pop
டி
▁160
▁出身
▁allerdings
▁집
▁трябва
▁reported
▁Boston
▁زبان
▁mungkin
▁הו
بر
▁Ford
▁déjà
▁момент
▁всички
▁提出
▁ette
▁bài
▁tyd
▁stage
▁одной
▁Theater
▁季
▁tête
за
▁tìm
▁Bal
ára
▁abord
▁1800
▁图
▁región
۷
▁ancien
дар
▁provid
மும்
▁úgy
▁гор
▁habitantes
▁nud
▁अनेक
▁ақ
▁fuera
▁walang
▁மு
nın
▁ホ
▁宝
▁بشكل
▁च
▁produce
▁コン
▁Va
▁tapi
▁olivat
▁Mộ
▁イギリス
dar
ులు
ూ
▁ro
▁zer
প
▁емес
▁サイズ
▁以外
▁awal
▁Cruz
▁ชื่อ
▁Brand
▁Mỹ
维
▁จ
격
▁ト
▁直接
▁giao
▁horas
▁weiten
▁wide
▁Boy
▁Stein
▁verschillende
ाई
▁kerajaan
ска
湖
ula
▁този
達
▁သည္
▁Here
▁కా
▁pos
디
▁línea
▁cảm
▁ты
▁Jackson
▁റെ
▁Ost
▁3000
issä
▁App
▁ノ
▁founded
▁range
▁situation
▁φ
▁gebruikt
▁перед
▁sor
נות
▁figure
▁населения
▁chọn
sia
▁đoàn
▁Groß
調
▁tek
మ
_
▁技术
▁350
▁இல்லை
▁Wall
appointed
▁developed
▁volte
▁बार
▁爱
で
▁muss
▁監督
▁共同
▁although
▁優勝
▁kap
▁چند
▁ले
ね
▁الل
▁kreeg
同
▁არა
тар
▁87
▁Civil
▁tuổi
姆
▁specie
▁91
▁۲
▁berkata
▁وأ
▁ติด
акже
▁mert
▁אף
터
▁nazionale
▁vengo
yi
▁daerah
▁র
▁警
▁Partido
▁Mitte
ക
▁黒
质
▁ဖြစ်
▁Alt
▁species
▁79
▁故
▁င္
ell
▁दे
▁必
展
少
▁占
▁dazu
▁כן
▁延
▁beaucoup
▁boek
▁società
▁orden
িক
Т
▁objetivo
▁Pu
▁Porto
ம
isation
▁생
▁soprattutto
▁cu
қ
▁Unternehmen
▁שנים
亞
▁ط
▁दिन
▁cá
▁Dom
▁SM
▁မေ
▁cinq
ما
▁بل
▁υπο
▁Stati
▁tele
▁ती
▁mong
నా
▁geld
▁ベ
▁котором
▁continua
▁Υ
ங்க
▁販売
▁futuro
ney
▁ein
▁conditions
ディ
▁密
డి
▁持つ
af
▁daughter
▁AG
ザ
▁建立
▁サン
▁janvie
▁時期
▁consist
▁mid
こ
议
▁dood
▁posible
▁italiana
▁वर्ष
▁indi
▁担当
▁Georg
▁ব
▁単
▁とともに
phía
▁举
▁money
oanh
▁gel
▁road
tivo
ゴ
▁firma
▁memberi
▁ర
▁eles
切
▁corte
rs
庄
ουμε
▁沿
英
▁perio
▁旅
dy
▁chia
▁sempio
▁grond
▁Lors
ване
▁active
▁सकते
▁pam
▁Inc
▁క్
▁ระบบ
▁Terra
▁ე
్
▁ID
▁seja
ენ
ey
▁propose
▁പ്ര
▁红
ys
▁尼
▁Reino
▁ניתן
▁sería
ֶ
▁ल
▁MA
▁جدید
▁25.
▁עוד
▁Namun
▁ဂ
▁however
▁எ
▁汉
▁Later
▁इसके
▁почти
নি
ातील
▁Â
▁مردم
▁ultima
▁റ
nh
בר
▁linea
▁الس
hof
▁kaikki
회
▁tanpa
▁center
付
۶
▁Av
报
▁企业
▁sound
▁Chat
▁FM
▁ciò
▁estudios
▁volume
▁gegründet
修
▁کل
▁cum
群
▁SC
▁peso
▁agit
先
▁volgende
zel
▁κατα
▁御
清
ful
▁鉄道
服
▁weet
▁؟
▁巡
lık
ью
▁vive
▁call
▁Vater
▁करून
▁surface
etta
▁Cam
ach
▁Fox
▁verder
▁22.
▁导
▁teve
▁nhỏ
▁Campeonato
▁hoy
۸
▁strong
▁название
▁తో
▁הספר
ें
္
результате
▁eh
▁alguns
▁kecil
▁ü
▁אין
▁平台
▁familie
▁Partei
ص
土
▁合作
▁Instituto
î
▁mask
▁Australian
▁担任
▁situé
▁เรียน
പ്പ
▁quố
hu
▁声
▁ထ
hez
цы
▁stessa
▁file
래
ves
▁२
류
▁造
▁sel
লে
▁Florida
▁केला
▁pasar
▁ვ
har
▁Nag
rie
▁pula
▁希
▁одним
▁Tim
ელი
▁east
▁زیر
▁என்பது
书
崎
▁領
ове
▁鎮
▁future
▁playing
۴
▁तरह
▁œuvre
▁הא
▁Internacional
▁producción
▁aparece
▁முதல்
▁cela
▁همچنی
▁Einsatz
▁dẫn
▁дом
▁wechselte
లా
غ
▁board
ാൻ
維
▁mostra
▁ほか
▁magazine
▁mettre
▁計画
▁নি
stand
▁Ú
▁éxito
▁đặ
▁truyề
▁arasında
▁غیر
勢
▁töö
▁গ
▁ф
▁ابن
▁Santiago
fer
▁sites
▁SE
▁มัน
larını
▁عند
▁妻
ê
越
▁Frei
▁نوع
岛
例
▁sun
급
▁שנה
▁ดัง
▁seguinte
▁llegó
▁Sommer
▁冷
▁רבים
▁ものの
▁Gebäude
ба
▁يتم
▁num
san
▁Journal
▁Bio
▁国内
沢
▁Public
▁participe
▁books
▁americano
▁llora
▁girl
▁転
▁切
▁acuerdo
▁Cara
▁ഹ
▁unit
▁OS
▁Test
키
யே
▁Franz
▁mely
▁女子
▁просто
昌
hích
▁FA
▁초
約
▁второй
▁Mike
▁помощь
▁rededor
▁Werk
▁influence
▁character
▁torneo
▁дома
▁esti
▁saam
nti
▁capo
▁joueur
▁گیا
▁賞
Б
ости
▁ngoà
tra
▁puntos
▁эти
▁fun
▁Ser
▁đạo
▁bak
▁增
дық
速
▁Est
▁bình
▁Jim
▁partidos
ние
vät
ില്ല
▁valamint
באופן
▁事業
▁tiga
ק
▁Mario
▁Arbeit
즈
▁1889
▁sáng
▁秋
▁estão
致
▁שמ
▁fer
▁англ
▁久
rum
▁ganz
▁Sky
▁Women
mas
ете
▁案
▁Korea
▁Suid
▁იყო
▁waarin
▁жыл
ారు
ens
▁שנ
పు
▁भर
景
ī
▁Business
▁significa
▁செய்து
▁توان
季
▁diversos
▁professional
교
▁πιο
▁IT
▁sociale
▁breve
▁وهي
▁알
ود
說
జ
▁nagyo
▁vat
▁leven
▁saan
nos
▁бъде
想
▁mudah
▁unique
▁gemeente
▁thay
▁मु
▁ak
▁VIII
▁留
▁像
▁期間
▁الع
ag
▁सकता
ins
ボ
▁εξ
則
ء
开
▁bất
▁Θ
▁選手
街
▁enkele
▁thought
产
▁変
▁Tur
well
▁문
▁jogo
▁jalan
▁End
eerd
▁tranh
▁história
▁카
▁cabo
▁量
▁علي
▁Gruppe
▁leading
▁dad
▁সঙ্গে
▁တယ်
▁बस
ത്തിന്
▁coach
▁گا
▁wana
▁특
▁μου
▁Disney
▁Wien
馆
▁trop
船
▁össze
▁feder
▁ques
▁convirtió
களின்
▁製
▁הברית
▁керек
▁llega
코
မွာ
▁official
▁école
▁photo
▁Winter
▁zal
атын
▁意味
▁함께
▁construcción
▁停
ফ
▁ച
▁produzione
يد
▁بیشتر
ance
▁政策
etan
▁الإ
▁friend
▁لو
▁ves
▁これら
ják
▁messa
▁Presidente
▁című
▁บริการ
ena
▁musique
▁당
▁ที่สุด
▁think
▁আমাদের
▁希望
란
▁Hoa
wi
▁premiers
▁kỳ
▁ရင္
▁ditu
▁運動
▁ஏ
mu
▁cái
▁Two
▁uw
▁ولا
ism
▁നല്
▁giorni
▁Motor
▁جميع
ador
टी
▁turn
zio
▁debe
tura
▁ministro
bile
▁ഓ
▁Board
▁член
▁dagli
tori
▁Dengan
질
▁Chr
▁nello
Г
음
▁oldu
▁관
▁شوند
▁família
اد
▁miembros
ッド
▁ต
▁ó
▁teil
▁Verein
▁δ
▁23.
▁かつ
반
▁জ
▁房
▁màu
▁nombreuse
▁בבית
▁微
▁يكون
▁হ
▁benar
▁24.
▁بها
▁nd
vin
▁geht
▁ไว้
▁Ol
▁pont
약
▁სი
▁mak
▁終
▁加盟
▁better
iga
▁Diego
еді
▁onze
設
▁Bộ
▁فيها
▁vos
yn
▁αυτή
κ
▁utilisé
▁groep
usta
ium
ソ
ंड
▁Water
▁亞
▁場所
▁1848
▁ма
▁maakte
去
首
▁बात
社区
▁させる
▁donna
▁क्या
▁succè
处
▁upon
ust
▁체
▁بسیار
▁같은
▁Wi
▁還
▁就任
▁कई
岸
▁deutsche
▁text
▁Kultur
▁führt
史
ario
▁കെ
可
▁生まれ
▁師
idade
ev
▁arra
òng
▁उन्होंने
속
▁همه
▁岁
航
▁rice
▁hộ
▁uur
▁boy
మైన
▁Studio
風
▁στους
▁牛
▁遊
▁मैं
vam
▁commercial
▁regard
လ
से
تے
▁سه
▁DNA
15
▁job
▁kez
বে
▁Papa
▁wanneer
▁julle
▁Ros
▁నుంచి
▁vanaf
▁militaire
शी
▁形式
▁opere
▁млн
▁ولكن
▁บน
▁loob
্য
▁さん
่า
洛
▁Other
▁报
▁وم
▁су
ius
χ
▁lewe
ู
▁loi
lat
▁Με
进
▁pool
▁hart
▁Ô
▁musste
▁απ
母
▁バス
▁Germany
此
▁Kami
▁העולם
▁gare
▁vu
sson
▁Hollywood
▁computer
▁Kur
イン
കൾ
▁中华
거
▁কিছু
司
ソン
▁tử
▁製造
▁occasion
▁Back
▁cung
iä
يه
▁contain
▁още
▁आपल्या
实
▁男性
點
▁право
▁hele
იდან
▁buka
▁৩
▁Pol
▁שהוא
▁jenis
▁côté
▁età
▁Francesco
▁бас
▁araw
▁université
cer
▁活动
▁soon
16
▁propria
▁الن
▁لي
०
▁mark
▁profesional
▁mir
▁Egy
術
▁Bereich
రీ
▁โลก
מ
▁African
ális
▁کردن
▁Virginia
▁μόνο
mat
▁данным
▁месте
▁Jika
▁melhor
ছে
▁Ал
▁Prix
▁న్
ság
▁Sri
▁ikan
▁мм
▁ひ
▁kwenye
▁read
illä
▁কোন
ти
или
▁미국
▁Jahres
▁least
▁events
▁일본
۳
▁білім
▁ის
使
▁회
▁Bur
bal
▁大量
ക്ക
▁书
직
▁塔
▁millions
ワ
▁século
▁মে
▁square
cos
▁이후
▁laatste
▁vait
▁muun
▁Col
▁Kir
▁компании
▁μπορεί
ير
▁König
リン
fe
▁மா
▁結
▁皮
▁além
▁episodio
▁Steve
▁origen
내
cu
▁בני
▁cukup
▁voir
▁Your
▁发现
်
▁report
▁child
▁Queen
▁室
dik
▁دار
▁partner
▁região
▁email
▁Premio
▁propio
誌
leg
▁Premier
nä
▁today
▁Series
▁박
▁bagian
▁bola
▁hab
▁واحد
▁تاریخ
▁供
▁Book
▁高校
দ
▁hidup
▁實
▁राज
▁برنامه
▁Chu
▁allen
▁цвет
▁Football
▁Wald
▁Health
▁朱
▁така
▁страны
▁تولید
▁העיר
陵
▁經
▁Kreis
ue
▁視
▁မိ
▁καθώ
▁హ
▁核
▁unidad
▁Volks
ാം
▁либо
▁אז
ина
▁چه
▁آنها
▁عاما
▁gold
▁龙
▁UN
▁terme
▁comunidad
▁法律
▁equipe
श
▁Sha
▁せ
▁negeri
▁André
ings
▁kala
▁bezeichnet
▁always
▁phục
尾
▁পা
▁directeur
▁गए
▁რა
▁gua
료
▁امام
▁调
▁Ru
團
▁피
▁população
art
▁Director
ET
сын
립
▁vorm
▁信息
▁1893
▁Janeiro
het
▁دا
တ
▁Regional
告
▁muchas
▁景
▁أيضا
▁梅
▁television
▁gì
▁vielä
▁ello
ുക
▁抗
▁نظام
▁செய்ய
▁sé
▁Region
တ်
▁mục
▁风
ц
▁スーパー
▁sechs
▁Straße
တာ
▁decir
▁★
除
▁développement
▁quand
賀
▁状態
▁har
▁اب
▁ല
▁seven
▁ช่วย
தி
▁trậ
▁inizi
sı
don
▁américain
▁poste
▁revista
ingen
▁estudio
ral
▁決
ケ
▁қызмет
▁26.
病
▁lag
▁熱
ték
溪
▁داخل
別
▁hiyo
▁vis
▁सी
▁vivo
▁rate
▁אחת
▁servicio
يت
▁mem
▁取り
▁Oscar
িয়ে
۲
や
▁nữ
▁শ
▁brother
▁kuid
▁Kat
யாக
▁组织
▁최
▁bahan
▁جن
しい
▁bà
▁mètres
▁Via
▁ขนาด
▁Bell
▁création
▁Next
نی
▁機能
▁versión
▁élection
▁影响
▁1894
▁ту
▁၂
▁ลูก
ठ
▁relación
▁nhiệm
▁ద
ranno
導
▁chố
▁בת
▁雷
ပ်
ясь
▁探
▁totale
▁制度
분
▁kaksi
▁vậ
▁vele
▁לפי
▁עבור
▁experience
▁realizado
▁경우
▁อื่น
▁Door
▁vấ
▁fully
烈
thân
▁recorded
▁Marco
inizio
▁blieb
▁château
送
ll
▁thing
▁Amt
▁越
▁す
▁product
▁1892
▁quyết
▁आई
▁designed
▁Под
▁Nederlandse
▁Marc
▁seria
▁retour
▁মো
▁うち
状
▁lamang
▁Name
▁하는
▁ตอน
▁شخص
▁ట
let
▁הרב
stadt
iko
▁Little
40
▁Austria
▁mesure
歌
var
▁letter
典
▁Program
▁üks
▁Ren
▁jamais
▁clear
▁والم
▁matrimonio
▁fez
▁rio
团
▁سطح
▁Dat
样
▁製作
▁目前
▁tui
ish
▁biến
▁taking
剧
ണം
▁Corporation
▁基本
▁Staats
▁코
▁گ
▁Uma
▁ఆయన
兴
▁หลาย
▁אותה
▁mét
▁وكانت
▁龍
▁epoca
▁সব
▁頃
▁இருந்து
▁英語
給
▁empresas
ère
▁bata
▁francese
▁守
▁maggior
字
▁ს
▁iyi
▁cine
▁ခု
▁ezt
久
ente
▁వే
▁Bild
▁ground
▁tahu
▁label
τε
▁Hamburg
▁sob
示
3%
▁Gia
▁mouvement
▁1885
▁Rosa
▁मा
▁podem
▁provided
▁สูง
▁studi
ense
اں
stuvo
▁အျ
▁ഉ
се
▁khả
▁ท
▁اول
▁sát
버
mus
▁イン
У
▁Ada
וכן
▁국
▁பா
▁システム
▁membre
▁మరియు
▁leer
▁muốn
▁jam
▁消
জ
▁嘉
击
▁kira
張
▁田
▁weiteren
▁ent
သ
▁28.
▁Jazz
▁pièce
▁Entertainment
ман
▁Opera
撃
ước
ിലെ
▁Kara
▁Games
▁と共に
▁บาง
▁dito
▁করার
主義
▁wanita
ുള്ള
14
▁Battle
▁tục
▁Twitter
cio
bus
▁動
▁gent
▁baina
▁mida
▁genannt
▁fog
▁Ger
▁rispetto
▁360
▁帝国
▁招
▁জন
▁sekali
▁этих
▁Kal
▁와
ário
▁เห็น
▁nyt
▁မ်ား
▁nhạ
▁ça
▁مجلس
od
▁モデル
▁చా
%.
▁politik
▁बन
скую
▁altra
▁quest
▁zien
▁press
▁আমরা
▁movie
▁една
▁宣布
▁義
▁دارند
▁menor
▁किंवा
▁Dorf
▁Esto
مان
▁адам
▁mention
۵
▁olisi
▁phim
▁جب
▁1888
▁tiến
▁buah
▁weil
▁شامل
▁Station
▁受到
▁province
▁另
▁által
▁आले
ז
▁devant
▁college
▁脱
▁ol
the
▁فوق
▁lança
▁atro
▁пен
ကို
▁లే
▁ကား
▁Dort
▁роль
▁bare
瓦
▁خان
▁noong
▁及び
▁egiten
▁救
▁Teatro
▁Cho
▁Questo
▁đấu
▁लोक
ék
ff
▁乡
▁throughout
하지
盤
ени
▁1891
▁Tochter
▁troisième
▁居
▁^
▁Pur
▁empat
▁म्हणजे
納
▁try
▁края
ু
▁episode
▁약
▁koos
▁อั
▁часто
▁岩
華
時代
▁Menteri
▁उनके
托
▁furent
▁completed
▁winning
ოთ
▁ఉంది
▁ภาย
▁seluruh
▁Uni
▁သော
ava
▁것이
▁契約
▁servizio
▁限
kaan
▁다른
普
▁joue
▁менее
▁ই
ג
▁行政
▁却
▁區
▁card
▁mensen
19
▁übernahm
ست
▁們
▁Ball
▁parece
▁मला
▁Sar
▁campaign
▁Elizabeth
▁sz
▁pério
▁리
▁tim
▁1871
▁sở
▁municipal
ப்பு
▁हर
▁стороны
ary
▁अन्य
▁Foto
▁uu
▁干
▁ailleurs
▁जे
▁Museo
▁berada
▁הס
▁सबसे
▁dating
▁العام
▁DJ
▁הק
▁蘭
▁Although
nie
▁conquista
▁Vir
GB
Р
๊
her
▁იმ
は
▁特別
ယ်
nza
네
▁کرتے
▁YouTube
▁Ton
版
▁الح
▁Rahmen
ön
దు
条
画
▁적
▁根
▁serve
▁championnat
▁laut
▁possibile
▁Если
▁平均
▁παρα
▁vezes
▁학
▁廣
▁khỏ
▁gehört
▁mere
▁bentuk
▁வ
▁علم
▁Japanese
▁één
ంలో
▁muo
▁观
▁paper
▁смерти
▁consiste
▁videos
▁clase
▁Min
ヤ
▁اسلامی
▁Gay
▁قال
▁mellett
リング
▁femmes
▁cứu
▁khoả
步
▁تن
曼
▁posizione
二
ॅ
▁총
▁tas
▁telefon
▁หา
ια
▁rights
▁公開
▁количество
▁苏
▁통해
▁move
▁Mars
▁работа
▁Reich
▁இருந்த
▁conta
▁illetve
▁সু
овой
象
▁கூட
▁milieu
▁ガ
▁Iran
▁saab
▁mama
▁thêm
▁年度
▁血
▁гг
▁november
▁ေျ
▁Tel
▁estate
▁1850
▁డు
▁அவர்கள்
▁Russian
▁Cu
ร์
▁کوئی
▁kasuta
▁CH
▁друг
▁fact
▁置
வு
▁nodig
▁27.
▁所属
▁beri
▁>>
算
................
▁游
▁personnage
▁写真
▁programme
▁gewählt
▁kiksi
▁ขอ
car
▁really
層
▁USB
yle
▁مصر
▁Town
▁ร
га
▁mijn
▁이다
นา
▁dago
▁ภาพ
▁Kai
▁প্র
▁열
נית
ലി
овых
▁mur
களும்
良
▁maail
▁hasil
ал
lak
▁PA
▁※
▁teams
▁successful
▁Sc
▁बा
▁жаңа
ком
mal
▁करना
▁kini
▁מאוד
▁poli
انی
▁Columbia
▁maggiore
sha
▁Seite
▁ebbe
▁دون
▁science
▁información
▁meilleur
▁nguyên
▁amo
▁générale
▁உ
тік
▁involved
具
▁获
▁العالم
▁ケース
開
▁haut
▁向け
finished
aron
▁nghệ
▁בר
▁入り
▁protagonista
▁점
▁Hart
蒂
▁民族
▁Klein
▁pouco
▁lagu
발
cho
▁features
▁above
वी
▁écrit
▁namun
▁சு
▁writing
▁Ng
▁Hitler
চ
▁£
▁தமிழ்
▁هناك
艦
▁visita
ному
▁কাজ
▁번
▁حق
연
守
▁rin
▁NBA
名称
▁басқа
▁maan
▁cuerpo
▁得到
▁Й
▁altura
▁Wir
▁belum
▁livello
▁ним
▁podría
né
▁だけ
დი
▁Foundation
▁Since
▁Rai
▁fonda
▁tama
▁either
προς
ские
势
▁במקום
▁Dabei
▁زمین
▁rima
▁dugu
▁tố
지만
▁ahora
▁Más
▁speelde
▁семье
▁master
▁membantu
â
ర
▁temas
jan
▁勝利
当
▁威
▁Mad
▁всё
峰
▁以前
석
▁indica
arak
▁student
▁taas
▁drama
ான்
▁gr
11
标
iche
▁AD
נ
▁ഡി
▁原因
▁rede
▁ช
▁đư
▁ہوئے
▁арқылы
▁منها
णी
▁ช่วง
风
▁terdapat
▁പാ
바
▁Gre
▁Preis
லாம்
▁Gesellschaft
▁added
▁ハイ
קה
▁chị
▁pasa
▁เดือน
▁няма
ES
▁qué
念
▁సు
▁နေ
▁lassen
▁خواهد
dur
▁meist
ণ
▁دانلود
లకు
eerde
▁μία
▁所以
▁staff
▁cantante
▁तीन
▁共和国
▁1878
▁Tony
▁etwas
▁break
▁seizoen
▁负责
▁戰
▁isla
▁队
▁गो
▁艾
▁система
▁آخر
▁قیمت
цев
lichen
▁Segunda
▁asi
▁Mannschaft
▁inicial
▁hair
▁ผม
▁Ei
▁όπου
तो
▁सभी
▁நா
▁tá
ულ
▁account
▁1886
▁ほど
▁phụ
▁నుండి
▁نشان
▁Sultan
▁musica
▁查
▁κάθε
▁siguiente
▁verschiedenen
▁المتحدة
▁dài
▁Front
▁کہا
▁മു
▁ตั้ง
▁Rus
노
▁giờ
▁Alex
還
▁share
▁建筑
ติ
tin
陽
▁masalah
▁quy
▁واقع
リア
Ν
bili
▁佐
▁101
▁minder
▁.....
2%
▁Rechts
▁мир
▁trade
డ
▁करण्यात
▁Cô
▁麻
ства
▁있습니다
▁Hoch
ales
賽
▁gelang
▁cut
▁Selain
▁က်
▁সাথে
50
▁virus
▁γ
คม
▁prova
▁erneut
▁−
थ
▁ソ
US
▁Tele
領
▁UEFA
▁科技
డ్
▁Victor
▁Guerre
▁乗
აში
남
▁zonder
▁ザ
elli
▁ഫ
की
▁เดียว
ение
▁シュ
酸
かっ
仁
▁5000
ांची
▁הר
▁Ut
▁Gebiet
▁moderne
▁mani
ту
▁doctor
宝
▁Wahl
▁fondo
▁siitä
▁မှာ
▁esposa
령
ব
▁攻撃
▁Zur
rak
▁TO
▁요
tica
یان
▁bố
▁セックス
▁novel
▁उस
▁effect
ismus
का
피
旗
▁oil
▁维
▁produit
址
▁България
▁representa
▁ค่า
▁اليوم
▁últimos
▁eventually
▁있으
▁ista
▁Shi
כם
▁dias
限
退
▁胡
總
syon
▁xây
▁aún
▁学院
▁Rolle
▁Ludwig
▁लोगों
dı
▁బా
▁chư
▁университет
▁وسلم
ני
▁ting
▁末
▁Това
乐
▁thầ
▁vô
▁حول
larının
▁1887
▁dura
▁corre
▁ഭ
▁hombre
нан
▁Light
▁پاکستان
nd
▁karşı
▁热
▁дейін
▁الف
▁部隊
▁cầ
▁道路
▁gree
▁Mart
▁অনেক
▁천
రి
▁участвовал
主义
set
▁locale
▁bide
ாய்
▁бес
▁hạ
▁vind
▁hou
ges
ix
▁मन
ώ
▁note
▁دیا
▁decided
▁нет
▁श्री
▁network
▁友
ックス
▁初期
▁illa
▁告
▁始め
▁倍
Τ
▁যা
25
▁მისი
ード
▁委员会
▁Tuy
▁Franco
▁డ్
100
▁réseau
▁場
▁Negeri
▁Special
▁Raja
▁감
▁如果
▁coming
▁женщин
▁계
▁month
▁写
▁אחר
放
М
▁施
▁meio
▁stories
▁ко
▁बे
百
입
cal
▁类
▁よ
▁focus
▁اپنی
▁mujer
▁rebbe
▁வர
▁साल
▁Taylor
▁നിന്ന്
▁tàu
▁outro
▁एका
ravaux
▁كم
价
▁105
부터
▁ませ
▁gy
▁läbi
▁hạn
▁毛
▁运动
▁casos
▁Carolina
蘭
▁вид
▁marque
▁त्यांच्या
▁кино
ям
▁酒
▁Amazon
▁rive
▁論
▁Get
è
▁nende
▁敗
▁उप
▁connu
▁tendo
▁1884
▁Stone
▁以来
▁phong
വി
▁آل
ặp
▁seulement
ization
▁людей
▁革命
ela
隆
▁警察
▁料理
セ
▁phá
▁aide
运
ιο
각
▁behind
▁没
▁interpreta
and
▁âge
▁つの
射
▁والتي
▁vaak
▁vero
லை
▁considerado
▁Nguyễn
▁état
lta
ete
▁Süd
▁avrebbe
▁nave
▁kanak
▁군
▁кто
enden
▁1881
ierung
▁എന്ന്
▁gebied
▁avere
▁Deutsche
iti
kus
▁организации
▁meet
▁Italian
iksi
▁Personen
▁Venezuela
▁FIFA
▁diren
康
▁represent
▁Lady
▁نیست
▁29.
ками
▁ماه
▁规
▁dù
益
▁ellen
▁气
▁sitten
▁程度
ση
节
▁Billboard
▁届
▁مرکز
護
▁lid
▁br
▁الر
▁macht
▁алу
بة
▁tinh
▁方向
▁ngayon
▁NG
▁历史
▁gusto
▁league
▁Jugend
▁优
顿
ेल
▁تهران
▁lik
ён
၀
тан
▁כש
▁gain
▁IX
▁minister
▁almost
▁بات
শ
▁penting
▁университета
▁bizi
▁Kota
А
▁selepas
ნი
酒
zar
ated
▁προσ
▁موضوع
▁מס
▁ونسبة
▁に関する
▁tanggal
ø
▁Wilson
▁Daten
▁woman
▁আছে
▁Alter
▁Кроме
ज़
jar
▁studies
▁одно
5)
▁goal
▁บ
30
▁melihat
▁queste
▁Ihre
▁eram
▁consider
▁administration
▁Cross
▁eli
▁发生
▁jazz
▁protection
留
ड़
▁寺
▁PRO
▁remporte
వు
▁출
ლი
▁போது
▁Arab
▁デザイン
▁USD
▁sal
▁december
▁hướng
丽
▁regional
▁Francis
ႈ
▁كه
▁camera
▁チ
▁دانشگاه
▁детей
▁manager
▁minutos
ၾ
▁ail
۰
▁μέχρι
▁Kilometer
▁土地
▁וי
▁農
▁宗
▁concept
1)
▁masing
▁أول
▁eigenen
▁العمل
▁Uniti
▁située
▁premio
▁數
▁Digital
▁planta
▁Ai
ow
▁পারে
▁ஹ
▁done
▁paa
▁Hin
▁vue
▁vole
▁chuyên
▁Committee
▁väga
š
▁fail
▁जाते
▁2004.
▁sign
▁领
▁อาจ
▁score
▁Win
ঃ
▁touch
▁Space
▁優
▁év
▁继
Μ
属
▁usar
▁Trump
▁rather
ൾ
▁gầ
▁グループ
▁捕
▁đẹp
▁vast
▁стоит
னர்
▁প্রতি
走
▁افراد
▁Bach
▁ولی
▁express
▁faz
▁তারা
▁Data
luk
▁ഒ
约
▁kiệ
▁toen
▁Minh
▁音乐
▁ท่าน
ập
த
▁conce
▁groups
▁presenza
▁Tây
▁тази
▁ชั้น
▁模
▁Kol
یہ
▁또한
▁심
▁Education
▁voz
▁1861
▁個人
▁начало
anti
baar
ila
▁Weg
▁χρόνια
▁paso
▁Gua
▁mạnh
▁traditional
▁quais
節
▁逃
▁mère
▁raja
ニア
पी
복
▁件
▁高い
▁控制
▁Dieser
▁département
ül
▁Vietnam
▁گل
লা
▁타
▁과
▁wilayah
▁آر
들의
▁isola
▁ordre
▁Khi
▁הראשונה
▁発生
▁ระดับ
ီ
▁Rat
▁chơ
▁উ
▁Was
ாமல்
▁喜
▁erreichte
ल्या
楽
▁partire
mes
▁Prince
itas
▁maa
▁班
▁transfer
▁oso
он
▁Beispiel
▁tv
▁kaum
▁إلا
▁Year
cion
▁όταν
▁senior
▁यांच्या
▁أخرى
▁issues
▁นอก
▁हुई
▁旗
▁случае
ô
▁store
应
▁大阪
▁bỏ
▁渡
▁Kaiser
▁cinque
▁concert
▁MS
▁تیم
▁1876
▁puso
存
▁Nell
▁luogo
іне
▁康
▁habitants
▁edit
▁countries
▁profit
变
▁সেই
▁วัด
▁hyvin
▁อาหาร
▁फिल्म
▁拍
4%
யா
▁ST
▁itt
▁imagen
育
▁berbagai
▁Mexico
▁Raum
▁Human
▁然而
▁编
▁datos
ufgrund
▁Russia
▁ست
▁ロー
▁sekarang
▁rasa
▁1882
▁সা
▁ဟ
▁นาย
▁分析
▁הפ
▁съ
▁escort
ihin
▁聯
ையும்
▁NS
▁Arte
▁構成
▁라
▁それぞれ
▁အတြက္
▁genre
▁办
断
▁Gal
▁errichtet
▁alread
▁Bus
▁DA
▁location
▁movimento
▁Norden
▁Ltd
终
▁കോ
▁dance
▁одного
▁shot
▁৪
6%
▁छ
▁Jr
17
▁industry
தா
▁法国
ость
▁bring
▁Zijn
▁scene
▁actor
▁меня
▁Ent
liche
▁प्रकार
▁ჩა
▁trẻ
களுக்கு
▁موجود
▁IS
▁решение
▁אלא
▁または
▁search
▁fim
▁لها
▁fece
▁político
nde
▁추
▁notre
▁مهم
▁guru
▁Jakarta
gang
▁đời
▁kurz
▁సినిమా
▁spot
▁jeweil
▁kolme
pan
▁Ak
▁видео
▁متر
하며
▁mont
▁People
▁அதை
▁ఉ
▁アルバム
▁heart
ๆ
▁kry
▁出来
▁Yu
▁간
ップ
▁Республикасының
▁急
▁جنگ
▁گروه
▁aurait
Ρ
dia
▁juu
▁água
▁ricerca
▁πως
▁здесь
▁Za
▁mobile
▁理
▁arrive
▁kurang
▁verschiedene
庫
mail
▁Canadian
▁complete
ッ
ئ
량
▁songs
▁elementos
وم
ന്റെ
▁ছিল
▁वो
▁create
ვა
▁yli
▁လဲ
larda
▁1865
▁רב
▁اسلام
▁teh
大學
▁მაგრამ
▁मात्र
qui
▁玉
▁trưởng
▁ディ
▁места
▁তবে
興
▁சி
▁ഡ
ப்ப
▁Hei
ри
▁might
▁lago
▁pin
园
▁中共
▁buhay
▁summer
န်
ッチ
ос
▁Beach
▁കാ
▁ضد
▁指定
▁ließ
▁aange
▁に対する
▁тысяч
げ
dra
ιών
▁alan
రా
▁Sant
视
▁पी
▁நீ
ización
▁machine
しく
▁底
▁గ్
tro
ത്ത
▁eingesetzt
▁killed
▁شو
▁eux
▁Management
▁nais
▁Cristo
מים
▁建築
▁út
▁nuwe
▁команды
▁アー
▁mọ
▁metri
لی
ское
▁organisation
▁حل
▁편
▁Щ
▁находи
▁ई
▁宮
▁petite
▁mono
way
ını
▁direkt
sar
▁Ngà
▁Sports
▁Global
▁eigene
▁1864
▁గు
▁terrain
▁jumlah
▁Roger
▁medios
▁ข้อมูล
輪
ž
▁aproximadamente
▁ください
▁XIV
▁博士
▁進行
▁protect
▁cliente
▁1883
▁sering
ants
▁XI
權
▁bois
▁acqua
னி
▁家庭
▁油
▁cuố
▁aumento
▁Magyar
▁ball
13
▁اینکه
▁Ses
▁אלו
▁cre
▁Jorge
ူ
ლის
▁അത്
DS
▁系統
▁particulier
▁mg
ए
▁khí
▁trợ
ीत
▁הה
▁خانه
▁သြား
▁muk
▁Manchester
дегі
▁brought
▁قابل
▁എസ്
▁lúc
▁gioco
▁最后
▁Ziel
ిన
▁application
▁Nur
▁Mittel
▁artikel
▁journal
▁көп
▁langan
▁จริง
▁élet
▁กล่าว
▁cinema
ικής
▁dicembr
▁SO
▁Ob
lara
▁Bureau
▁ennen
▁torno
shi
▁ദ
গ
▁ללא
▁根据
▁Giuseppe
▁первой
▁1879
▁власти
▁conduct
SC
▁Wild
▁לכל
აც
▁wereld
▁Holz
▁loop
▁khá
▁formal
▁လည္း
ра
▁क्षेत्र
▁アイ
▁उत्तर
▁cadre
底
천
▁juta
▁strada
▁भाग
▁1863
▁आपण
nál
▁فإن
tina
▁diğer
▁victoria
▁Government
▁sentido
το
▁אחרי
▁audio
▁戦争
▁manier
▁Are
▁陳
▁Folge
▁প্রধান
▁ملی
▁劉
▁város
▁Đức
▁gilt
▁memang
▁بیان
▁ejército
rlo
▁డ
臣
▁command
▁especially
▁ги
▁eight
▁मोदी
▁شدن
▁practice
▁華
▁Ges
▁법
▁Tre
▁복
▁前往
▁கொண்ட
Ι
▁chung
▁ถ
▁デビュー
recht
▁Zum
▁வந்து
itz
ın
▁means
▁ministre
▁системы
▁همراه
▁ugyan
▁davon
▁청
▁Khan
▁教会
urs
▁Davis
▁stated
▁giovane
▁మన
▁สาย
▁כמה
太
నీ
нен
▁accord
▁أحد
▁quality
▁ნა
ိ
終了
اق
▁Gratis
▁എം
▁novela
▁magitan
▁rakyat
▁Bahn
년
▁Latin
▁ネ
频
▁featured
▁Oxford
▁mau
▁bert
▁publié
▁சொல்ல
▁แสดง
▁Off
▁related
▁Original
▁surtout
IA
▁disse
▁gira
▁সি
▁כבר
▁pina
▁sejak
ံ
▁âm
▁verwendet
▁后来
▁پیدا
▁산
▁الذين
▁édition
▁NA
▁Tổ
▁João
▁1866
▁志
ré
▁AL
▁具有
zza
ნა
iana
▁PR
▁1862
古
▁例如
▁経
▁konnten
▁things
計
▁1867
▁بدون
▁milioni
▁Türk
博
▁tratta
▁definitiva
▁2000.
ヌ
▁ブランド
▁Second
▁Σε
▁recibió
▁Solo
▁aqui
▁環境
▁laki
▁batalla
▁사용
ൈ
ле
č
inin
▁দ
▁億
▁Camp
▁Jacob
▁ね
▁บริษัท
▁順
▁असा
▁דבר
▁झाले
▁只有
▁punti
-20
▁Soviet
▁cổ
ιά
▁Samuel
మే
▁尾
▁语
ッシュ
▁Brian
▁boven
▁Start
▁pad
▁Mutter
▁Golden
▁trả
要
브
▁início
▁mogelijk
▁1868
▁一直
▁iglesia
▁Pat
▁Zwischen
ài
▁ago
▁animal
▁Ara
▁miembro
▁проект
▁1200
▁coup
▁Major
▁Network
▁schools
▁ออนไลน
▁frei
▁票
bb
▁Hari
▁Navy
圖
▁membro
ాయి
其
▁Έ
ത്ത്
▁Ehe
▁hinter
ean
▁yksi
▁Tai
▁iş
eta
▁primero
▁موقع
▁ден
band
▁offer
▁گرفته
▁ন
▁都是
▁parties
▁Hai
▁suivante
▁akhir
▁1872
▁Gen
▁场
▁Jun
▁နာ
▁ബി
▁тях
elt
声
▁భ
del
▁တစ်
▁宋
rán
▁vệ
vé
▁Stand
▁moest
▁começo
민
तील
▁海拔
▁Kingdom
mit
▁秒
▁週
▁появи
पुर
▁editor
▁الأول
청
▁sillä
▁llamada
dal
ско
ját
▁वा
▁ชีวิต
▁المت
バー
▁予
ces
▁Mel
▁siège
cm
▁يوم
▁סי
▁entstand
▁nap
▁祭
▁havia
▁Marine
▁Все
å
▁سنگ
▁vote
▁Sydney
▁Valley
IP
▁करें
▁Alfred
▁сезона
▁Earth
▁Beginn
▁troupe
▁rá
▁División
-2
▁δι
▁湖
▁初めて
▁Colombia
การ
▁奖
▁되었다
▁Far
▁எந்த
▁fre
▁Mand
▁nổi
▁শুরু
▁insbesondere
▁comun
▁皆
▁大型
▁Ham
▁dios
▁chu
▁产品
▁ერთ
▁tus
β
▁改革
▁Sound
▁болған
σε
▁bass
▁censo
▁কা
інде
▁प्रति
▁subsequent
編
▁largest
▁خبر
▁hoofd
▁جمعیت
及
ונים
ables
鲁
▁カー
める
ep
▁5%
▁Republic
ист
▁sonders
▁Não
▁قانون
▁ഷ
합
▁mene
▁opening
▁tropas
된다
▁1873
春
▁設定
▁断
▁Schule
▁filo
▁realiz
▁بس
▁महा
▁Now
▁وزیر
▁1877
ობა
▁inizia
▁リーグ
சி
▁során
झ
▁suatu
▁кон
mel
▁خاص
▁임
در
के
▁amikor
▁支援
▁1875
▁1830
▁ခံ
▁gay
▁เลือก
▁principio
▁جان
▁bastante
▁市场
▁permite
▁Kas
▁לב
▁跟
lia
אי
▁kur
▁Alberto
▁య
▁этому
▁Ζ
▁hoa
uri
▁复
21
ья
▁国民
衛
泉
▁Project
▁motivo
▁कार्य
▁download
▁تواند
▁ஐ
▁丹
▁आपको
▁anders
▁نه
tif
▁önce
▁stay
▁stark
들을
|
▁官方
▁动
▁দু
▁möglich
籍
▁urte
▁leid
AP
▁가장
▁gal
▁Hor
wald
▁झाली
▁足球
▁源
▁Ernst
味
uz
▁ペ
▁तरी
Σ
▁viết
▁yıl
▁talaga
ടി
▁île
▁UA
▁lower
▁ван
▁دولت
▁بالا
▁הג
▁त्यामुळे
▁唯一
▁ブラック
末
▁players
▁Università
▁そう
▁Avec
将
▁большой
▁南部
ย์
▁Bou
▁Lewis
▁tengah
வில்லை
▁సం
▁శ
▁игры
▁outside
▁хотя
▁ഐ
▁接受
▁vários
데
ரை
▁精神
▁Wood
迪
▁როგორც
▁visual
▁travers
▁دوره
朗
सा
▁വാ
▁beli
▁端
▁respect
ーズ
▁引き
▁değil
▁バー
▁principios
чи
▁Pacific
▁ligt
▁nội
▁act
▁مانند
▁Zusammen
トン
▁സു
▁tart
ast
▁Oh
▁metà
▁sức
▁任何
▁巨
▁Văn
▁specific
▁campaña
▁prendre
▁Millionen
ori
▁ancienne
▁certaine
▁กลุ่ม
▁حضور
▁paese
יהם
▁سازمان
▁종
테
▁عندما
▁Ley
▁ကုိ
hang
▁Gar
cs
▁飛
hẳng
容
▁တစ္
▁työ
▁ongeveer
▁角
▁други
▁ganó
вший
▁最も
▁encuentran
▁นิ
▁scène
▁incontri
നം
▁gee
▁Beliau
▁塞
▁Express
席
sách
▁जाती
▁pm
▁族
യിലെ
▁主席
▁Prima
▁economic
eri
▁fond
▁missione
▁presenti
▁ప్ర
▁Alla
▁gây
▁生産
▁त्यांनी
▁補
▁Kay
▁Bien
▁includes
▁Alan
▁három
▁Donald
▁Reichs
▁Mat
PS
▁diretta
▁ayuda
Η
ச்சி
▁Nick
▁ll
▁районе
▁rico
▁busca
▁Fin
▁bó
ோம்
▁Theatre
▁Aga
▁ပြီး
▁增加
番
▁keep
င်
▁partes
▁团
▁Fire
▁hours
▁генерал
层
었다
▁являются
▁Last
▁活
▁került
▁település
▁Ring
▁fecha
▁birlikte
enburg
▁Yo
▁دنیا
▁వా
▁Ay
▁pasó
▁ekonomi
ska
న్న
▁pemain
пен
▁Nó
▁때문에
▁geben
▁tubuh
▁Bernard
▁Matt
▁tanah
▁တွေ
▁gemaakt
▁〉
▁пример
▁Euskal
ரி
▁Af
▁candidat
▁奉
▁活躍
▁instead
▁sid
边
▁पि
▁海軍
▁Girl
▁states
▁vien
▁moral
▁complex
▁families
ント
▁מכן
▁1874
影
▁হচ্ছে
▁quem
▁突
▁انسان
yu
▁kalau
出し
▁ヴィ
▁מן
▁Wind
▁conde
▁Александр
▁aircraft
▁voyage
▁erre
▁助
▁הב
▁协
▁required
MS
▁จํานว
▁THE
dorf
▁phủ
▁کردند
▁hii
▁ဗ
kov
▁것으로
ణ
▁混
▁zweite
▁euros
▁შემდეგ
視
▁العربية
▁entrada
▁estadounidense
င္း
▁Anton
▁Jon
▁奇
작
實
ила
▁إذا
▁洛
境
伯
▁Ó
▁ซื้อ
ध
▁seni
▁kogu
▁сол
▁machen
▁родился
▁১
▁erschien
▁snel
▁damals
▁considera
▁Í
▁bom
ским
▁നാ
▁異
ações
▁劇
變
▁പറഞ്ഞു
▁รุ่น
▁เด็ก
▁bag
▁Ash
▁interview
▁platform
▁BA
▁sehen
▁való
▁όμως
▁medida
▁Ji
▁Entwicklung
ဲ
▁кейін
永
▁물
▁تلك
條
▁艦
▁assist
▁〈
▁الج
गी
▁理由
тық
▁sakit
tur
ായി
▁Cuba
▁posición
▁Tar
▁hak
▁Cat
▁င့္
▁ข้อ
▁Regierung
常
▁คิด
▁講
▁作用
▁ผ
▁토
يم
▁เท่า
гі
▁شب
▁khó
▁קו
▁xác
▁diễ
▁counter
▁间
▁sina
▁segue
iano
▁Dios
▁xem
▁לש
23
▁diferencia
▁สอง
▁Ү
ello
ాల
డం
మ్మ
▁positive
▁현
▁Chor
▁เพลง
ява
▁exemplo
▁เพิ่ม
▁carta
▁Toronto
▁したこと
▁استان
▁เอง
이나
▁सि
▁oeste
▁تكون
▁armas
▁hoje
▁Gil
▁marketing
ల్లో
▁ふ
▁KO
▁続け
▁佛
▁фон
▁genere
▁block
▁партии
▁ضمن
▁Ө
תם
▁plans
मी
schaft
▁Ireland
▁コピー
ங்களை
▁আপনার
▁pt
▁สินค้า
ay
▁Jersey
▁peli
▁mengambil
▁Aunque
▁minen
▁झ
▁κι
▁servicios
▁450
▁preso
▁компания
▁ہ
▁بو
▁มิ
▁cantidad
▁окончил
▁พบ
isha
▁ဒါ
▁Congress
▁एवं
ეთ
1%
▁उसके
▁occasione
▁вновь
▁IC
署
▁problème
▁Our
▁العديد
ობის
▁anime
▁许多
met
▁另外
。
▁家族
演
▁idée
▁pic
▁format
製
▁一つ
platz
▁когато
வர்கள்
▁joven
▁тех
▁compañía
▁mahu
▁Patrick
▁Cur
▁şekilde
▁अशी
▁Selon
▁fans
▁қол
▁penge
▁changed
▁Ram
ảnh
▁property
▁ngay
▁zog
ника
дер
▁PT
▁離
▁دي
▁บอล
▁Weltkrieg
▁manière
▁フ
३
▁与え
▁奧
ικές
▁permainan
▁autoridad
▁modèle
資
▁politica
▁Schloss
▁campagne
▁prison
▁اش
▁Украины
ã
求
lay
ър
▁组
▁phí
▁Wo
ु
▁会社
▁vät
▁媒
▁nagyon
▁Review
▁続
▁ISBN
▁Nội
hép
▁faut
▁mese
ον
▁俄
▁ရှိ
▁Many
▁болды
▁tüm
▁Eric
▁الأسر
▁এমন
▁मुंबई
판
▁กลับ
▁Mak
▁tượng
▁板
▁pl
▁paljon
▁áreas
▁极
▁laterra
▁寄
eiro
mek
▁pie
▁xxx
rin
▁Development
▁رنگ
▁不能
▁广
▁Após
▁Just
▁通過
▁紅
▁battle
▁良
▁diseño
▁ایجاد
lerinin
▁جدا
ౌ
▁artu
▁洗
▁دارای
径
伦
დება
▁दोन
감
▁denomina
▁uomini
▁Sara
▁previous
▁наук
▁Kap
̣
▁comando
port
▁இருக்க
▁Richtung
善
ependant
▁eerst
TS
▁Westen
▁بي
▁حضرت
▁nooit
▁Datuk
▁vielen
▁világ
▁kit
▁海外
▁世纪
▁parfois
▁دلیل
▁职
ст
▁Osten
▁pote
佐
▁olen
▁Cambridge
▁Για
색
▁Gas
▁ต้องการ
▁文学
▁种
▁μέσα
▁Depui
sh
▁ポ
▁аз
▁feet
▁arma
▁трёх
▁呼
▁SD
▁dado
▁ahli
▁1869
▁128
▁pubblicato
ுடன்
tò
▁moglie
▁ပို
▁府
▁brief
▁mampu
ır
▁pasti
▁1840
▁瓦
▁autour
▁ロシア
▁दिल्ली
▁สิ่ง
▁많은
യോ
▁insgesamt
▁जीवन
▁Lima
vas
關
▁mobil
▁running
岡
▁meeting
▁gai
▁ウ
▁triệ
▁記
פה
▁berikut
▁propia
′′
▁elkaar
▁همین
▁北部
▁ട
▁communes
▁をして
▁apoyo
▁Roberto
▁付き
▁auteur
▁ill
▁propre
ప
ồi
0)
▁bàn
▁pure
▁formato
mıştır
▁چون
話
య
▁clan
▁DI
▁فی
▁river
▁であっ
▁sociales
▁colla
▁持っ
לה
▁май
项
▁Bang
▁झाला
enberg
▁Nhậ
▁check
▁contrato
ével
▁fr
▁cura
সি
▁movimiento
air
▁宗教
▁torna
▁أما
▁lance
▁幼
因
▁pontos
▁సి
▁pris
▁επίσης
த்திற்கு
▁GT
▁Hoe
▁ゆ
▁запад
▁Wal
▁categoría
▁الب
▁云
介
▁Kh
▁ブ
▁Seiten
聯
▁رئيس
lis
▁AF
▁எனக்கு
▁Mini
▁নয়
▁세계
▁тези
тен
▁ワ
從
▁Süden
▁Frankfurt
▁יום
▁მას
▁造成
nas
▁வரும்
▁Call
查
▁состоя
▁الش
▁History
▁cù
▁percaya
▁Melayu
▁具
▁persoon
▁posta
雄
२
▁徐
▁significant
▁Philippe
ging
ετε
败
ജ
ização
▁décide
▁mitte
▁दिवस
▁tả
▁situación
▁功
稱
▁பு
▁ถ้า
ギ
▁kuni
▁مدينة
▁yg
▁права
▁attention
▁服
▁丸
▁ди
▁obtient
▁maaaring
▁dirección
▁Pakistan
▁школы
تين
血
▁lleva
27
▁Andrea
▁Maka
▁அரசு
되는
思
▁ゴ
mont
▁ジ
▁EN
▁召
▁ón
▁Allemagne
▁Krieg
эн
氣
▁successivo
▁precisa
▁Let
tic
ture
▁firm
▁Theo
換
▁cross
▁duen
▁Schul
▁不可
▁これを
▁割
▁Alemania
▁quatro
▁വര്
▁秀
▁عمر
▁именно
▁replaced
▁元年
▁®
▁Российской
▁متوسط
ണ
▁keluarga
▁収録
池
▁صاحب
▁lucha
▁folgt
심
nal
▁岛
▁போல
는데
▁sure
▁орган
▁церкви
ért
▁왕
▁حد
桥
▁Frankreich
Ο
▁Wales
▁نقل
▁dijo
▁น่า
erek
▁Así
▁beginning
είται
▁同時
▁డి
▁路線
▁something
▁يا
▁capacidad
ña
▁직
▁Point
▁thanh
▁கதை
▁გადა
▁ホーム
▁একটা
▁ティ
电
▁วิ
浦
▁hora
▁藩
▁కో
▁שלה
▁DDR
▁ห้อง
▁thậ
SA
tive
▁הח
▁သား
▁eso
אן
ding
▁reduce
bahn
▁ISO
▁жоқ
▁చాలా
▁plek
▁Natur
▁容
▁â
▁mundial
▁فيه
▁გ
▁jual
▁植物
▁whole
▁Lei
▁systems
ებში
▁ido
▁Diyos
▁ケ
▁地球
▁жер
▁Budapest
▁بلغ
لا
镇
▁problem
▁Ihr
止
론
▁Valle
ονται
دار
▁架
మ్
▁Claude
ப்பட்ட
▁hija
▁企業
τος
ối
yla
▁تعداد
ich
▁Santos
ルト
▁decision
▁서울
▁lhe
antes
▁প
父
▁sao
▁Rey
▁750
▁Bat
▁サイト
▁propos
▁अशा
ään
னை
ele
▁晚
▁應
ну
θ
▁Kirchen
▁terreno
▁것이다
▁Junior
▁Model
▁fuori
up
▁Census
▁rare
▁hijos
▁Αν
▁Like
▁死亡
▁hain
lam
▁ပီ
ვე
▁暴
▁geri
▁忠
▁іс
▁യു
▁Paolo
റ്റ്
48
▁แอ
▁こ
千
▁6-
▁stanbul
▁कमी
▁माहिती
▁lit
▁vit
스트
▁subject
▁forum
▁關
▁တွင်
▁悪
▁menerima
▁minh
▁fuerte
▁juli
▁Rang
▁parmi
▁Forum
ؤ
▁जाने
▁nombrado
▁industria
▁clip
▁سایت
▁ít
▁hori
▁Puerto
▁結婚
▁演出
▁juba
▁сәйкес
照
▁products
▁따라
▁门
ill
▁quelli
▁220
▁השני
▁female
▁生产
ум
▁Universidade
▁gamit
▁ראש
asi
▁approach
বি
▁sarà
▁मध्ये
▁nagu
▁kiến
▁malam
▁қазақ
വര്
▁ore
▁ונ
▁hã
▁caus
▁арналған
▁esercit
▁高速
▁mắt
▁kiể
▁لكن
더
▁그리고
▁Segundo
▁πρέπει
▁1859
礼
▁Hierdi
▁manusia
▁huo
▁Zi
▁bord
ച്ച
oja
▁데
肉
▁leiding
▁Abu
▁पूर्व
▁Spanish
▁8-
▁анти
▁Ou
कार
pal
▁Ол
▁ren
vis
▁цел
▁compar
▁Außerd
民国
▁danh
▁mesi
▁遠
ева
▁itse
▁രൂപ
uscì
۱
ֵ
▁bataille
▁उन्हें
▁انتخاب
▁vere
வி
▁televisión
▁calle
▁tiết
▁budget
▁movement
▁ultra
處
minen
▁группа
▁mette
▁オー
▁കു
▁kõik
▁Georgia
且
▁thư
▁виде
▁таких
dom
▁presa
้น
▁Fra
受
▁Andrew
▁Kwa
劇
▁impact
▁clubs
hir
iers
▁tornou
▁ili
▁saada
▁своим
▁rap
▁screen
▁rival
▁面積
▁aujourd
ாத
ằm
▁நீங்கள்
▁گی
▁hết
pp
▁외
ierten
▁செய்த
ias
▁пост
▁Abdul
lé
▁போன்ற
▁Menurut
类
▁stile
▁ходе
近
▁vittoria
▁foot
▁ml
▁자신
anya
▁©
▁細
▁пар
职
Ö
▁gracias
▁enter
lerini
▁AT
▁closed
▁पास
▁Single
▁চ
▁நாம்
▁Fach
▁Napoli
▁مش
▁Tin
▁Sel
▁punt
▁училище
red
▁′′
▁די
▁independent
▁ชุด
▁இரு
▁ideas
▁Salvador
▁kirja
vet
costruzione
▁Primera
▁koning
▁伯
ić
▁amount
▁説
▁Duitse
▁多数
승
환
▁chair
▁пока
▁رہے
▁mỗ
ایی
▁turut
殿
▁裝
ség
זכה
▁nh
ono
▁fuerzas
сының
బ
húc
▁içinde
デ
▁sito
▁yoktur
▁introduced
▁センター
▁classifica
▁сборной
▁bé
▁interest
▁Gro
▁Standard
▁فروش
▁彼女
▁செ
बी
▁entra
▁companies
▁présent
▁지역
▁maliit
▁ô
ması
▁Set
നെ
pur
쪽
▁监
▁besuchte
▁fonction
▁Tokyo
錄
וס
▁Sp
లి
▁門
▁각
▁đạ
▁منذ
fu
▁tayo
▁ating
▁Angle
▁às
▁detail
▁روش
决
▁speed
tje
▁вам
▁င
▁Pra
▁става
▁مواد
난
▁銀
▁Lebens
▁scuola
UR
▁جائے
▁Fest
sk
▁普通
▁Ron
▁します
▁создан
▁spent
لة
സി
▁higher
▁Coupe
▁ادامه
▁कु
▁middel
▁Cap
▁biểu
▁നിന്നും
▁participa
▁Coppa
*
ult
▁姿
▁innerhalb
▁בא
▁Höhe
著
▁航
▁fuente
집
▁Nhữ
▁friends
▁各地
▁Thái
▁purchase
gin
▁라는
ành
▁散
▁algumas
ירה
హ
ήσει
▁ష
▁諸
gli
▁đồ
وف
▁살
▁credit
▁Technology
eko
▁ibang
▁逐
▁ファ
RC
▁evitar
▁technique
▁тыс
▁금
وی
▁filho
ימה
▁voie
साठी
▁昇
▁キャ
▁ประกาศ
щи
▁cómo
▁Shin
▁told
▁طريق
▁kä
ndosi
▁sos
候
▁လုပ္
▁Pal
▁grands
▁Мо
▁terletak
long
▁문제
祖
▁сын
▁பூ
▁Chief
▁बदल
uit
▁pudo
▁kautta
▁permit
▁条件
▁partida
bank
етін
全
▁weight
▁杨
மை
▁stone
▁體
▁Gabriel
▁กําลัง
би
▁számára
▁presencia
養
▁館
nan
▁ร้าน
▁우리
▁試
▁bagai
▁サービス
tiva
▁espacio
▁natal
নে
▁dr
▁持ち
▁Από
▁екі
▁فى
▁זמן
▁அல்லது
▁漫画
▁Holland
▁といった
▁término
▁később
▁ind
奖
▁управления
워
▁feel
▁Angel
▁allowed
▁極
வன்
▁Dies
▁ভ
▁μετα
丹
▁אדם
bre
▁différents
▁parts
▁mesma
▁kol
▁деревня
▁۴
▁arm
ница
▁derecho
언
▁dando
▁pubblico
▁κατ
甲
▁Pietro
▁เบ
▁önemli
ებით
▁seconde
▁offre
spor
▁Mis
▁suku
वे
▁yếu
▁皇
pas
▁কোনো
स्ट
ட்டு
▁文字
CE
▁Nagy
▁従
▁akik
▁Sim
ус
▁reached
▁170
▁Hoà
▁simples
▁CM
老
▁စား
▁Ah
▁овета
▁Š
▁ここ
▁بہت
▁interesse
▁נגד
ude
▁créé
▁რაც
▁เสีย
टा
▁ME
▁tradicional
▁ہر
▁1600
▁จังหวัด
भ
▁COM
って
ൗ
▁селе
▁Unión
▁Uhr
уға
रे
▁towards
▁Municipal
▁principe
▁път
ено
▁retrouve
▁zeer
▁אביב
▁翌
▁Ano
ides
isiin
▁Med
▁Volgens
▁forza
قة
▁enough
▁Lyon
▁separate
си
▁cependant
▁တာ္
병
▁اي
▁geral
▁graduat
▁0%
▁Stephen
▁resultados
▁৫
PA
▁温
▁below
wissenschaftlich
▁odik
DA
▁lelaki
▁pasado
▁ပဳ
▁1857
ئی
▁usaha
衣
▁Metal
▁publicado
▁hiể
یر
▁ข่าว
▁برخی
လို
▁frère
▁ただし
▁చేయ
ди
ére
▁Way
▁۳
▁baja
▁amerikanische
▁sell
▁مر
▁Fer
▁కోసం
ൺ
▁ပန္
▁rien
▁Москве
̀
▁mở
ников
▁蘇
▁kunt
▁Anche
▁তো
겨
▁hinaus
▁unico
bert
▁rộng
▁bor
費
▁rose
失
▁makan
▁watch
▁sports
▁ほとんど
▁태
▁élément
▁wij
OL
▁GP
▁amigos
LE
▁document
▁αντι
▁Mila
▁帰
60
ള
▁Vo
▁吴
▁legge
▁연구
判
४
▁subito
▁経て
▁gota
▁пор
५
▁Pháp
▁יו
▁الق
ပ
▁différente
▁particulière
စ
▁राम
彩
ني
▁Pablo
▁此外
▁הזה
▁стало
▁жеке
▁americana
態
▁விட
iễn
bra
▁ลด
▁Mir
▁摩
▁Markt
▁minute
▁115
律
▁Four
בה
▁жүзеге
test
▁茶
ili
▁하나
▁conte
▁বাংলাদেশ
▁მათ
▁シングル
▁escuela
▁Run
▁eman
▁kamer
▁előtt
▁façon
當
▁Pennsylvania
▁گرفت
▁မှု
▁makanan
▁Conseil
▁関
▁充
▁בשם
▁功能
▁बी
▁கால
▁составляет
▁chief
▁命
▁PDF
ינה
▁Previous
▁skin
葉
TV
▁ABC
▁근
른
▁बि
▁πρώτη
▁muestra
▁reading
▁لكل
▁muu
▁Sz
▁辞
▁メンバー
ule
▁relations
larında
▁porto
▁permanente
▁眼
牌
写
▁nhanh
▁दर
▁mot
▁maga
▁войск
schule
ജി
▁edizione
▁seule
▁Sua
ser
▁Mobile
▁Pak
▁museo
ū
adores
▁pinta
▁suit
▁ghi
▁Head
iza
▁северо
iques
▁不是
▁incluyendo
▁界
油
▁Doctor
▁莫
▁beter
▁bermain
▁जैसे
▁Ла
▁بنا
域
▁PAS
▁Natural
▁アジア
ската
▁乌
▁그러나
▁Milan
▁torre
▁橋
-10
▁terbaik
وب
▁نسبت
▁ชาว
▁יכול
▁etapa
▁仅
ัด
°
▁受賞
tico
▁ph
ラン
渡
▁menu
▁quản
▁links
▁werken
▁注
▁depan
lon
▁Ciudad
▁ships
▁allí
盛
▁命名
證
▁確認
ungs
▁cứ
▁పా
▁Те
▁pasukan
ांचा
▁tomar
lere
▁เม
考
▁שונים
▁nuevos
▁梁
▁actuelle
▁撤
▁tulee
▁گونه
▁אלה
▁podía
▁Arbeits
▁которым
tualmente
arse
pu
▁september
▁হতে
▁その他
▁Prozent
▁حقوق
uda
▁竹
▁Italy
▁印度
aciones
▁Heart
▁تنها
▁வரை
▁derde
▁pagpapalak
▁შ
▁സര്
▁雅
▁heutigen
▁plaza
▁pública
Х
ảng
▁muitos
▁gün
温
лары
ры
ஜ
▁باعث
▁alma
▁plupar
▁центр
저
▁zahlreiche
▁whom
২
▁娱乐
▁பற்றி
▁महिला
▁recursos
▁இந்திய
▁طول
ず
▁Rich
▁Có
▁luôn
বার
▁故事
ിന്
▁مما
ურ
رة
▁vaan
목
▁wall
▁articles
▁营
▁grootste
▁ouvrage
▁甘
▁‚
▁chance
▁espace
▁жителей
▁plaas
▁danach
▁lavori
▁創
▁passage
▁biể
▁ataque
▁ต้น
▁kuto
▁duten
▁सिंह
论
刻
▁Questa
▁逆
ബി
▁rechts
jas
ý
০
▁types
▁决定
▁Code
▁bel
▁distance
▁시작
▁زیادہ
▁hone
▁विकास
▁ခြ
▁calidad
▁gene
▁افزایش
▁Muhammad
藤
달
וֹ
▁mis
▁green
شان
▁幅
▁jeunes
▁beteken
▁kosten
▁passou
▁khusus
▁Stato
▁မှ
▁სხვა
▁полу
ႀ
▁시간
▁energy
▁చేసిన
▁lived
▁Ohio
▁еще
▁financial
▁Muslim
▁юго
▁noche
▁TH
▁尚
דה
▁брат
ttiin
▁लोग
▁शहर
看
▁RE
▁operate
▁lợi
▁लगा
▁situ
▁ড
▁nuestra
▁Amerikaanse
▁生物
▁mää
sky
▁terzo
▁detto
▁Ross
king
▁dicho
▁遺
▁fútbol
▁อา
▁march
ator
▁ര
▁difficile
▁Lueg
TC
▁opposition
▁جانب
▁کریں
▁Sony
▁Und
▁दु
▁ఫ
▁struttura
▁policy
▁主任
जन
▁میان
架
▁ত
▁indo
▁შესახებ
▁项目
▁artistas
▁capture
▁leva
▁olduğunu
▁devam
▁请
▁annonce
▁היום
▁sole
▁Erst
▁印
▁vastaan
▁Kra
▁电视
▁сезон
▁радио
▁appelé
▁nan
▁turno
▁舞台
塞
▁risk
▁kinders
▁isso
ٌ
▁行動
▁град
lus
過
▁タイプ
EP
草
號
▁တြင္
▁HP
▁นะ
▁速度
▁images
६
면서
▁伴
京
駅
▁hồ
▁今日
▁硬
▁होगा
▁Fo
ega
Ф
сыз
فر
▁kop
▁aynı
▁lisäksi
▁135
▁soort
▁Kata
▁alten
▁buiten
▁mor
▁वाट
▁sesuai
▁мужчин
▁Vii
▁構造
▁гласно
▁pain
▁интерес
ира
▁influencia
▁अस
ivo
▁повече
▁tỷ
шы
▁ferro
▁возможно
▁魔
▁নেই
lage
▁bahagian
▁Tun
టీ
▁라고
▁搭載
▁付け
▁altitude
ங்களில்
וף
▁author
ität
▁असून
▁establish
▁復
술
▁پا
▁khiến
ロン
▁ला
▁規模
-15
ాలను
▁wag
▁Tak
▁mất
▁埃
▁列車
▁Unido
မ်း
▁ヘ
ret
勝
▁organization
лу
▁הן
▁bekerja
▁Nor
SE
▁frequent
▁perus
▁Nazionale
▁museum
zug
Э
▁nouvelles
麗
▁シャ
▁características
▁Pin
▁ൽ
▁您
▁Jy
カー
রে
▁スポーツ
▁внимание
lap
▁خدا
▁আই
ری
▁美元
▁phase
▁села
ló
▁ký
▁común
▁त्यांना
▁בישראל
▁Japon
如
▁除了
▁存
▁място
▁áll
MC
▁cour
▁domaine
登
▁sabe
息
▁দিন
வா
تي
▁聚
▁rural
▁sowohl
wang
▁حين
▁crear
▁بودند
▁盛
▁island
▁sorte
▁一定
▁著名
▁Guy
▁ספר
▁Dari
▁ton
సీ
▁တ္ေ
▁Dream
▁матче
ড
▁according
▁חי
▁ν
▁прав
▁machte
▁precedente
▁Miller
▁Dark
▁niños
▁Summer
▁উপ
ning
νο
▁Kỳ
▁অব
▁ако
▁京都
▁nahe
ER
mon
▁formazione
▁britannique
ering
▁Conference
▁Ketua
▁评
▁डॉ
▁penduduk
▁SK
▁Hinter
▁கு
▁champion
▁Georges
▁Kloster
▁tau
▁之前
че
▁palju
వా
▁הע
▁noir
▁वापर
▁capaz
ál
▁equipos
▁ihnen
▁豊
▁MI
▁Box
▁ည
▁monte
▁Leipzig
▁csapat
Υ
▁ル
▁tax
▁Samsung
nny
▁창
▁歴史
▁оқу
изма
▁inglés
▁倒
话
▁price
▁Modern
itä
mur
▁выступал
▁nation
▁ყველა
▁عدم
▁sources
▁comercial
ओ
▁মনে
▁inglese
▁Mereka
▁240
▁चा
▁சா
gue
▁mile
▁雑
密度
▁prese
▁Université
form
लो
▁stations
▁దు
▁Following
▁역
9%
צ
▁गु
▁tä
▁stehen
▁darunter
▁Meer
צה
予定
▁கா
▁entire
▁위한
▁sviluppo
▁Comme
▁Ela
▁Hugo
▁रंग
▁datang
▁fél
▁Mega
ട്ട
結
▁kwamba
▁medical
сон
▁ผลิต
▁Hom
▁عليها
തു
▁잘
マー
▁Mur
▁托
樂
▁ubicado
▁ـ
습니다
住
▁பிர
▁marami
▁青年
▁amigo
кова
مر
ستان
▁だけで
▁இன்று
▁เจ้า
▁dati
▁அதன்
▁heb
▁Type
▁гр
hal
ore
▁rejoint
▁ジャ
ик
争
▁पद
▁יחד
▁دولار
▁Catholic
應
▁خرید
シー
▁army
▁toma
▁tree
▁enorme
ekin
يين
▁частности
ON
▁Massachusetts
▁жол
▁sociedad
▁Mil
▁vader
▁ел
▁household
▁人間
▁โรงเรียน
spiel
▁בדרך
kit
▁amit
▁います
ps
▁namin
န်း
▁Jane
▁gaz
実
▁出生
▁Southern
су
症
▁Uno
▁ทรง
▁Fair
▁ヤ
▁също
▁hoch
▁полностью
▁khai
▁Order
▁kian
kah
▁деятельности
▁χ
▁حدود
ката
פת
▁tam
▁شروع
▁لیکن
真
▁उसे
▁EM
▁AP
▁Bart
▁chí
▁donné
▁ვერ
▁Mayor
▁length
▁последстви
▁TM
▁Санкт
▁жан
▁首次
ima
-12
▁argent
۹
▁engine
▁dix
▁ニ
▁AK
▁compris
▁ത്തി
▁степени
▁通り
▁参与
▁ritorn
談
▁विशेष
mis
▁ellas
▁ราย
▁Also
▁aire
из
▁สําคั
▁mencari
▁jää
ừ
▁बना
币
▁januari
▁образования
uksen
▁Due
▁سیستم
▁gemeinsam
▁דרך
▁खा
▁Gobierno
▁CA
ائے
▁తా
▁建设
▁Республикасы
▁hermano
ข
▁画
▁lii
▁채
▁뒤
기도
▁受けて
な
ώντας
▁байланысты
▁Lou
▁जन्म
▁메
िया
▁派遣
ável
▁关系
ать
▁pilihan
▁மக்கள்
ieron
▁Metro
▁Luigi
▁گزارش
okkal
▁Cro
름
▁ファン
▁клуба
▁saját
▁tenta
▁展開
▁Text
▁گو
產
▁губернии
▁activities
紀
▁الخ
计
▁நி
▁持
▁광
▁astéroïde
反
▁host
EL
▁楽
ండి
▁words
▁చి
▁認め
▁investigación
▁据
sto
एस
▁חיים
▁Greek
▁ра
▁andante
▁अनु
▁Silva
▁فقد
▁صرف
▁เพียง
督
▁chemin
▁子供
▁sant
CC
▁kleinen
▁muziek
▁Christ
ႏ
▁corona
▁pp
▁כלל
▁жылғы
▁réalisé
▁militares
▁vária
▁lupa
▁karakter
ബ
nden
▁koska
▁lệ
▁试
▁Roo
▁избран
دي
▁甚至
▁savoir
▁áp
▁宇宙
▁ember
▁بد
▁results
▁ange
▁比赛
▁宿
▁linha
▁cabeza
▁Rob
▁үй
▁παρ
▁நல்ல
▁vette
▁調査
ாள்
▁siirty
▁prodotto
▁bro
BA
▁saber
▁弾
ώς
▁निर्माण
▁เอา
▁ट
ля
ायला
эй
▁Они
ня
▁axe
▁생각
▁समाज
ə
▁bago
▁ware
ók
▁ряд
ija
▁民主
▁nine
▁evidence
arbij
▁usual
raum
▁salt
▁很多
лардың
▁剧
▁trạ
▁情况
▁104
▁heir
▁骨
▁sexy
▁جمع
رو
▁mich
▁באמצעות
▁フリー
ัน
heit
▁Когда
▁墓
▁AR
▁虽然
▁节
▁حکومت
▁沈
▁कै
▁Tage
▁Mata
▁suma
▁dirige
▁gure
▁メーカー
▁منطقه
▁Ли
▁value
▁originale
▁Alice
PC
ூர்
▁注意
▁ajal
از
▁clima
见
▁devido
▁sắc
泰
ence
▁μεταξύ
▁propiedad
▁presta
ischer
ян
▁ön
▁Leo
दा
导
▁加え
▁Bedeutung
▁жизнь
▁铁路
يف
▁huu
▁Fan
▁すべて
▁Aan
▁основном
▁Germania
ικού
лен
னா
▁carne
▁dafür
▁technology
▁ระหว่าง
▁Sat
▁pagi
▁République
▁wohl
йте
▁টাকা
▁اسم
▁నీ
▁紹介
rus
▁stock
▁健康
ip
▁மேலும்
▁属于
▁egli
ဝ
▁volle
▁결
▁ము
ای
▁一起
▁mẹ
▁全体
▁meie
▁Lin
▁된다
▁Secondo
▁شاه
illo
▁преди
▁公式
▁vale
▁பெரிய
▁دوم
▁بسبب
▁kuasa
ü
▁huyệ
▁職
▁xa
▁손
▁临
▁пол
▁tut
▁planet
▁popolazione
▁cư
▁הי
▁wanted
▁passing
▁کن
▁formación
FA
miştir
▁Part
ศ
▁наибол
▁கே
▁တဲ
▁должность
kai
ệnh
▁mie
ထား
破
▁투
▁اثر
▁pare
▁fala
▁construit
组
ub
tto
▁tradition
▁округа
▁units
sport
▁권
▁현재
▁移籍
▁akin
▁Bridge
▁هیچ
▁einmal
▁Hamilton
ỗ
▁จน
▁pick
▁표
▁ancak
▁最新
▁CE
▁108
▁Jay
▁своё
▁委
▁otta
側
bes
▁типа
▁завод
▁técnico
▁Hermann
▁शब्द
▁102
▁owner
▁kesk
ут
▁sometimes
▁retir
▁cc
▁famous
▁автор
▁図
▁مربع
▁Bra
▁節
▁edición
▁questions
▁wali
▁Roy
▁సీ
▁素
নের
pin
▁মু
▁fight
▁possède
▁Universal
▁многих
▁தர
▁aika
▁cây
▁combate
▁чемпионате
▁देख
▁計
কা
▁бе
▁రు
▁Об
▁család
▁idee
▁deutlich
配
▁cere
▁фильм
▁평
oli
▁করেছেন
▁亿
▁杜
▁suka
ios
▁בשל
▁Той
▁ذات
打
합니다
▁اصلی
▁Academia
▁یعنی
cken
▁género
▁đủ
▁остава
▁振
湾
▁additional
▁టా
▁Hard
▁樂
▁Magazine
▁Allen
▁Escuela
▁クラブ
▁része
▁yol
ort
ഡ
▁Br
▁wake
▁Iron
▁leicht
ुन
▁आली
▁승
▁communauté
▁víz
▁prise
οντας
▁מול
▁দেখা
▁購入
▁juni
ารณ์
▁کام
▁亲
ள்
▁inwoners
▁true
▁মি
▁Torre
-11
▁暗
▁wet
▁план
▁আপনি
▁בעקבות
▁prior
▁relativa
▁Afrikaanse
▁poly
▁rosa
▁Mill
▁primary
▁Ұ
▁relationship
▁حجم
▁kor
▁ait
▁valle
lerinde
▁专业
▁serait
▁건
蔵
▁дел
نت
▁produits
▁культуры
▁فر
▁html
ির
گ
▁pärast
▁sterreich
rang
liği
▁leave
ബ്
▁makes
▁雪
▁cố
▁Italie
▁Helsing
одился
ί
▁屬
▁figlia
▁취
IM
izzazione
▁пыта
▁llama
▁nuevas
▁situat
▁ഏ
tter
pos
بل
▁베
▁winter
▁حسن
▁әлеуметтік
PI
IO
▁chữ
▁περι
ï
▁takes
▁treatment
ера
▁generalmente
းေ
ט
▁असं
▁ועוד
▁тогда
▁称为
ient
ρα
▁உங்கள்
▁livro
от
ుడు
▁Grupo
▁Spa
టం
▁đảo
▁वाली
▁val
ांचे
▁especie
▁給
▁總
▁Geld
▁soo
etto
▁ซ
▁Phil
▁pelas
▁merk
洋
uma
沙
▁fazla
▁kanya
சு
כ
▁Poly
▁laten
▁keres
õ
▁権
▁sest
▁Sala
▁போ
▁Bin
▁प्रदेश
▁lines
▁қала
▁పై
▁musik
യ്ക്ക്
▁razas
▁พัฒนา
堡
貨
uses
▁தன்
▁士
▁diente
▁realtà
▁아이
▁larga
▁regime
する
须
▁เช
ിച്ച
פים
▁Sh
▁בהם
▁맞
ể
▁Card
რის
▁changes
▁wood
nu
▁telt
ties
▁Bayern
▁آمریکا
▁Douglas
▁எப்படி
▁思い
▁annak
·
▁mô
통
▁duy
▁株式会社
▁locales
യ്
▁zeitig
▁Born
▁genera
▁研
▁pest
▁daw
날
▁ရွ
▁describe
ങ്ങളും
ье
ựa
▁membawa
▁నేను
▁semakin
▁competition
సి
▁BC
▁transporte
▁וא
▁places
▁Noord
▁항
26
▁충
▁Us
ခံ
овые
也
కా
▁utiliza
コン
▁husband
▁記念
▁развития
▁類
▁premières
▁☆
▁הד
▁했다
ড়
▁娘
▁musta
▁CS
▁入っ
یب
▁德国
▁Link
▁Baby
▁洋
▁Στο
▁लिया
ッツ
▁انه
pro
ical
▁พวก
▁gelen
▁ended
▁Maa
▁Luft
试
▁బి
▁stress
▁1856
▁creación
▁früher
huis
▁달
▁entrevista
▁保護
शन
▁работе
▁buildings
ास
▁Nad
▁новый
▁表現
▁kendi
▁yapılan
▁entrée
▁အာင္
गा
▁reveal
▁இட
▁敵
▁genutzt
▁необходимо
▁당시
▁bile
ront
▁famoso
▁mp
▁earlier
標
▁جی
▁ул
▁ре
uan
▁אותם
rek
▁labor
▁Story
▁kazi
▁tướng
▁گر
ുന്ന
ấu
것은
▁natin
傳
▁található
증
收
יון
نة
▁tää
▁nghiệm
▁attempt
▁ജി
אל
innen
▁mengat
ющих
▁専門
▁集团
▁வேலை
▁พื้นที่
直
邦
戸
Π
တဲ့
▁deriva
▁Grab
▁شركة
急
▁zwar
▁شکل
품
▁Who
▁selalu
▁veröffentlicht
▁mitä
تان
▁आम
kke
▁Sint
▁soutien
▁Karriere
卫
▁дней
▁zeigt
▁Tanzania
▁정보
▁temperatura
▁לח
▁होत
▁weeks
▁ладимир
kki
鉄
▁nació
die
▁menunjuk
▁szak
▁жас
▁名前
▁zuten
▁Middle
▁participate
▁ڈ
▁talk
ă
▁装置
▁zoon
▁求
▁関連
▁western
▁distrito
▁Field
डे
▁३
▁ее
▁reçu
้ง
ιν
▁yh
▁再び
▁présence
▁様々
ルド
▁入れ
▁레
tava
▁حاصل
▁Spieler
▁programas
▁experiencia
▁operations
▁联合
▁kaka
▁师
詞
▁ең
ime
▁jefe
▁vừ
▁daher
▁luvun
니다
▁gelo
▁vin
▁新闻
▁خدمات
▁fourth
▁perempuan
▁؛
▁هزار
▁viện
▁sexo
▁elő
▁guida
▁llevó
▁reach
▁報告
larına
via
▁Ар
▁CC
▁वाढ
தாக
▁canton
zó
▁veröffentlichte
현
▁Key
jä
▁function
▁สมัคร
▁HMS
ib
▁lehen
iv
meister
▁Northern
lig
▁victoire
▁伝
▁বে
▁zonas
▁Christus
▁附近
nvier
ήθηκε
kap
olo
▁feature
▁pel
▁砲
▁quartier
وية
▁కానీ
▁canciones
▁geworden
▁tämän
▁Projekt
▁့
相当
▁ling
▁ஜ
کی
▁должен
▁katapo
▁beispielswei
▁semble
దా
▁幸
▁punta
▁carga
▁genannten
▁estación
▁χωρί
▁开发
▁Тем
▁Cong
▁نفس
▁森
▁meisten
സ
▁而且
▁असते
▁股
▁nimi
▁rapidement
スター
▁ilang
▁経済
tem
▁Nicolas
▁menarik
まっ
▁రూ
▁rồ
▁מנת
ング
▁fácil
▁آغاز
▁数据
▁memoria
▁আজ
▁potential
▁农
码
ST
▁signal
▁בעיקר
▁۵
魯
▁الص
़
22
▁berikan
ekkel
▁derechos
▁국가
ities
▁ممکن
▁muitas
▁สุ
▁asked
▁करत
▁Micro
▁Vers
▁seguridad
▁藤
▁Qua
▁plano
▁campus
▁북
▁ジェ
▁चाहिए
osta
▁القرن
▁கோ
▁chuẩ
▁bol
▁techniques
▁damalige
bare
GA
▁bald
▁固
▁והוא
▁gauche
▁אחרים
후
▁sitio
▁llevar
▁Justice
▁categoria
▁jäi
▁defeated
hành
地區
▁Valencia
▁longer
يل
▁Stil
▁运
▁θέση
▁मुख्य
ポ
▁ihan
▁вече
▁häufig
▁ye
하다
▁ယ္
ാല്
▁Além
▁build
▁которую
▁líder
▁เริ่ม
▁Ligue
▁muut
▁Ry
▁Person
▁指揮
▁버
▁На
기를
▁รูป
▁inicio
▁幾
▁Stelle
▁nữa
▁활동
▁KA
▁BB
teen
▁বিভিন্ন
▁सुरू
往
▁Từ
▁szám
▁1849
▁studied
▁满
▁dễ
▁ఆమె
協会
▁cụ
營
▁chose
▁وذلك
nunció
▁nossa
▁σου
皮
▁כולל
▁מר
bia
▁دوران
ors
φ
▁彼ら
▁特徴
eck
▁Channel
▁hell
▁phone
▁doğru
▁thus
▁amplia
▁Porn
▁stellte
▁chanson
▁Sarah
▁کچھ
▁cat
ttu
▁pea
ٹی
▁produção
▁этим
설
▁improve
ύ
▁عبر
▁Revolution
▁lingua
▁themselves
▁Liên
▁сезоне
▁گے
▁စိတ္
▁reeds
▁Familien
▁нужно
▁verloren
▁nummer
▁Jordan
▁Bos
לים
con
索
▁仕
▁Apa
▁Gor
▁Wolf
▁GB
▁pinaka
▁Full
▁junior
▁pul
▁Download
▁personne
▁принял
▁zehn
▁terminar
▁তাই
ील
רה
だ
▁Mos
▁union
скольких
লাম
▁战争
▁思
▁10%
Д
▁奪
▁Jawa
▁मान
▁eerder
▁Gau
▁ung
▁participar
▁Hồ
▁المدينة
▁קל
▁MTV
cus
▁altijd
▁ဇ
▁enam
45
▁militare
▁stellen
28
nne
ய்
RT
▁にした
▁Pay
▁fratello
▁zeti
▁兴
▁トップ
டு
▁alter
lerde
▁plate
▁نیاز
AH
ικών
▁Racing
▁tangan
▁bed
▁Regiment
AC
ించిన
▁Республики
▁Bol
isti
▁crime
▁適
▁اين
▁compre
▁trực
▁Posterior
▁Oficina
▁לצ
▁projeto
OS
▁ビル
▁hope
eer
▁隨
▁возрасте
▁looking
▁entry
▁TA
৫
دة
▁begitu
▁seat
▁地位
差
似
▁十分
션
ivat
▁רבות
▁León
▁entrar
ssus
▁giro
▁बंद
ήσεις
▁obtuvo
▁successivament
▁tuleb
▁ابو
▁gehen
▁합
07
▁बीच
▁Meg
▁join
ının
▁사회
▁Vis
▁keta
보다
▁ordine
▁core
▁problems
anza
▁満
▁返
▁నే
▁ประจํา
▁возможность
▁тур
▁circuit
▁fil
▁করেছে
▁リリース
▁Tagged
帯
▁Dor
▁แ
▁panel
▁kaupung
▁Railway
▁членом
▁musicale
▁撮影
▁جهت
▁Depois
▁annual
▁ရေ
uli
▁Shah
▁stem
ု
▁әр
▁glo
▁Madonna
stellen
▁hozzá
▁bidang
▁anna
को
▁पक्ष
ונה
▁París
ロー
▁အာ
یک
험
▁kinderen
▁organización
▁бол
▁নাম
▁Schutz
▁langue
▁realidad
▁שיש
▁elecciones
▁မ္း
▁müssen
▁recente
▁venta
▁rent
agem
▁Corps
▁afge
▁রয়েছে
青
▁ciclo
▁ർ
▁norma
▁allow
▁многие
▁reçoi
▁német
▁Tijdens
▁기록
▁MB
வின்
▁поле
७
tuk
态
ေျ
ping
▁操作
▁パン
▁1858
▁barang
▁lesz
▁কম
▁первого
▁重新
▁Ski
▁Бо
▁בי
▁Anderson
▁responsable
▁bevor
▁ছিলেন
▁Río
▁Stock
▁настоящее
ones
▁khoa
pat
▁fuerza
▁Sem
▁pelajar
▁vision
▁北海道
▁humanos
▁entstanden
周
ۡ
torno
▁לס
▁Франции
▁公共
▁שבו
▁모든
scored
▁Dienst
▁utilizado
▁ғана
▁cream
▁действия
▁Autor
▁security
லி
▁Dos
▁jauh
▁antiguo
ists
▁moyenne
mark
yon
▁שר
▁letzte
▁吸
▁กลาง
▁आय
▁actions
▁totalmente
▁அவன்
▁suis
▁ныне
ából
▁Wil
▁банк
▁gens
ába
▁中学
▁मार
▁Ре
诺
▁Vertrag
▁Cour
yl
по
▁map
▁сил
▁море
▁ഡ്
wege
▁Gui
▁AA
ök
▁ത്ത
▁peng
▁départ
ড়া
сти
▁चार
▁ఐ
▁limited
觀
▁épouse
▁いっ
ాడు
▁החברה
紙
DP
▁ev
ml
록
▁电子
▁Pass
▁Vier
▁Dio
▁والے
▁sah
▁imperial
▁אולם
▁হা
▁Prime
▁метров
▁grund
▁wind
▁sieben
र्स
▁Liverpool
ỡ
▁където
നി
▁授
▁watu
▁pagpapa
▁创
▁ニュー
トル
▁கை
▁kuna
▁カル
buch
uka
▁假
▁있었다
▁jugador
▁Silver
▁buku
락
▁starb
▁ciudades
els
ുകള്
说
▁especies
ায়
▁1854
▁genoemd
▁koa
▁対象
ъл
▁ชม
▁ras
▁grade
▁бизнес
▁교육
▁Irish
▁هدف
▁ചില
▁Marina
▁fronte
▁偏
▁motion
▁bulunan
▁代理
▁相关
▁refuse
▁ชาย
▁קר
▁प्रत्येक
ớp
▁compagnie
▁लेकर
착
▁kahit
▁autore
▁शुरू
▁Studium
▁巻
▁Hộ
▁reis
▁battaglia
▁importance
▁車両
נת
▁мест
▁उनकी
▁rato
ნის
▁說
▁sterk
▁vali
▁Ama
▁biz
▁Европы
डा
ίων
nel
▁अपना
▁అయితే
▁cél
希
寧
▁rete
▁Meister
▁jogador
▁Version
▁PP
▁zuvor
▁角色
сіз
▁pubblica
▁terms
▁Case
▁vận
▁Made
▁Boden
ää
▁productos
廷
▁molte
▁Präsident
▁Page
▁utilizar
圧
▁estable
▁fo
▁להם
ิ
ắt
▁condition
▁neem
▁패
▁বছর
-6
▁ara
▁Mount
▁تھے
▁chú
▁Sitz
▁такие
▁استخدام
▁Kind
에도
▁iemand
▁lig
▁الأولى
▁cup
▁网络
▁待
▁turned
▁имя
▁دستگاه
▁ยา
▁Rhein
▁చిం
גן
▁trip
▁Feld
▁tipos
▁穿
▁rule
▁đứ
▁kai
▁礼
▁sortie
▁遭
▁Einwohner
够
▁menyebabka
▁spring
Á
▁兄弟
▁oktober
▁classes
▁述べ
▁Fred
▁suggest
▁EL
▁市民
晶
▁任命
▁地下
▁جهان
तात
▁施設
▁۱۳
ीन
▁cases
▁مل
▁Bruno
▁práctica
▁1855
▁vais
▁says
▁Dur
▁रे
▁Gang
▁확
儿
▁CN
▁defeat
ரா
▁मि
▁cieron
▁camino
▁電子
\
▁よりも
▁επί
▁formar
▁사업
▁เซ
▁ฟ
▁wakati
▁lässt
▁obtain
難
▁vente
▁Artikel
referred
祥
▁Asian
▁lais
▁ski
非
▁アニメ
▁Erfolg
ダー
ек
▁รอบ
▁cuya
bet
▁crisis
▁प्राप्त
▁現代
▁usage
▁Kevin
▁روستا
nica
▁پھر
▁То
▁レディース
▁中文
ட்டி
▁meu
▁assez
ль
▁Charlie
▁法院
▁operation
▁vídeo
莱
▁当地
▁CP
▁सब
ရာ
▁thắ
▁existence
▁royal
▁territorial
▁109
ൊരു
▁మె
tam
▁ภาษา
▁Down
▁Verenigd
愛
▁decidió
▁eind
夜
▁Ainsi
▁conocida
▁Kurt
Л
▁చేశారు
▁loco
▁gid
▁Leon
▁యి
▁средства
▁순
یف
▁user
▁다시
배
▁Köln
▁103
▁思想
▁importanti
▁WWE
▁число
ുകൾ
▁প্রথম
▁কাছে
▁আগে
▁logró
▁เธอ
值
ците
▁listed
▁השנייה
艇
▁Clark
▁Ito
cker
▁cond
▁研究所
▁¡
▁رسول
班
-8
▁blue
▁teilweise
▁күн
▁Saat
मान
maging
▁ネット
ации
▁بأن
ျခင္း
▁Creek
▁notable
▁setzte
▁असेल
aï
▁hadden
TP
มาณ
▁suficiente
防
▁採
户
▁walk
▁Josef
▁pequeño
▁Software
▁نور
▁mejores
▁UM
▁previously
▁buena
▁другой
▁mix
▁émission
▁विभाग
æ
▁Bro
▁mwaka
▁よく
▁ประกอ
▁イタリア
▁คู่
▁மன
৭
▁ภาค
▁игра
▁丁
▁perse
▁cell
▁आला
▁棋牌
▁Iglesia
▁సా
aji
▁diventa
ぼ
▁volvió
▁Jewish
▁Avenue
▁mista
▁Seri
▁版本
▁voidaan
▁referencia
CO
▁ц
ისა
▁bronze
▁ilgili
▁Danach
▁certo
▁Ryan
▁Dance
▁Ελλάδα
▁σκ
이는
▁claim
▁gan
ტი
钟
▁exterior
▁詩
れる
▁target
▁zeko
▁పో
▁Vice
轉
▁పార్టీ
ация
▁gründete
▁Vincent
ize
▁কে
▁hậu
▁Johnny
▁தி
▁၃
▁nguồn
▁டி
▁Rais
▁言
▁Hell
▁beta
▁西部
▁mạng
▁milhõe
▁travel
▁フェ
▁барлық
▁Ай
▁институт
▁없
▁중국
▁heavy
▁mily
▁Lincoln
▁arts
▁नाव
▁hữu
▁ఇది
▁kuat
▁первых
북
ole
▁derrota
▁Licht
ona
▁bonus
▁vara
▁Sil
▁natura
▁Sand
▁शे
▁bou
근
▁இரண்டு
రే
ינג
▁architecture
족
24
▁род
▁大きく
▁Wenn
▁Photo
▁작
▁realiza
မွ
▁Nhà
▁удар
▁вернулся
▁น้อย
▁CR
▁สุด
ซ
▁religious
తా
▁演奏
ണ്
رز
▁Berliner
▁厚
▁Mail
廠
▁sales
▁zin
▁Champions
וּ
▁会议
▁உள்ளது
▁độc
▁Harvard
▁Gel
▁במסגרת
▁последни
▁य
▁война
▁partita
▁الثامنة
▁bonne
▁век
건
远
▁سازی
▁vence
தை
mond
ヒ
ans
▁versi
▁Kau
▁raya
▁হিসেবে
▁112
▁older
▁望
▁백
פ
നും
▁refer
tôt
ამ
▁raza
35
▁ကျ
▁მა
▁Bevölkerung
▁sedikit
▁babae
▁yüksek
ഹ
▁gehiago
▁ساخت
▁Police
▁速
▁artist
▁Rusia
ासाठी
▁Như
CS
▁Staaten
▁civile
▁Moon
▁felt
▁असले
లే
▁अन
▁材料
▁образование
▁mostrar
▁альбом
sey
▁woord
▁quarto
▁eikä
▁Its
▁Castle
изм
▁చెప్ప
▁dejar
یل
ঁ
▁agama
▁להי
▁殺
▁Studios
osas
▁新た
▁浮
▁وارد
▁Aber
▁శ్రీ
▁لی
▁центра
▁qualité
▁올
▁én
▁Ahmad
▁식
▁zi
▁belang
gem
▁曹
▁intro
▁AV
ச்ச
▁漢
▁escala
澤
▁размер
▁együtt
▁نامه
-3
▁Bruder
να
▁Consejo
▁promo
▁justice
lerine
▁pak
▁اطلاعات
▁Duke
ынан
▁részt
▁kis
▁सेवा
טה
▁дни
عة
▁conseil
▁têm
▁texto
▁വര
▁rõ
▁abi
▁poker
▁左右
▁สู่
▁проблем
玉
▁آموزش
یوں
▁oude
▁Thu
▁whether
ക്
▁contrat
▁Jin
igo
▁figli
▁typical
▁धर्म
▁method
نه
▁头
▁এখন
▁comes
▁Pet
▁Rei
▁maklum
▁Castro
▁106
ият
▁команда
به
▁casas
▁エンジン
▁擊
▁Ye
▁god
تون
refore
▁longue
▁拿
iya
rt
▁moi
▁ตั้งแต่
▁محل
▁compues
秀
▁montre
▁trabajar
মা
Κ
▁Michigan
ற
▁マン
▁ואת
▁tungkol
▁efforts
ис
▁תל
jon
▁Uruguay
ং
وت
▁異なる
▁guitar
▁würde
刊
▁comprend
▁filem
▁Sono
▁移動
മാ
▁Nous
▁大正
▁互
▁Three
述
ळी
▁avuto
▁သေ
oz
▁aktiv
▁Howard
▁kyk
▁Illinois
▁നിര്
▁badan
▁Ко
▁Presiden
▁讓
▁ဥ
▁primeras
▁address
▁campeonato
▁phạ
▁प्रश्न
৯
▁ஓ
▁eden
▁mali
ought
▁Künstler
▁vano
▁contrôle
ভাবে
▁relação
▁buy
200
stra
▁飛行
▁経営
▁rela
▁成员
▁Мар
▁JA
▁Capital
▁entwickelte
▁›
▁первым
▁Girls
▁争
▁liitty
ù
▁사람
▁nuovi
mış
▁bill
ках
▁einfach
▁ค่ะ
▁acceso
▁议
▁contiene
▁flight
▁环
▁президент
▁нового
▁дня
▁bil
▁판
▁сыграл
▁ซี
▁dié
▁AB
▁בעל
▁連続
ონ
hausen
▁โครงการ
RS
▁gleichen
گان
▁TR
引
▁للم
29
▁السلام
▁Plaza
▁ching
nta
▁1815
▁Kuala
▁segi
▁Blog
▁弗
▁épisode
▁ішінде
▁eye
▁Linux
▁Republik
▁berlaku
▁Hon
▁نرم
▁opération
▁Miami
▁مجموعة
▁passer
placed
▁第四
gy
tani
▁மூலம்
▁wêreld
함
ായ
▁AI
▁ملک
▁tấn
ệ
ING
▁الوقت
ago
▁可能性
али
▁Services
▁Kampf
овете
▁едно
▁unica
▁Германии
▁드
▁מש
殺
▁sente
ള്
▁उपयोग
▁облысы
▁жоғары
ре
▁tamaño
▁Kul
▁század
▁......
▁porn
▁按
▁RS
▁ہونے
kirche
gna
▁oportunidad
esi
▁runs
уы
▁祖
▁Straßen
▁Laut
▁الثاني
ần
▁Nations
▁שהיה
PM
漢
▁communication
▁مقابل
▁associated
റ്റ
▁теле
ssen
▁hanem
▁musim
▁necesidad
NG
▁luon
๋
▁목
▁suivant
▁照
jat
▁april
▁Nai
▁اولین
▁Kes
▁Ann
OT
レン
▁單
▁लाख
▁войска
ούσε
▁hỗ
张
▁死去
tis
কার
절
▁prevent
冠
▁فعالیت
▁қажет
▁Betrieb
▁金融
▁JR
▁借
ías
▁gute
▁خوش
▁Bre
▁शि
▁更新
▁longo
▁1852
▁ข
▁بیش
▁Nähe
κα
▁BMW
▁firme
▁CEO
31
▁سیاسی
▁کننده
01
▁құ
din
▁практически
▁formas
▁linna
▁köz
তার
▁egész
▁န္း
▁Ω
▁बोल
▁থাকে
▁mina
▁Dame
tua
▁อัน
▁hòa
▁Dead
▁Philip
▁Terre
▁নতুন
▁venner
ற்ற
▁मो
পুর
▁mengalami
▁launched
▁занима
▁théâtre
▁則
四
▁talent
▁社保
вших
▁再次
▁vuosina
▁رہا
▁更多
▁Ly
▁directed
▁बारे
teur
▁helped
ço
▁общества
შ
▁ヨーロッパ
▁outra
▁manos
▁благодаря
ისთვის
ấm
ations
▁reform
ится
९
ossa
▁Anthony
▁kasama
лю
▁manga
৩
ният
▁hen
▁técnica
▁বড়
▁hero
▁Galaxy
▁klub
miş
ண
▁Another
▁luật
▁Lucas
ச்சு
兩
▁財
▁som
סון
▁singolo
▁mùa
തി
▁обычно
▁మీద
▁display
▁дивизии
▁आर
▁המאה
▁кезде
▁ഇത്
▁neve
▁黃
нде
తి
▁Bereits
▁personaje
▁penyakit
ഡി
▁éves
▁カラー
▁爆
▁グ
▁MO
gruppe
▁動物
▁heures
▁sau
▁铁
▁Kerajaa
▁വെ
১
lardan
運
▁新しい
▁administrative
▁inside
ём
low
▁माझ्या
▁中國
▁Gegen
▁servi
▁Franse
▁forced
至
▁judi
▁שתי
▁amat
ward
▁Fel
▁nuit
▁căn
▁主張
庁
ië
▁veniva
词
▁חברת
▁Thai
▁society
▁uusi
▁107
▁kerto
MA
▁১৯
▁forward
资
▁minor
▁cáo
UM
မ္း
ֹ
trice
.»
▁Ré
▁冠
▁深圳
▁participó
ebanyak
▁nghiên
▁ponto
▁藏
ενός
▁highest
▁Ло
▁推出
▁الى
▁Char
▁Moore
▁Rafael
ंद
ает
▁floor
▁Repubblica
▁全球
nél
ীর
eron
▁fell
▁Нью
avaient
▁szó
▁surround
ntes
▁ჩვენ
廣
▁Oro
כן
▁chân
▁Tam
▁যদি
▁pár
-4
కే
▁всегда
кер
בים
▁ప్
ど
▁큰
▁gar
▁ganar
▁1999.
▁quant
▁陸軍
▁върху
▁Cina
▁DS
▁saying
▁тип
▁simula
▁Laura
▁สวย
▁actualmente
ục
▁پایان
▁புதிய
▁Torino
▁francés
▁въз
▁navire
owned
▁einigen
▁response
▁vár
▁艺术
zik
▁Lii
▁tầ
▁새
win
▁รัก
▁becoming
▁μαζί
▁absolvierte
[
▁観
▁особенно
▁对于
▁بازار
▁值
▁Mitglieder
▁1851
৮
▁kak
▁Alta
▁vuotta
▁男子
份
AY
selt
▁мало
▁seura
▁MM
ట్లు
▁DO
লি
强
▁レイ
▁என்பதை
▁основе
▁Québec
▁१
lingen
▁一位
णार
▁交流
▁yun
ゲ
▁بسیاری
π
నం
▁പേ
▁1853
▁стран
هما
▁Nei
▁perform
▁రె
▁romana
▁خارج
▁рода
▁Truppen
▁Family
▁gehend
▁ပင္
▁جمله
▁Garden
▁cena
▁Gesamt
▁ہوا
▁Hải
▁suces
ペ
८
bor
▁Java
込み
傷
▁schloss
▁maakt
▁জা
▁بما
▁Blu
▁여러
▁歌曲
▁เท
▁individu
▁Philadelphia
ив
▁nyo
▁gesê
▁限定
▁정부
▁sema
▁eventos
▁линии
摩
stad
▁vrouw
ници
▁एस
▁panjang
▁handelt
▁הצ
▁अगर
▁全部
▁wit
▁pet
▁皇帝
80
ика
▁Gruppen
▁œuvres
▁постоянно
▁gen
▁sogar
▁গত
▁maestro
ими
▁Censo
▁လွ
▁controllo
▁كبير
ーク
▁nove
▁Mientra
주의
▁อ่าน
▁Class
虫
ယ္
▁ドル
▁interna
▁escritor
▁bos
▁келген
▁dezembro
乳
lü
▁Literatur
▁はじめ
▁Eastern
▁言わ
▁zaid
▁gewesen
▁мировой
ுவது
▁позже
▁provides
▁지난
▁Corte
云
▁promotion
▁weniger
敗
▁羅
▁魚
▁製品
票
▁García
▁দা
▁בק
lim
▁benefit
▁형
沒有
▁അവ
yer
▁ジョ
▁pende
▁gu
▁goals
▁тому
▁numerous
▁Bush
▁สาว
▁Res
메
▁Einzel
▁sister
▁WA
nyt
▁kain
PO
▁Note
▁Kil
▁offered
▁Bruce
▁हजार
▁合衆
▁principalement
▁கொள்ள
现在
▁உலக
▁kal
ines
▁Sai
▁avance
▁junta
▁Militär
▁maio
ще
▁aufgenommen
ös
दार
▁गा
▁carreira
▁ευ
▁Charlotte
▁развитие
ுகிறது
uro
▁Thailand
▁taa
▁하고
五
▁vaikka
复
▁olmak
▁Base
▁Computer
▁middle
maktadır
▁reti
▁Ven
▁minuti
▁Multi
▁commission
▁giố
▁ме
▁Morgan
ตา
▁दोनों
▁kỷ
▁市場
erde
▁जन
▁Không
▁興
▁честь
tions
学部
▁prove
▁why
▁pol
▁ডি
▁ഇട
▁recke
▁jota
▁soms
▁tar
▁ह्या
▁Среди
▁בקרב
▁Ferdin
▁pendidikan
▁Sierra
▁possui
ांत
▁변
▁bai
▁സെ
RI
▁vii
▁север
مة
▁怎么
▁৬
▁Adolf
▁に対し
▁agora
▁kõige
▁inscrit
▁Parigi
▁серии
▁เรียก
▁לת
▁outubro
▁voix
▁データ
IR
▁châu
控
▁Deus
▁イベント
ింది
▁Route
stelle
▁border
▁Had
▁Dun
▁publication
▁мал
▁Erd
ники
▁Take
▁ณ
▁sept
▁gina
▁Bản
▁果
മ്പ
▁Short
▁Campo
▁เร
▁標
ắng
yı
▁이용
த்துக்கு
uta
▁enjoy
▁lima
▁减
▁noted
领
▁জানা
].
▁プラ
▁1990.
▁כתב
▁裏
▁舰
▁mouth
▁용
陸
香
▁Tidak
скому
జ్
▁カード
בן
▁Sainte
శ
యి
▁закон
▁المن
▁critica
▁أنها
▁薬
▁dink
▁Jadi
▁blood
▁pinag
▁Daily
aine
▁aukera
娜
▁rä
▁Rico
▁некоторые
▁estructura
▁Luc
▁증
▁Baden
▁спорт
ించారు
ncia
▁الز
▁დიდი
▁终
▁Firma
▁daarna
ился
▁keluar
雨
tre
▁sahip
▁unsere
▁kể
UT
▁болса
कडे
▁疑
▁wenig
▁Politik
妹
까
▁arco
▁建造
▁机构
▁représentant
▁growth
▁queda
ink
▁signe
▁メンズ
▁許
▁ลิ
▁Benjamin
▁రెండు
▁ฯ
▁キャラクター
▁지원
▁collaboration
شن
▁CV
▁kulit
熱
▁Kriegs
▁Afrique
▁maximum
tó
▁gebracht
jad
▁jelent
測
bit
▁โอ
▁industrie
▁Mercedes
▁如何
گاه
▁redes
▁哥
MP
▁tramite
▁programs
▁參
▁மே
▁pista
▁ล
▁volna
▁bidez
▁ന്ന
▁南京
ezért
ாலும்
▁вас
込
▁gevolg
▁競
▁耐
▁通信
-9
▁tuu
▁هاي
▁dog
▁actually
იანი
▁mio
isse
▁Rot
▁呈
▁titular
▁тя
▁နှင့်
▁მის
▁túl
▁draft
▁Pendant
▁отношения
▁ヨ
▁wing
▁parc
▁123
▁hanggang
▁Kita
▁Tämä
бек
గు
▁Their
▁Gan
▁Leave
▁پہلے
▁vo
can
▁آمار
▁基地
▁kích
iger
ky
▁олардың
▁usando
▁joint
▁effective
▁Ле
▁जात
▁distribution
▁सम
▁வழி
▁песни
▁характер
▁Tapi
IL
▁UP
▁personnel
▁einzige
▁temple
▁parallel
パ
يس
IT
▁Alexandre
ária
▁срещу
▁конца
▁検
▁乱
▁Bond
ED
ij
▁farklı
▁Wirtschafts
▁기술
▁soldados
யான
▁rei
enda
▁expression
▁傳
▁들어
▁worm
வில்
▁האם
▁Pont
▁முறை
▁Sor
▁อะไร
об
▁часов
▁luce
▁tuttavia
▁ति
▁ад
▁厂
▁Coast
▁έγινε
온
疑
▁ည္း
▁杀
▁terminal
▁మే
▁בעיר
▁الخامسة
▁ละ
協
▁sonder
হ
ologie
রণ
哥
▁ใบ
▁Ngườ
▁multiple
▁гол
▁juegos
▁gero
▁ker
▁いい
▁قدرت
▁導入
▁Belle
▁Já
mesi
▁baby
▁اعلام
▁בנוסף
▁Dave
▁мне
▁должны
bles
▁terut
▁駐
▁จุด
▁कंपनी
▁vrij
▁raised
▁vinden
ру
▁bly
▁肉
ต์
▁索
▁export
▁unterschiedlich
두
ova
岩
▁Gott
▁英语
▁beras
▁Inoltre
lauf
▁Polizei
▁kamen
وي
▁Ville
▁paz
▁incontro
▁रि
伊
▁finally
▁طراحی
▁stellt
▁самым
▁plaatsen
.-
▁Jose
▁vel
▁минут
▁kapal
▁wonder
iwa
▁nhìn
cı
▁Today
▁meny
▁unità
▁দুই
▁profesor
▁geval
▁മെ
▁παρά
▁piccolo
帶
▁вышел
▁ένας
▁Mission
▁kayo
▁വേ
▁Хо
這
▁पुलिस
▁yok
▁边
▁۶
▁இதை
試
▁وضع
▁వారి
چه
▁XIXe
▁bande
gó
▁ата
▁കഴിഞ്ഞ
▁Library
▁에서
▁اشاره
▁interne
▁يت
▁ஆண்டு
▁sesuatu
▁religion
▁求め
ഷ്
▁Raw
▁Prof
▁Fußball
▁majority
▁أم
▁dorp
نده
▁Poli
▁תוך
▁maart
ята
bur
▁aucun
ston
續
ანი
durch
▁Aku
▁விட்டு
罪
▁appearance
▁谷
▁علیہ
▁tinggal
▁fanden
▁street
▁Hulle
▁चि
▁Gordon
证
▁Thor
▁основан
▁Glas
▁kara
dire
▁políticas
BS
▁Федерации
シュ
▁দিকে
▁גר
▁drive
▁1998.
▁teks
▁ఉన్నాయి
▁Alto
▁custo
▁Körper
▁쓰
▁умер
▁עצמו
▁Dragon
▁olid
zon
ヴィ
▁Site
▁Tahun
ებზე
▁اف
▁Has
nah
▁10-
▁использовать
▁limite
see
yen
▁parole
65
▁কো
항
▁מע
▁少年
▁θ
菜
税
▁نقش
დის
▁maal
▁1847
▁判
▁Kit
tika
▁sân
▁terror
莉
▁发布
▁支配
▁韓国
▁Vào
▁могат
▁быстро
ł
ội
wagen
▁東京都
▁somit
▁たら
▁valta
▁मंदिर
▁происходит
▁لت
▁festa
▁tarihinde
▁élu
▁Mes
▁diz
▁Reihe
▁familiar
ेत
▁española
▁経験
▁Death
強
▁droits
▁nouveaux
tri
▁န္ေ
▁保持
▁servir
▁erreicht
男
九
▁υπό
▁Information
▁சென்ற
▁tembro
▁livres
▁Ausbildung
▁perusahaan
▁kỹ
▁kuning
▁hoog
99
▁Ά
▁baino
▁Irak
▁autorité
▁सो
▁piazza
rd
वि
▁המדינה
▁etti
▁EX
萨
해서
ौ
▁冲
▁energía
▁plane
ial
ốt
▁Alfonso
▁tels
災
▁浙江
▁titel
▁Rod
▁挙げ
ட்ட
▁पे
▁moeten
▁ہوں
▁tatud
من
▁Both
▁तसेच
▁đầ
決
▁节目
▁നീ
▁時計
inger
▁gehad
▁ES
▁ritmo
持
▁musée
▁ועל
eg
▁மீது
▁antigua
▁characters
িং
▁難
▁Kreuz
▁jolloin
▁diretto
▁Hat
▁မႈ
▁ответ
eja
▁northern
▁Chín
▁mara
▁tapa
▁अप
▁tales
▁Mundo
▁nadat
▁君
▁janeiro
▁step
▁ott
▁officielle
▁résultats
▁carte
▁Dam
isce
▁Singapore
▁счёт
้า
▁डि
▁cinta
▁秦
▁mera
▁tank
▁például
SI
▁관련
▁округ
▁договор
▁一名
▁မာ
▁飲
▁タイトル
宾
▁詳細
ళ
▁בעלי
TM
▁遗
нов
von
rel
▁1812
▁مس
▁sư
▁книги
▁miljoen
▁یاد
▁pronto
▁initial
▁usado
Χ
εις
32
▁投资
▁erg
▁Sciences
▁woon
পি
▁étude
▁batu
積
▁Lorenzo
▁folk
▁girls
▁ところ
▁行い
လာ
▁瑞
▁壁
▁मग
▁отыр
▁seguente
▁წელს
ன்னு
பி
ship
▁納
▁ล้าน
▁wait
▁Sieg
▁verse
▁मुझे
giging
▁droite
▁狗
▁syarikat
▁天津
staan
▁مطابق
▁أبو
▁mass
▁няколко
▁имеют
▁urban
▁colore
ப
▁階
▁Schweiz
▁अव
▁מתוך
ήματα
▁amore
▁dólares
하면서
pad
▁جنوب
▁Square
▁провёл
▁祝
▁楼
▁sp
wal
מות
▁março
▁Société
▁moda
▁মানুষ
▁状況
▁ufficiale
▁1820
▁өмір
sus
▁MC
▁малко
▁erity
▁medaille
▁victory
800
▁meaning
▁Sunday
pel
უ
▁Mau
▁қамтамасыз
▁隆
▁Eduardo
▁Ao
▁difícil
้ม
▁เดินทาง
▁René
▁Color
erà
▁王国
▁biri
▁Rick
毛
יפה
▁Eva
▁Barat
llinen
▁aria
▁күні
▁sahaja
▁डे
▁Timur
▁força
▁易
▁拥有
▁factor
▁フィ
▁названием
▁Wang
クス
▁بم
▁გან
▁appel
▁топ
▁ബോ
▁चुनाव
▁romano
▁хора
▁分布
Ü
▁dark
▁Johan
▁instrument
न्स
па
▁據
▁sad
▁taille
▁possa
▁همان
▁서비스
▁ერთი
▁roll
၉
▁অন্য
▁hava
▁Tamil
▁ローマ
aja
▁проекта
▁Nas
▁escrito
nus
裁
▁muita
▁概念
▁Country
▁אור
▁kép
▁katan
▁idő
ুল
▁ultimi
▁trading
-17
▁たので
▁しまっ
▁ley
▁개발
▁approximate
▁sembra
▁אר
tzea
▁message
ויות
▁index
▁dạng
▁111
▁鳥
▁съм
▁旅行
▁負
▁Mora
▁hip
▁৭
▁1846
▁Dina
▁kunst
▁некоторых
▁окончания
历
RO
▁protein
৪
ẻ
▁Dutch
▁נולד
▁снова
▁Place
▁rivière
▁passé
▁likely
ейчас
▁इसे
ႏွင့္
▁tali
▁液
▁coordenada
▁ギ
▁стрелков
▁霍
压
▁牧
▁Maurice
▁Enrique
▁バンド
▁kennis
▁తమ
▁味
▁composé
▁monument
▁Sang
▁โ
▁raad
▁assistant
▁TP
റി
▁income
▁personajes
▁sense
▁historical
▁minimum
▁Joan
▁帮
关
▁Robin
▁député
▁vede
▁Алматы
▁pusat
▁自動
▁López
▁scritto
▁жил
▁預
▁בס
▁фото
망
▁Historia
▁వె
▁huy
▁ടി
▁וכ
▁timbang
▁مرد
▁desenvolvimento
▁marriage
▁Mid
▁దా
▁തി
ിച്ച്
▁olup
태
জন
▁получила
▁salud
▁channel
▁慶
▁nghị
▁sujet
▁tämä
▁مدل
▁selben
▁Kosten
▁べき
▁vaste
▁Notre
▁Onder
울
▁ထဲ
▁環
▁использует
▁Mind
▁Ty
▁เว็บ
骨
▁partite
▁julho
▁4000
▁וגם
▁percent
▁southern
ציה
▁Insel
yang
ല്ല
▁Sever
▁टीम
τη
רון
▁येथे
▁Besitz
▁Honda
▁תחת
▁کرنا
▁politiques
▁teoria
▁ország
▁kina
▁erwähnt
予
▁باشند
▁luvulla
▁namelijk
▁Де
▁tete
幕
▁मराठी
丁
انه
▁активно
▁온
▁Oy
▁đoạn
▁纳
ザー
▁garde
▁knowledge
他
gebiet
져
▁中古
▁လား
jük
▁పి
득
▁libera
ார்கள்
▁bridge
▁Gr
▁umum
▁Barbara
▁cuyo
▁شمال
▁expérience
û
tsu
專
▁Kate
▁anschließend
▁企画
▁الغ
▁shown
▁neo
▁Jimmy
▁நாள்
▁Στην
▁Say
▁option
▁Nelson
leaving
ুন
▁Затем
▁ऑ
▁学习
ებული
▁земли
▁writer
weise
塚
▁lack
▁附
하였
eks
▁పెద్ద
▁cuarto
▁Ersten
LC
▁عضو
▁击
▁అనే
▁1814
▁claimed
▁NH
▁OK
৬
ása
▁artists
▁augustus
وه
کس
▁CF
▁pura
জি
▁лес
ries
▁piste
▁Mask
▁పు
▁semanas
tered
▁próximo
▁kehrte
▁Industrie
▁spin
▁ket
▁اساس
ינו
▁Orden
▁LP
▁cree
▁து
▁萨
▁翌年
▁densidad
दी
▁Mountain
▁Face
▁Popular
▁保护
▁pochi
▁Né
एं
由
▁Kent
▁Ier
▁ယူ
▁incluye
▁hala
ிட
னு
▁chamado
▁Reserve
▁חדש
攻
▁celles
▁פר
▁свет
ビー
▁Hilfe
▁prodotti
▁င္းေ
▁雨
▁fica
▁hop
▁농
▁Politiker
▁junho
강
را
asyon
▁span
題
▁compra
▁cosas
▁介
▁Haar
▁त्याला
▁个人
▁lief
▁हि
জা
▁größten
▁quase
CA
▁பட
▁bases
▁regering
▁participación
彈
▁Ny
▁believed
▁หญิง
war
▁casiones
▁230
▁高等学校
▁akhirny
▁Salon
님
▁些
▁trò
▁Renn
▁بت
▁Abraham
▁מלחמת
▁হাজার
▁しまう
▁bedrijf
EN
▁மட்டும்
▁principali
▁Olympische
▁特殊
▁മി
▁ポイント
▁anuncia
▁سا
▁Kre
bat
▁mezzo
▁groupes
▁sesso
▁fotos
▁santa
▁仮
bol
тон
koa
▁leden
▁poor
▁Venezia
▁אנשים
alan
▁Lage
▁moeder
頓
▁vene
▁nominato
▁Perú
▁Μα
观
▁relation
モン
▁forex
▁riesce
▁legs
▁names
▁га
▁ambil
▁add
▁الك
▁交易
▁เกี่ยว
گر
▁게
▁thai
erie
▁조선
▁qualità
′
彦
▁anteriores
营
▁Vous
▁четыре
▁api
SS
▁略
▁タイ
park
▁adott
▁နဲ့
▁intra
▁シン
▁jelas
▁metro
▁фильма
רת
股
▁interés
▁elu
▁opnieuw
▁отдел
▁მიერ
▁enfermedad
▁référence
▁αυτά
▁Comité
▁literatura
rol
▁宇
Λ
ίζει
▁belle
▁ফ
荷
ель
▁모두
ющие
▁Small
▁lekker
▁Dem
▁klo
▁siete
fall
▁Medical
▁resta
▁签
▁taong
▁Klasse
▁gehören
▁त्याच्या
▁kW
▁特别
▁เคย
▁Gast
▁department
播
▁ehk
▁calcio
▁租
hető
▁mitad
▁GmbH
▁Ap
▁Jam
ശ
▁ထို
lama
▁representante
▁directly
▁toch
▁Boys
▁பெற்ற
▁tente
▁scar
▁үш
▁内部
测
ö
▁ကာင္း
▁Kali
־
▁frat
▁Provinz
▁rica
поскольку
▁maioria
▁Bern
▁amateur
▁乳
▁robot
.9%
▁Lisa
▁Pel
▁۱
▁έναν
▁cộng
▁Bahnhof
▁pdf
▁کمک
▁trono
泽
уге
▁116
▁houses
樹
▁فرد
▁offers
▁Felipe
▁Isabel
▁уезда
▁孙
ında
▁друга
▁quiere
▁felé
▁Отечественной
▁theory
▁carried
▁pequeña
▁đà
▁منه
সহ
▁university
▁intérieur
▁traba
▁weiß
楼
▁populaire
▁動画
▁effort
▁示
▁Bundesliga
▁needed
▁игр
န္
▁Kelly
ിനെ
▁send
▁полка
▁自ら
▁効果
▁kant
▁বেশি
▁utilise
▁軍事
▁Осы
चं
▁ficou
DR
▁internazionale
▁значительно
▁帕
▁arti
▁stel
效
▁אצל
▁язык
▁ปัญหา
▁ilma
▁AE
லா
▁haya
▁print
ക്കി
乎
▁problemi
▁സാ
▁uses
▁售
ို
▁sche
▁Smart
▁ernannt
▁Chine
▁वर
▁Thanh
▁Regel
▁जि
▁Transport
▁пер
▁同時に
▁แม่
▁Casino
▁문화
▁帶
▁stres
▁工業
ייה
ောက်
▁பின்
畫
杀
▁ജന
markt
리는
▁комплекс
▁teljes
▁첫
CR
▁ambas
▁大部分
▁média
kau
▁പോ
▁admin
▁schrieb
▁Ejército
▁Szent
▁استعمال
▁Bru
▁လံုး
▁毕业
ピ
▁純
▁Films
500
sberg
▁టి
ைப்
▁Block
▁孫
▁szín
▁สม
▁plataforma
ID
▁habang
▁Vin
▁өткен
▁spel
▁clube
▁ہوتا
▁warna
▁rész
▁1845
▁установлен
▁курс
▁周辺
▁Gründung
▁父親
eira
익
út
▁Age
▁หาก
▁န္
▁נמצא
▁Espagne
▁ارائه
▁miglior
90
▁presented
▁Zeal
zan
▁برابر
▁தனது
ிலும்
ạnh
連
▁状
▁daki
▁Ngo
လည္း
▁ラン
▁Ag
▁языка
▁tovább
▁мүмкін
▁chuyệ
▁العائلات
86
▁罪
▁mapa
▁טוב
EC
▁رود
eva
▁احمد
▁binh
zy
▁Natal
▁בעולם
▁publicó
▁secret
默
gut
▁foreign
▁officer
plan
▁Energie
驗
▁schnell
▁ساعت
▁organ
▁Instagram
▁deal
널
З
▁üzerine
▁terken
▁jä
▁ici
▁Está
▁роли
▁estal
▁posibilidad
ുന്നത്
▁tiba
▁tempi
▁產
▁ю
▁頂
▁どう
令
▁命令
▁Rudolf
▁larger
list
▁Billy
则
▁बढ़
▁hol
▁Arena
▁économique
▁Oliver
▁matches
▁പുതിയ
KI
▁紫
▁trouver
▁Watch
▁geven
yne
▁conhecido
▁Eltern
▁Про
▁контракт
▁20%
▁האי
▁価格
▁nuestro
▁всей
▁sciences
▁políticos
နဲ
▁蒙
வது
▁営業
▁außerde
▁ế
▁禁
▁Pays
▁Chef
▁不过
▁114
▁пе
▁kapag
کر
▁célèbre
▁Sociedad
▁ახალი
▁Colorado
▁nilai
చ్
▁以後
ഗ
▁事故
▁comuna
▁scale
▁championship
▁években
▁羽
▁albums
▁ขณ
▁huidige
▁bleef
▁Orchestra
▁朝鮮
▁piece
▁展示
▁പരി
▁condiciones
▁транспорт
▁Fle
▁批判
▁באזור
▁Temple
▁wiki
▁Гор
▁бай
該
▁産
▁လုိ
▁Captain
ेश
▁宜
▁arrivée
▁σήμερα
▁contrario
▁Великой
▁걸
▁probabl
처
▁király
▁kereta
ност
नाथ
▁ат
▁ensimmäisen
▁suna
▁שנות
伐
ِّ
▁novembro
этому
▁पूर्ण
▁latin
▁ไอ
DC
▁部門
▁Vas
▁gemaak
อ
▁PH
▁အရ
▁رئیس
▁лица
▁atteint
ഴ
▁Imperial
▁Cas
▁הרבה
▁Cet
AS
annya
▁赴
ছি
▁Turm
▁chaîne
▁Soul
擊
▁اجتماعی
▁স্ব
▁להת
▁scena
-7
▁宁
▁게임
▁руководством
▁egter
dus
▁อยาก
▁représente
lai
▁fiction
ř
▁μην
联
▁جاتا
kka
▁Bey
▁poter
▁Horn
యా
aught
富
▁ề
▁muncul
ái
▁雄
▁ပေ
▁município
▁देव
▁plutô
▁EC
▁直到
▁మి
▁有名
▁केंद्र
▁שלהם
▁Golf
▁mate
-14
▁дела
▁станции
▁conocer
ေန
▁incluindo
▁Luna
▁costruit
▁бел
▁売
▁مناسب
▁jobb
alt
▁plat
▁讲
▁berri
▁facebook
▁अलग
▁Grant
▁ジョン
▁Control
קים
▁Sơn
▁nde
كم
▁ray
ण्यासाठी
▁Nga
▁Recht
▁भाषा
OR
SP
▁Damit
▁espécie
▁kart
▁作家
▁διάρκεια
額
▁различни
▁edition
inho
▁capacit
▁대해
▁restaurant
▁iron
▁一種
300
▁仕事
▁одна
ஞ்ச
▁Ferrari
▁erster
▁enfant
▁Action
▁terima
▁مدت
▁arc
▁Ala
▁seguida
▁еңбек
▁авто
▁ό
rand
▁stond
▁Sexy
فت
▁マル
ウス
ß
▁kleur
ः
▁starting
▁huit
▁产生
▁الان
▁negara
▁professe
▁роман
▁kent
便
400
▁ప్రతి
▁ബാ
▁όλα
▁Milano
▁கடந்த
▁Kerk
▁പല
zowel
▁Hol
പി
▁उपलब्ध
▁движения
pol
▁४
▁elemento
▁簡
▁سفر
▁eher
ович
▁жалпы
▁jugar
▁dados
▁Indien
▁contratto
▁荒
▁verdad
▁bổ
umi
▁documento
▁เจ
▁verano
▁қатар
▁Tot
▁cinéma
▁formado
mp
▁Tat
▁attaque
bestaat
▁שת
▁酸
▁apertura
▁pilot
▁قام
▁השנים
illas
▁ライブ
림
▁ന്
▁முன்
سل
営
되고
▁individuals
▁помощи
▁使っ
▁алып
▁membri
▁paciente
erwijl
▁құжат
▁possibilità
ദ
▁cực
聖
▁geheel
▁Pia
▁登録
▁бастап
▁सर
lit
▁commerce
▁Werke
▁hyvä
▁import
fen
▁golf
▁decreto
BI
▁fand
▁بررسی
bak
UL
▁날
ute
▁destino
▁🙂
▁jogos
▁Community
▁運営
▁ऐसे
▁évêque
▁grup
▁increasing
▁まま
▁situado
▁Kennedy
jumlah
▁parque
/5
▁canzone
▁公路
▁явля
▁oft
אף
▁суд
▁inferior
▁bada
▁saint
▁negro
▁nuove
▁ולה
▁liegen
▁190
▁сразу
▁折
▁قرآن
ִ
зи
▁Cao
▁ees
振
▁angol
ां
становится
▁证
▁မိဳ
▁oud
▁冬
▁ursprünglich
▁स्थान
▁擔
▁memilih
לי
▁dollars
雅
▁Jung
▁tão
▁variet
▁สาม
▁কর
▁רוב
▁cité
uca
▁believe
▁жылдың
▁tercera
▁చె
französischen
eli
▁税
▁gemein
▁במשך
▁vide
iki
▁无法
ris
▁ڈی
▁титул
▁чемпионата
▁Material
ур
▁दूर
▁lives
▁Toute
▁მხოლოდ
▁武器
▁dục
▁forze
▁特定
▁ранее
▁progress
▁化し
2)
▁Estos
▁恋
▁ตลาด
▁sebenar
▁volg
രി
▁1700
▁peace
టు
▁εισ
▁újra
▁सह
▁componente
ჭ
▁欠
tuvieron
▁mist
▁Jeff
▁Peng
▁paid
▁Kaya
▁야
യുള്ള
▁210
▁협
▁১০
▁пара
▁dominio
▁farm
▁Wanneer
▁粉
▁줄
▁พอ
▁independiente
▁моря
▁Store
ath
юр
▁1996.
▁انگلیسی
▁滑
▁Õ
▁Bologna
▁потом
▁бой
town
▁対戦
▁nieder
▁chiamato
▁ühe
▁selección
▁dead
မႈ
▁connect
▁زیادی
用品
▁opge
▁marine
▁विषय
▁pou
▁Sesso
▁Кар
ခ
▁ud
▁Tier
▁ลํา
▁troppo
▁alapján
کار
களையும்
bereich
▁liit
▁мире
▁respecto
stel
包
▁ตรง
▁pakai
▁marché
ηθεί
FF
▁fiume
▁Polen
▁rot
ΟΣ
▁Yan
▁Britain
▁Akademie
▁photos
▁arriva
▁Londra
▁ธ
▁تغییر
▁folgten
▁യി
▁عرض
▁رد
▁polis
▁เด
▁carácter
▁編成
رس
▁utilisation
▁崇
▁العمر
▁लेख
盘
▁новых
▁既
▁ide
来自
▁검
▁準
▁掲載
▁Zij
tele
▁成績
▁पड
▁Teile
▁மிக
idos
▁테
บุรี
ès
▁proche
▁acción
▁Broadway
▁Fre
▁situs
▁ता
▁जल
▁myöhemmin
▁principais
▁Gut
lise
▁keski
▁massage
Е
▁Sekolah
▁ь
মান
▁rata
印
▁縣
ät
▁ასევე
▁区域
▁fonde
▁всеки
▁قتل
MG
泊
▁сөз
▁रह
▁Raj
▁mean
▁Mala
▁quickly
▁Christmas
▁少女
hall
▁riêng
▁الحرب
▁ద్
▁közül
▁interpret
▁elegido
▁ఉండ
▁attuale
▁अध्यक्ष
▁ตา
▁troops
ги
▁حساب
▁durum
meisterschaften
▁περιοχή
▁tercer
▁projects
편
▁devenir
ούνται
▁construir
▁школу
▁Graf
▁négy
▁radical
▁Ха
▁dòng
▁humor
آ
▁школе
レス
ball
▁rouge
▁منطقة
▁katawan
▁такой
▁universidad
▁honneur
▁團
▁离
▁oorlog
als
▁Houston
อก
▁ند
▁マー
▁のち
mana
▁alternative
మా
ִי
▁plante
▁formes
▁poeta
▁évek
ex
▁Earl
▁説明
▁valt
१
▁లేదు
▁เฉพาะ
▁画像
▁επ
▁nor
▁←
▁crew
▁广州
▁Cul
▁draw
▁bout
▁coi
▁Karena
▁lento
▁suivi
SG
maa
▁والا
▁ゼ
▁educación
▁ҚР
▁bagay
▁Despite
▁hoz
▁遂
▁ചെയ്തു
▁afirma
▁дебютировал
▁Federico
▁财
ச
▁hiç
▁vicino
▁ड
乡
த்தான்
▁mati
▁标
τες
▁construção
▁claro
▁1842
▁vá
▁humano
エル
▁禁止
▁poolt
▁meningkatkan
辦
▁Kanada
▁vrouwen
▁Stuttgart
▁λ
▁Vera
▁Ντ
▁doing
▁Spielen
▁夢
▁शामिल
ως
▁olevan
▁آهنگ
▁mercato
▁ایرانی
▁करा
訊
▁mieux
▁ძალიან
▁उच्च
▁máximo
▁obteni
袖
▁storico
▁anta
ikka
▁OF
▁asko
тор
gaan
▁夫
▁joten
▁種類
▁Artes
▁认
▁кор
▁트
▁труд
▁郑
▁తి
▁Был
▁мол
▁Body
▁ऑफ
▁Kis
▁composto
▁Tribunal
ls
离
▁fellow
▁bouw
▁sosial
瀬
▁葉
▁Với
▁Universite
sini
▁split
▁нем
▁处理
▁Bull
▁접
封
▁mencapai
erd
▁ゲ
▁kiss
▁özel
▁Tech
▁איך
miento
ราช
hara
▁rd
▁राष्ट्रीय
▁చే
ガー
▁devenu
▁Μπ
600
▁SI
▁cancer
▁Helsinki
▁Bischof
▁食品
teil
▁mikä
▁warga
▁Scotland
▁café
▁рамках
▁kamera
▁twitter
▁מטר
▁nearly
▁güzel
▁onderste
▁하지만
öl
▁Core
▁faisant
▁Кор
▁കാണ
▁145
▁戴
▁1844
▁化学
▁والذي
zz
▁kapott
▁интернет
▁לנו
▁Selbst
▁stazione
▁Leiter
▁levels
▁formula
ρ
▁ஊ
▁Regno
销
ches
▁นี่
ière
▁Қазақ
▁הסרט
▁کنیم
▁khẩ
▁yapı
▁главным
▁Shu
டா
nyi
▁Mol
▁votos
▁育
▁共有
70
▁normale
lerinden
▁azul
▁住宅
▁Nachfolger
▁新的
▁הקבוצה
▁дело
▁critique
▁permanent
▁或者
▁சரி
rait
▁ဟု
▁出現
▁importancia
▁Wiener
▁兄
▁ilmu
▁変化
▁uitge
▁responsible
ლა
▁घ
▁fé
▁症
▁laman
▁Kopf
oi
ucci
дік
▁incident
ിക്കുന്ന
했으
CD
▁бала
▁warm
▁Seu
▁درباره
PP
DI
▁performances
▁destina
▁gái
ёв
IS
▁人々
▁needs
▁bele
▁Bürger
▁fish
▁rappresenta
▁居住
▁რე
▁res
ume
▁減
▁trabajos
▁会議
▁Stan
▁Shop
▁достаточно
یی
▁NASA
▁ஒன்று
▁ओर
▁grab
▁苦
▁Wol
ธ
▁қ
▁Martín
▁ചെയ്ത
▁cepat
▁CON
▁选择
CP
▁運転
▁பெண்
Ж
స
▁街道
▁சார்
▁phản
▁৮
ాల్లో
▁ομάδα
▁1839
▁महाराष्ट्र
ft
bury
▁आपके
▁பார்த்த
რი
போது
▁それを
▁באותה
лин
▁easy
▁顺
▁crítica
▁Durant
dienst
▁бо
▁Beim
Ш
▁あるいは
▁Bona
▁ба
covered
▁始
▁軽
▁柳
▁Memorial
▁viva
▁Бел
▁Wohn
▁ইসলাম
タン
▁שלי
▁lãnh
EK
▁ရိ
AA
▁puu
ea
wel
▁modello
▁bordo
აზე
pt
▁sette
▁chama
tia
▁choix
▁SV
▁豪
▁mall
▁publique
▁seal
่ง
▁零
▁कह
개
ிடம்
▁Poco
▁ฮ
▁관계
▁紙
▁сме
율
▁118
▁दौरान
▁迎え
лі
▁données
▁Mkuu
▁総合
▁陆
▁Alam
55
▁Secretary
AD
pper
ets
▁گفته
▁Linie
ฺ
▁ക്ക
ന്ന
▁ほぼ
▁realizada
▁এটা
▁フル
▁maupu
▁Ras
▁besluit
▁طریق
▁gambar
▁mivel
亡
▁информация
▁ယ့္
▁Europese
▁زن
별
▁jetzt
▁Peru
▁область
▁бер
▁வைத்து
▁gaya
▁mẫu
דן
▁objeto
enne
▁visite
▁ormai
注
忠
▁sim
▁полк
▁Spain
▁이름
▁Stadium
▁Luther
無
▁ezek
▁Leitung
▁liefde
▁表面
▁Italien
▁neid
▁Tweede
▁什么
စ်
▁ära
▁히
承
▁1835
▁tube
▁sumber
മി
▁consumo
▁软件
▁amiento
rão
▁África
▁Há
▁τι
UN
▁過去
▁Organisation
LS
▁کاهش
▁relativ
▁нём
▁Intel
▁đảm
ৌ
▁麦
▁Ukraine
▁mé
▁solar
▁见
글
▁果たし
▁supaya
▁Arnold
▁工場
▁Drei
瑞
▁कार्यक्रम
▁prince
TA
▁レース
▁स्व
厂
▁arrived
▁naik
钱
▁Tierra
36
έρ
▁VS
▁quoi
▁superiore
▁Turn
▁대학
▁ref
▁Dieses
库
▁producer
▁వై
▁probeer
▁運行
▁escribió
▁golpe
▁റി
▁发行
▁Januari
▁mettent
▁หลัก
▁cose
▁Wieder
▁工业
▁сондай
surgery
▁бр
▁opsies
▁serving
▁Escort
▁publie
▁templo
▁మంచి
ερ
▁collect
▁Schweizer
▁Paz
▁人士
▁kilómetros
▁Mitarbeiter
▁樹
▁כיום
▁环境
ধ
ấn
SO
기에
▁தா
▁enne
ар
▁Arizona
▁選出
▁Bali
▁vijf
49
▁krijg
▁配置
▁pitää
胜
▁genannte
▁搭
▁despite
▁雙
▁chant
▁bambini
▁炮
▁будут
▁Manager
▁insan
▁xuố
▁highly
▁jóvenes
▁Lind
▁拒
庭
Ä
▁habitante
▁Dé
স্ট
▁ハン
▁Baron
▁hour
yong
▁tet
▁potere
▁치
გ
iro
▁比較
งกฤษ
弹
নার
▁blanco
▁מק
▁πριν
▁bahay
▁София
uti
▁fiel
▁blancos
▁ऐसा
▁zor
▁ポルノ
▁kívül
▁قسم
▁Area
▁Hiệ
▁перв
▁Lig
▁bagong
▁تھی
▁地震
▁Stars
င်း
▁Dollar
टर
▁银行
▁Zuid
▁درصد
▁1837
▁giving
▁感じ
ése
▁pintura
▁抵
▁amelyek
▁университете
▁迪
▁aile
▁ретінде
rako
▁pensa
▁Local
kunde
▁plein
带
▁陸
orum
▁허
CH
▁слова
זה
ел
▁bandar
▁कभी
wand
▁sécurité
▁panahon
ότητα
▁balik
▁潮
▁Nos
▁арт
▁actualidad
▁אינו
▁ノー
படி
▁Thá
▁coast
മുള്ള
▁minha
▁ningún
▁accident
▁эту
舞
▁hartu
▁каза
▁CI
▁۲۰۱
▁ซิ
▁tú
▁জাতীয়
券
▁Schwarz
▁hind
▁earned
▁convertir
▁نحو
▁mac
▁สาร
▁Sou
ူး
▁Margaret
▁ไร
▁comte
unda
▁మధ్య
▁גדול
▁secteur
▁总统
▁鐵
▁Nr
▁ปัจจุบัน
▁SU
▁brano
▁Abschluss
▁rain
▁sigue
倉
rad
его
▁bur
oor
▁reason
▁cana
▁善
▁jawab
▁作者
▁kuva
▁senti
κο
▁操
ъ
mään
▁pian
وری
▁Brun
ഷ
ఖ
▁황
▁records
iset
▁卷
▁حتی
▁südlich
▁保存
▁oleks
▁terminó
AM
▁tengo
斯特
▁ルー
▁tren
▁informasi
▁אפשר
ப்படும்
▁tournée
▁절
渐
▁vált
▁hänet
▁duc
▁pide
▁Bowl
▁ทั้งหมด
▁effects
تهم
ご
ন্ড
ஸ
았다
▁Jerman
▁Phi
▁documents
▁Serikali
▁مجموعه
▁presentar
▁合わせ
▁Dog
▁множество
▁בלבד
▁볼
▁vraag
▁население
▁كو
▁obat
▁המו
▁Marvel
▁semula
ân
▁रो
താണ്
▁ठर
▁دریافت
▁baten
▁dient
▁Chiesa
▁vanuit
▁έ
▁Alor
▁reciente
▁deep
▁Hänen
▁padres
▁Cultural
yar
▁presse
▁borazion
▁libros
PT
▁Kirk
▁Schiff
▁besten
мет
Н
▁Lok
▁అంద
бай
▁bina
▁מח
IC
▁سوی
▁براساس
▁possível
▁Zen
డీ
スタ
ილი
▁tahan
▁Trainer
塘
▁klaar
ద
государственного
▁Estas
▁διά
ịnh
▁晋
▁Cada
▁diploma
▁DAP
SU
▁ध
▁cannot
▁oriental
▁raw
▁resmi
▁1838
▁школа
▁1841
▁Tang
▁居民
▁dry
▁Modell
▁gobernador
▁Mada
▁представляет
▁erfolgreich
▁целью
▁Wert
▁distancia
lot
▁voice
န္း
▁liht
▁welches
▁pueda
掘
▁orbite
▁jäsen
▁辛
▁nchini
▁RC
▁elenco
▁贵
▁duit
ီး
▁gemacht
▁spazio
▁nemen
▁远
▁Philippines
▁Rück
▁hỏi
▁pelbagai
▁PER
▁dinero
▁गांधी
သား
▁サッカー
▁dung
▁denn
▁Dick
lığı
▁viaje
▁有关
▁എല്ലാ
▁המת
▁שנת
ính
▁帯
▁Euroopa
▁поступил
▁പ്രതി
▁კა
hol
▁veget
วด
围
acak
▁laban
▁سید
▁NFL
▁Bit
移
▁Halle
for
▁είχαν
離
py
▁การศึกษา
▁Jason
▁todavía
택
▁músico
▁secuencia
▁theater
▁keadaan
▁भू
丘
▁ใคร
▁Edition
▁fines
▁येत
▁难
▁Antoine
▁Low
▁चल
▁considerada
▁プレー
▁प्रमुख
▁statue
▁wild
▁histórico
▁империи
▁marcha
▁買
▁люди
▁僅
▁деревне
▁လက္
▁сына
추
▁pressure
▁Ocean
▁bid
త్
▁Warner
▁영화
▁使得
什
▁жатқан
▁導
▁xin
ട
▁Verbindung
▁隔
▁solution
움
▁эта
▁الدولة
▁1806
▁suele
ोर
izar
▁nível
提
ησε
▁နိုင်
▁következő
TH
ën
▁complet
하면
▁θε
▁element
▁própria
▁ズ
▁享
▁ホワイト
▁Atlantic
▁შორის
▁汽车
یز
▁forms
▁gele
▁часа
▁면
ดา
▁kasih
▁Spring
▁kili
▁virtual
▁infine
▁dong
▁первом
▁מא
▁शिव
▁sebelumnya
씨
▁ха
▁طلب
ियां
▁GO
▁Innen
eke
ളി
▁כגון
▁隻
ുകയും
▁живот
▁遇
▁hizmet
▁2562
▁ٹی
▁frame
▁فصل
▁başladı
▁dicha
▁ユ
▁goede
▁berkenaan
▁usein
▁Airport
▁เ
▁Bezeichnung
၅
▁muuta
▁到了
▁Orange
▁亚洲
▁Wij
▁син
▁établissement
▁nl
▁alat
▁กระ
▁amerikanischen
奈
▁1836
инского
▁acaba
▁۲۰۰
자가
▁хан
৷
cembre
วน
▁赵
▁అది
▁1793
▁ramai
▁ง่าย
▁diken
▁hét
▁материал
▁gak
▁最佳
爱
▁PE
▁voort
▁jog
▁東北
▁volver
▁絵
hen
▁tenido
▁aucune
▁مد
▁ילדים
▁мың
▁cuanto
За
▁१९
▁boom
AK
▁Wiki
▁regione
`
▁difficult
▁122
▁másik
▁bár
▁轉
▁○
▁حزب
▁Security
▁ainult
▁Engels
▁segno
▁בתחום
▁ذكر
勤
▁rama
▁Roland
▁bureau
▁воды
▁確
ppen
▁Forest
တ္
▁集中
▁รักษา
▁اسے
龍
▁numeroso
gil
mektedir
▁Beste
▁Harris
▁เขียน
待
▁113
▁View
▁accès
aus
▁erine
▁專
▁পার
▁指出
▁voiture
▁1831
▁வா
▁dagen
▁Bour
▁sinds
▁manche
▁डा
▁tender
▁1821
▁太平洋
▁津
▁ウィ
▁acquire
▁uang
▁söyle
▁لديها
▁reforma
▁өте
▁شن
▁უფრო
▁américaine
▁mij
▁大发
wing
▁verhaal
▁ল
ศาสตร์
▁ан
▁พา
作戦
tier
▁onderzoek
▁冠军
▁direttor
▁Christopher
▁途中
▁nchi
▁esses
▁proposta
▁compétition
▁rugby
▁Cela
▁dispose
▁ap
▁Στι
▁தொடர்ந்து
ห์
▁nonostante
▁команд
▁するために
▁తుం
긴
▁alguna
▁abando
inus
問
▁Пол
▁もう
▁இன்னும்
▁شر
▁totta
▁начин
▁Produktion
▁Wu
כיוון
▁Assembly
▁mãe
▁Tem
▁Lehrer
ుల
▁စု
▁堂
▁Eng
႔
▁流行
▁notte
தால்
▁flat
▁beat
▁관리
▁Pala
▁опыт
▁Herrschaft
▁Ok
▁USS
▁railway
▁save
▁वाच
▁首都
▁荷
▁Και
▁الولايات
anlage
▁Είναι
▁Fahr
▁González
▁標準
▁十二
唱
▁известно
换
왕
▁economia
hóm
▁nieuw
▁Taiwan
▁Cape
▁защото
▁Schüler
▁കള
했고
▁штат
▁пр
ments
OC
▁叫
▁singles
▁occidental
膜
▁қайта
▁127
▁ingresos
പ്പ്
سی
▁తర్వాత
▁kere
▁Reise
▁recebeu
▁lie
▁koti
經濟
▁директор
▁tér
丝
▁Magic
▁分子
▁munka
▁Studies
uch
▁Camera
▁삼
▁französische
▁عملية
▁esperienza
▁boa
▁מאז
λα
▁119
▁feu
▁Trade
▁chart
▁форма
39
vir
ồng
▁إي
▁舞
ισμό
▁kennen
▁wollte
▁দেশের
EX
▁kilo
快
▁Châu
▁EE
▁LG
▁государства
ンド
▁halu
▁委员
▁партия
▁workers
▁Videos
雲
▁tur
▁تلاش
▁कांग्रेस
▁Village
▁verheir
▁ஒ
▁சோ
▁актив
во
▁института
▁大統領
▁geb
▁აქვს
88
▁выиграл
▁represented
▁recording
ത്തിലെ
ência
▁vett
▁vital
▁Gleich
▁sorti
▁thuố
▁سم
▁nincs
▁historique
ẹ
টির
▁Мен
TE
ران
▁қарсы
会社
愿
▁agreement
▁Nederlands
▁ച്ച
▁ولم
▁siihen
▁perfect
kur
▁ала
▁започва
larından
▁оны
▁دخل
▁semi
▁collega
▁passato
▁台北
庆
▁Pon
▁experiment
▁เสียง
▁patients
▁वै
▁مناطق
▁Jesús
▁néhány
▁koop
▁presyo
log
▁Dating
术
är
EM
rían
נס
▁üzere
▁khoản
▁sponsor
▁yard
gesellschaft
▁이상
▁1834
극
▁追加
▁finish
ப்பட
▁salita
▁เขต
▁Lager
য়া
▁애
▁име
▁Pad
▁rich
▁fruit
▁messo
▁Nintendo
▁thả
▁tuần
结
▁応
ခဲ့
▁विश्व
ছেন
▁ועד
▁flow
▁作業
▁آزاد
▁NY
▁Toe
▁zelfs
▁Mara
▁basi
▁penga
▁古代
/9
▁監
▁Catherine
ள
▁graag
ана
ഭ
▁제공
bin
▁320
▁控
കളുടെ
▁650
▁luta
▁moving
智
▁قسمت
άς
▁హా
ंट
AB
▁installe
▁películas
▁slechts
▁사이
▁gebouwd
▁tribunal
▁commun
▁ngoạ
▁传统
▁settimana
დან
▁μη
▁Лу
▁Hip
הפך
▁fur
▁activity
▁ვი
▁lunga
▁பேச
▁tang
▁Ontario
▁병
▁φορά
▁pano
sil
▁assign
গুলো
▁しか
▁другими
▁производства
▁早期
▁belakang
lands
▁Landkreis
▁blu
▁ض
▁מקום
▁hubungan
▁Cooper
▁ambayo
▁ভালো
▁കൊണ്ട്
▁avevan
▁飞
▁シー
rit
▁новые
▁kabul
▁restos
▁Dresden
▁mele
raient
▁Emma
▁команду
▁機関
▁オンライン
▁отырып
▁sadece
▁velocidad
▁പ്രവര്
▁ور
▁Pictures
OP
犯
▁speel
lock
▁meurt
ats
film
▁சென்று
▁Fun
▁新聞
▁shi
▁င့္
▁মাধ্যমে
aga
▁Sama
▁Ir
▁conflict
▁1832
▁வெ
▁koulu
▁leaders
▁भा
▁puoli
▁purpose
ellä
▁く
樣
ált
▁provo
ξ
య్య
▁druk
▁alone
▁BE
▁घटना
ோடு
▁latino
жа
▁Frans
▁Mali
▁tható
▁ستان
▁Lehr
ห
tung
▁Lawrence
▁Andy
▁autó
▁ges
▁Hou
▁बै
▁SH
▁၍
stone
▁Ins
▁чрез
習
▁คา
▁工具
▁算
▁онлайн
그
▁casa
▁tend
စ္
▁verdi
▁ausge
▁陣
▁帝
▁dovut
▁Melbourne
▁lisa
▁திரு
▁मेरे
▁sencillo
▁jeux
본
▁gruppi
jin
siguió
▁勝ち
▁歲
▁شا
▁結成
▁누
▁全面
▁obtener
▁标准
▁señal
fel
▁έως
▁史上
▁деятельность
▁مست
▁Ritter
misel
▁Personal
▁マイ
▁greed
▁署
▁结构
▁assieme
၈
▁mandat
▁вместо
eid
щ
▁الناس
mut
▁Firenze
委員會
ंस
инг
▁seguido
ယူ
▁bt
那
▁அணி
▁utilizada
▁죽
▁കി
দা
▁gestion
▁Thema
▁引退
▁teman
▁peinture
▁归
▁طی
▁entwickelt
▁仍然
▁ज्या
▁армия
▁juntos
케
▁violence
▁peque
ေတာ္
തും
▁Nun
▁opgericht
atie
▁Baru
ัก
▁তখন
▁santé
▁sebab
▁youth
▁లా
▁エル
▁nommen
tsiooni
ातून
ировать
σαν
▁Wer
▁nuclear
▁capable
▁Food
мер
▁bietet
Ω
▁נוספים
▁Geo
▁模式
▁muna
▁médico
-30
▁proprietà
ð
овым
▁khắ
▁heid
▁meglio
▁версии
ியது
▁goeie
▁הבית
▁dünya
▁ဖစ္ပါ
▁艦隊
▁इतर
вшего
بار
▁Académie
▁fashion
ვი
▁точно
▁பார்க்க
▁kawala
▁整備
▁petits
▁พัก
ages
▁Desa
▁смотря
▁ст
▁1843
▁पाणी
▁迷
ప్
▁แข่งขัน
▁neste
▁ചെ
▁compete
▁берегу
▁ארצות
俗
Δ
▁tierras
▁Adams
▁לעשות
schap
▁rak
▁petto
kini
▁quý
▁بدن
▁estima
▁Unit
▁comienza
결
▁бъдат
▁morning
▁अर्थ
ёр
▁рок
▁traffic
eel
▁César
▁들
▁iOS
▁怪
ához
▁آثار
▁クロ
kes
iser
▁όχι
▁Stanley
▁porém
▁alkalmaz
atzen
▁Programm
▁próprio
רות
▁fiat
BC
▁Afrikaans
▁seri
▁treat
▁இடம்
▁言葉
▁紀
▁収
зы
▁vescovo
▁পি
▁كبيرة
▁箱
▁适
сь
▁كار
▁대표
▁לנ
ші
▁পরে
▁되
▁massima
▁trou
▁About
▁google
▁ste
▁著作
ஷ
惑
▁1810
▁Pink
▁Neo
▁บอก
▁เพ
ႏိုင္
▁Flash
▁இருக்கிறது
遠
▁投票
項
idae
▁連合
▁culto
▁ά
izado
йки
eb
▁郭
▁ро
▁traité
▁menudo
▁stars
นต์
▁вскоре
▁créée
dio
▁zh
▁Duitsland
▁Arbeiten
國家
▁genoeg
▁Sevilla
▁ny
▁စ္
▁веке
难
▁worth
佛
▁Farm
▁gerade
0%
▁1833
▁piccola
▁anima
עים
▁৯
▁bâtime
▁550
▁tuyế
งค์
▁geef
▁ハー
▁extension
▁补
▁ద్వారా
tag
▁Verfügung
办
▁iphone
ファ
▁squadre
▁algún
zet
▁課
▁бірі
▁relaciones
צים
ாது
▁способ
▁antica
▁perder
▁supérieur
▁கூற
▁西班牙
國際
▁身份
чат
▁hemen
eni
▁読
ัส
▁Gra
ча
▁Japón
fest
▁включая
▁एम
▁رفت
▁مسلم
▁Todos
IX
သာ
▁논
▁falu
par
gat
▁گیرد
▁tään
▁吗
رد
▁comité
▁suffer
▁Beau
▁Druck
▁BR
▁ব্যবহার
▁നല്ല
▁prominent
▁עבר
घ
▁तेव्हा
▁villes
eza
▁انواع
▁ability
▁时代
▁こちら
یا
▁corta
▁autores
なけれ
▁cruz
66
сында
▁usuall
%-
▁جامعة
個
▁없다
càng
നാ
▁хорошо
nier
醫
▁خون
ภัย
▁guarda
▁moyen
▁シェ
▁Deux
▁ตอบ
▁Mus
▁remaining
▁februari
▁SPD
àng
▁Privat
ガン
▁haciendo
▁பிறகு
廃止
▁停止
▁Antes
▁दिली
▁ум
▁併
حة
▁自動車
ுள்ளது
▁terdir
▁senso
▁dietro
▁statement
▁energie
▁일에
tir
טון
▁AN
ilta
너
▁aquí
▁சமூக
▁церковь
▁Chair
▁aime
▁124
had
▁прави
ുന്നു
▁Dieu
▁অনু
▁lisää
टे
▁kum
▁cand
▁價
ท์
▁เต็ม
EI
▁Too
▁представлен
▁mel
▁Bag
▁征
▁supply
കളും
▁Pacífico
னின்
▁強い
מי
▁échange
▁হলে
tun
▁固定
闘
ac
藏
▁νέα
▁Republican
覚
▁Lisboa
侧
lés
▁繁
▁страна
వే
▁dallo
▁donner
▁fusion
▁poner
許
▁1813
▁berhasil
▁sistemi
▁hohen
▁dasar
▁discovered
▁သး
▁Parque
isesti
▁semasa
▁त्यात
▁gingen
▁Banco
▁ميل
toria
▁matter
飾
▁mare
▁의해
▁Spiele
▁শেষ
▁Ankara
▁Departamento
▁輸送
▁ヶ
▁组成
▁ruimte
▁Songs
▁Russell
▁turun
▁звание
▁Roll
يب
▁IBM
▁Begriff
▁негізгі
▁carica
組
▁amp
향
▁戦闘
▁immediately
iku
▁2-3
▁pair
階
▁Selatan
▁질
▁रुपये
כה
▁menyataka
▁décision
ви
▁Δεν
▁Rou
▁スペイン
▁पार्टी
führer
▁ED
ised
▁أصل
ichi
ภาพ
▁daily
▁พิ
▁buen
▁villages
▁Ehren
▁physical
▁loka
▁Never
▁pages
▁jugadores
▁گذا
▁الد
▁లు
▁Masa
▁niyang
euse
▁posti
▁оказа
▁制造
▁মন্ত্রী
浩
▁थ
▁۷
▁同一
相手
idi
▁تشکیل
λ
▁என்றும்
夏
▁barrio
▁Mul
▁kunnan
▁बो
▁तुम्ही
▁Alma
▁って
▁選手権
认
▁composition
isia
▁کامل
▁一度
▁pil
▁تبدیل
▁Länge
▁驻
▁刺
ase
▁某
ppi
చి
▁品牌
▁ศึกษา
▁posição
▁พิเศษ
▁লি
▁Bronze
▁ayah
▁صلى
▁塩
kos
▁Nobel
▁含ま
▁statunitense
▁Να
▁terza
▁崩
▁tient
▁фронта
▁改善
75
▁trend
略
▁allemand
straat
績
▁периода
▁jól
▁選択
▁广东
ბა
▁Walker
▁Lot
▁seguiu
▁审
▁vou
▁轻
▁خاطر
▁Six
指
▁Medien
▁Blues
▁построен
▁olur
▁onda
தே
▁echt
ゼ
▁doll
▁latter
▁üzerinde
▁贝
▁positions
▁ету
▁значение
倒
▁ragazza
▁lộ
ology
▁ry
▁вода
قت
▁Atlanta
▁Bretagne
▁propriété
▁弟
ήσουν
▁நிலை
▁võimalik
▁योजना
▁Flug
ларды
▁τότε
▁ছবি
▁薄
▁Studien
▁tieto
▁يجب
▁背景
▁matière
▁ด
▁Nouvelle
▁informatie
▁кра
▁engage
iere
▁Sta
지는
▁Kern
▁銀行
ങ്ങ
▁운
▁שלנו
▁примерно
▁diye
று
▁blanc
▁πάνω
ema
ίζεται
▁دن
▁Kurz
▁இருந்தது
AL
▁personale
▁võ
▁দিতে
▁Classic
▁costituit
▁आम्ही
▁மட்டுமே
▁ice
▁资
▁liberal
▁tell
▁技
▁Carter
lag
証
▁speciale
▁진행
▁ausgezeichnet
▁föld
▁Zwei
▁الدين
▁controll
▁동안
▁尽
ীয়
▁malgré
ött
▁冰
▁তাঁর
▁1991.
▁universal
ၢ
▁беше
售
邊
▁Раз
▁reino
▁gaf
▁ronde
▁pace
▁投注
بان
sam
▁süre
▁castello
▁hohe
▁county
▁zit
▁gros
▁murió
▁perd
▁cạnh
▁桃
▁имел
▁mooi
▁uy
▁Fla
ския
▁выше
▁Giorgio
▁verander
ala
▁Ste
易
▁ganda
eti
uu
ري
ვის
▁幕
▁発展
▁forêt
ാതെ
征
iel
▁مف
▁الط
▁이어
记
▁editorial
▁Hockey
▁conto
▁courage
ႇ
▁peale
▁Pri
ൊ
▁Wolfgang
▁deste
.30
▁ấy
▁disponible
▁absence
▁plastic
整
▁ето
現
▁bansa
▁కే
ங்
▁मिल
▁تاريخ
▁Got
ถ
▁birth
▁ക്കു
▁浅
▁ラジオ
▁đàn
▁Nacht
lerden
▁управление
მო
▁Testa
▁FOR
▁autant
▁Zuge
ותו
▁граф
▁мог
▁انقلاب
▁rail
▁italiani
▁acerca
▁krijgen
▁tộc
▁Ul
调
▁ல
▁Bé
খ
ჩ
▁커
▁Nah
▁Cri
imi
盟
▁artisti
▁ocho
▁بند
▁Doppel
ডি
▁خلاف
▁кол
▁Arten
▁ثبت
▁Cultura
▁issued
▁неё
▁รายการ
ئے
▁politischen
▁numerosa
▁126
▁שהיא
▁ری
▁ฉ
ைக்
▁మంది
ണ്ട
▁Herbert
▁ná
▁GPS
▁CBS
▁жа
▁glise
▁berat
44
▁等人
▁Typ
▁meest
▁എന്റെ
▁இப்படி
▁fama
▁الأخرى
▁Gol
▁geo
▁المنطقة
▁同盟
▁quitte
▁ၥ
婚
▁radar
▁경기
▁เปลี่ยน
▁显示
▁appena
▁жақсы
▁যাবে
▁ingresso
▁Liberal
▁席
▁CIA
刑
▁Superior
▁таким
▁Care
▁Direktor
▁celebra
▁nächsten
▁जान
▁インド
▁δε
▁ბა
▁stammt
▁hely
▁מג
▁rendah
▁Wochen
▁そ
AZ
▁стандарт
▁చేసి
▁utilisée
▁வெற்றி
學院
▁父亲
▁處
▁russe
amos
▁criminal
▁仁
▁apparaît
ged
▁结束
▁Bet
徒
▁fri
▁baada
▁fato
▁Jou
▁Sprache
▁organis
bij
▁Sachsen
▁ถือ
▁دهند
▁amour
▁Teen
▁develop
▁bra
▁hispano
▁हमारे
亭
▁Ultra
▁қатысты
▁sinistra
▁Grey
idas
▁equipment
▁сентябре
▁Eis
▁Deutsch
FC
▁согласно
▁Gun
▁Ша
▁terakhir
▁видов
geschichte
▁Rein
▁Partner
▁মতো
▁Hun
▁加工
▁Тур
вшие
▁aldı
▁رقم
▁سرشماری
ющий
▁éste
يرة
▁包含
▁managed
▁鉄
▁တို့
▁Side
▁basic
▁ajuda
▁Funktion
▁തല
▁races
▁τρόπο
пе
▁తెలంగాణ
▁сделать
▁ချ
▁Pulau
▁ഇന്ത്യ
眼
▁locali
▁الحكومة
ible
▁ชาติ
ാത്ത
▁flash
▁الشيخ
▁வேறு
▁Server
▁Denis
▁keinen
▁mega
▁洪
▁廃
▁потому
▁Parliament
▁participation
▁кг
幣
▁Mans
▁necessary
она
▁కాదు
▁ブルー
▁dieci
▁潜
▁joukkue
壊
▁Ella
▁وأن
▁языке
▁genau
schutz
▁protest
లోని
▁קצר
▁Vila
祭
▁複数
▁ライ
中國
ши
▁альбома
▁金属
▁அடுத்த
▁পর্যন্ত
▁Rica
▁chạy
ελ
▁composta
▁doktor
lainen
▁項
▁PlayStation
송
▁nélkül
áció
▁fonte
▁estados
енко
▁银
▁Anschließend
▁contest
▁función
ர்கள்
▁1400
uyền
▁โค
▁Forex
▁मह
▁似
▁団体
▁saman
▁край
పి
▁عالم
gate
▁разных
們
▁jeder
▁someone
块
▁Ви
▁דקות
▁款
▁Marcel
ికి
▁调查
▁Бар
続
▁هوا
▁licht
▁pig
▁другим
▁solid
▁hilo
വാ
▁ရေး
▁坐
▁Norman
▁ла
▁dritten
யோ
▁Systems
▁జిల్లా
▁وما
שם
ово
▁giovani
▁مصرف
▁pelasi
ベル
▁ക്കും
▁gebaut
rne
惠
▁voy
薬
▁새로
虎
▁周年
menti
ions
▁сильно
▁Inggris
▁nyelv
▁hosszú
▁Beat
ळे
▁zones
essä
▁error
▁naging
▁Movie
▁الاست
ateur
ลา
▁valores
▁Panzer
ზი
▁프로
▁Gy
▁積
iye
▁করি
▁manual
▁دوست
▁Rights
▁HR
▁Schlacht
preis
▁sega
▁crise
gne
▁haute
▁chargé
▁―
zodat
ores
vu
onne
ologia
乱
▁حمل
mah
▁곳
▁Ricardo
▁vinto
▁económica
▁compare
復帰
▁±
▁Suur
వీ
ilen
▁დღეს
▁billion
▁teha
ве
▁dienst
ther
rich
▁settore
▁raha
▁못
▁Cook
▁considéré
▁ढ
▁socio
곡
▁demás
▁кезінде
▁沒
▁தலை
▁travaille
▁división
▁utilizz
kha
▁高等
▁132
ว่า
▁Kansas
bay
▁expansion
▁小型
▁Arc
▁Kos
▁prende
pit
▁audience
▁민
套
▁μεγάλη
▁ontwikkeling
▁resulta
▁vò
▁всем
共
▁didn
▁можете
▁వీ
▁executive
▁होणार
▁Hälfte
▁1828
▁случай
▁Jalan
▁बु
▁tenu
Қ
▁圧
▁バル
▁Gene
గ్
▁NHL
▁incidente
▁モン
▁למרות
▁ശ്രീ
▁learning
▁電話
▁pagar
▁決め
▁pose
▁哪
▁სახელმწიფო
▁malaki
리아
學校
尉
▁Verde
รา
▁तब
▁Majlis
ошёл
▁antigo
▁ζ
▁kia
▁頻
PR
潮
▁وبلغ
ió
▁Silber
▁SMS
▁момента
रण
▁kill
▁וש
▁edição
▁改造
▁மூ
▁critical
▁Romano
▁normalmente
▁ottenere
▁경제
lem
▁河南
▁Doch
▁费
▁iz
▁семьи
▁institutions
▁刑
▁पै
▁مثال
tische
▁เนื้อ
▁देने
▁slag
▁एन
▁kutsu
▁नव
▁পুলিশ
▁Andreas
▁店舗
▁Vil
▁Kle
▁murah
▁teacher
▁מערכת
▁origin
▁Epi
▁informazioni
▁Sho
▁स्
▁کنار
▁Dublin
▁144
▁UU
▁совета
▁בשנים
▁ஆக
▁menyediak
▁蔡
▁Bonn
クト
tha
▁איש
▁לכך
▁אמר
▁智
▁Sonder
▁срок
▁chamada
ились
सर
▁距離
▁решения
▁először
▁item
▁vuelta
▁бу
▁Batman
▁投入
坪
▁委員会
▁ဖို
メント
습
▁pratica
▁जास्त
▁cậ
▁未来
▁Minnesota
▁Record
▁国立
▁快速
▁टाक
▁elektrik
uff
ష్
▁leben
▁সরকার
▁野球
கம்
▁kas
▁atrás
▁presque
▁карьеру
▁العامة
▁ใต้
▁描
▁quinta
▁ലി
満
▁库
▁Philipp
▁RT
▁TU
▁مرة
▁گئی
売
▁笑
▁迫
▁Dunia
▁フレ
▁素材
▁ث
ဆို
▁Bagi
പ
ындағы
bas
▁ตําแหน่ง
మీ
君
▁கூ
▁цвета
▁Bai
▁വലിയ
▁List
▁替
vant
▁آباد
▁phù
▁conserva
▁artistes
▁MT
▁kul
▁280
▁comunicación
▁duo
▁weiterhin
▁لأن
》
▁schedule
▁மீண்டும்
▁ရန်
DE
▁लाभ
▁objetos
▁invasion
▁teknik
▁کمی
▁continu
▁كتاب
▁억
▁τόσο
กร
ров
▁kila
▁ways
▁侍
▁息子
▁Второй
▁uk
▁PTT
▁Gallery
▁رضا
▁衣
▁Stück
▁Report
▁Verlag
দিন
▁Mé
ങ്ങളുടെ
▁мин
▁carro
litz
▁punk
▁医学
led
▁сред
HA
▁residents
▁francesa
▁XL
▁salon
▁Democratic
▁ブラ
ith
▁étape
▁театра
▁tức
▁カップ
▁planne
▁ヴェ
▁Nan
▁па
▁确
▁質
▁madera
▁gives
▁殿
▁संघ
▁занял
▁sommige
▁هی
ltä
ája
▁சட்ட
lá
▁hôtel
▁필
▁Tema
▁GI
▁Ran
▁Zude
▁Pos
▁voce
▁الملك
▁dare
▁write
頃
▁canto
▁175
eria
▁لازم
▁accept
▁मै
讯
▁keputusan
▁Rap
▁Weitere
▁pense
▁nakaka
▁ليس
valt
ор
▁价
▁Waziri
▁inclui
▁LE
▁perkhidmatan
▁静
▁verbunden
lly
▁utol
ivi
▁Kabupate
▁참
▁مق
▁健
▁เนื่อง
▁향
▁света
▁рет
▁luận
▁feira
▁learn
▁impression
▁아니라
▁Igreja
▁柔
坂
▁埋
▁Trust
▁affaires
დეს
▁nördlich
▁Highway
▁ไฟ
▁แนว
▁Negar
▁script
▁quay
▁pidi
▁uuden
담
▁आदि
▁هنگام
gia
▁پرداخت
▁vino
▁耶
▁టీ
▁Julia
▁একজন
▁רבי
창
же
▁คณะ
▁ഏറ്റവും
▁details
▁তথ্য
лет
▁rohkem
▁Gustav
込ん
টে
▁השיר
▁회사
▁აღ
▁вопрос
箱
雪
▁tah
▁Zürich
▁Jerusalem
襲
▁ജോ
▁巨大
▁branch
▁Wars
stro
▁поселения
▁ござい
▁அரசியல்
▁آئی
復
▁Engineering
▁बता
▁交換
▁Market
▁dés
É
▁EUR
מת
iệm
▁Kro
▁sopi
▁โก
▁colonial
▁다음
▁Rede
喜
▁والت
▁尊
▁ഞാന്
▁指導
MB
养
ブル
ये
▁jouer
▁ダイ
uto
▁epä
観
▁острова
▁cambios
siz
▁hivyo
ё
给
▁pone
мы
▁ตลอด
▁王座
▁еді
ဒ
▁Pir
カル
▁entière
▁doivent
▁والأ
▁influss
йды
▁০
▁découvert
▁கொ
▁boat
▁杯
sio
願
▁행
pareció
▁vingt
▁결과
▁brachte
▁libertad
▁долларов
▁खेल
▁เหมือน
▁ถนน
희
▁Franklin
MO
είς
▁フォ
ंत
ొ
▁அவள்
▁పొ
▁uiteindelijk
▁Poi
▁näitek
▁Marcos
▁由来
ná
▁Hey
▁János
কের
▁cars
▁Avrupa
▁cycle
▁вот
▁berbeda
▁valeur
▁naval
▁개의
▁désorma
ഥ
▁迎
▁أجل
束
▁conoce
▁native
▁nhiệ
▁cities
▁끝
▁Sto
▁1825
▁Elisabeth
▁trains
▁一家
▁ยู
▁quinto
AF
▁露
▁ム
▁Children
▁tõttu
▁atención
▁nhu
▁υπάρχει
▁နှင့်
▁membros
▁filha
zin
되
▁влияние
▁इसी
时候
▁Nar
▁貴
▁Abs
▁שימוש
▁オリジナル
oğlu
▁код
▁Hau
▁歌手
▁größte
▁Well
▁ぶり
▁यहां
▁เน
mini
फ़
▁kişi
▁avoid
▁없는
▁SR
▁номер
▁Governor
▁hampir
▁पाकिस्तान
▁empezó
▁Hang
▁Đồ
▁Indiana
09
▁отец
▁bá
▁แก่
▁боя
延
ুর
▁コー
▁গেছে
уда
▁निर्णय
▁электро
▁Pil
▁совместно
축
▁Pot
▁沃
▁Хар
▁títulos
▁不少
▁نمایش
▁elements
▁چین
▁gin
దే
iera
MI
▁pack
▁حالت
гер
▁மெ
টার
▁شعر
▁资源
▁Maha
τζ
▁gefunden
لت
▁όσο
▁lạc
▁電気
▁پاس
LY
▁പറയ
▁alemán
nay
▁mand
▁فا
▁oppose
▁стар
▁grew
သြား
▁121
▁defensa
▁முடியும்
▁vint
▁境
▁trial
탄
▁หม
▁aktif
▁плен
▁בארץ
▁hill
든
uur
tjes
▁המשפט
▁frase
▁步
▁Hit
ич
▁spa
▁公園
▁tujuan
▁fat
▁कधी
▁플
▁pression
▁Cole
▁Willem
▁fontos
▁goes
▁отца
▁प्रयोग
▁Naka
▁gesamte
▁দেশ
▁vidéo
కుండా
丰
bah
▁roof
▁neuro
▁脚
▁Staten
ரே
▁coppia
▁navi
TI
▁Wrestling
▁корпуса
uh
▁1789
▁叶
▁Industrial
▁Την
▁サイ
arbeit
▁Τζ
borg
adi
▁Ministro
PL
▁logra
లీ
▁Raymond
▁begonnen
▁بينما
識
▁Limited
▁容易
▁мнению
▁versions
伝
杯
▁ആണ്
▁jook
▁strand
▁Eropa
▁$1
യായി
▁embora
ща
ggio
▁IF
▁службу
lau
▁பொ
▁dành
▁ویژه
▁mainly
▁اله
▁играл
нии
▁feverei
bro
اری
▁にとって
▁utilizzato
▁кар
ดี
▁taka
▁Ново
▁आण
VA
▁пять
▁철
ид
por
არი
▁производство
▁Wy
▁şey
▁申
▁湾
▁BN
▁harap
▁artículo
▁バン
▁presentó
▁Marshall
▁நிலையில்
▁vàng
▁evi
nar
▁Obama
▁ottenut
ún
▁பெற
▁revela
▁мае
▁पु
▁138
emos
▁細胞
▁операции
▁Jakob
▁吃
▁richi
▁énergie
vers
▁లి
▁eski
▁klik
▁Normal
▁砂
▁waarmee
gun
ரிய
46
▁nearby
砲
ового
রি
액
▁ordered
हा
▁ambito
▁council
▁ทอง
퍼
▁لن
▁പൂ
▁başka
▁نی
▁Hair
▁완
▁воз
ξε
▁أكبر
লো
▁ей
▁ซา
▁נוסף
▁motore
▁seguire
▁direito
▁animales
▁クリ
▁Haut
莊
▁Marx
▁uzun
▁維
arten
▁สนใจ
▁phó
▁situazione
Γ
သူ
▁kilomètres
▁riigi
▁業務
舎
▁tombe
asta
▁новой
ഫ്
▁ayudar
▁dimensioni
▁usada
▁ceinture
▁آج
▁文章
▁кур
▁max
isierung
▁крупны
▁Word
▁Мы
▁あなた
▁資
▁نسمة
▁else
▁運用
▁Männer
▁எஸ்
▁مدیریت
▁regionale
▁сте
倫
▁servizi
▁процесс
▁направлен
▁guide
▁فن
▁Vai
▁Zentrum
▁январе
▁μέρος
▁陶
uren
▁Essa
ица
eros
▁تش
▁sejarah
초
▁sollten
▁◆
▁wilde
▁altyd
▁ride
▁9-
링
▁mezcla
ọ
▁spread
▁記事
▁berdasarka
▁1790
▁選挙
iese
жи
▁磁
▁nép
▁Ever
▁Bri
▁発行
חה
▁جهانی
▁Wan
▁extended
▁Pier
▁técnicas
▁occupa
сельского
ジェ
▁силы
▁бюджет
▁сайт
ர
▁乘
▁Hochschule
▁leadership
ავს
▁varia
▁ワーク
▁tín
ဳ
▁sollen
▁kegiatan
▁facendo
▁绿
▁Use
▁წ
▁juste
▁방법
▁Cre
▁visible
▁二十
▁そこ
極
τ
▁地元
▁పరి
▁shared
▁mukha
▁телефон
อน
▁Mira
▁mora
▁হল
▁karte
▁prueba
▁Unterstützung
▁promoted
▁Dach
▁sante
▁生命
▁凯
itti
▁Austin
奏
跡
▁频
kot
water
견
lid
▁работать
▁ယာ
▁contece
▁болатын
λο
▁Herren
▁行动
▁คุณภาพ
▁עליו
▁چیز
▁თუმცა
▁クラ
▁ရဲ့
▁جامعه
OW
▁próxima
▁받
よ
준
▁Airlines
bild
▁Culture
▁орта
菌
▁қара
▁забил
▁maha
▁แค
▁kartu
▁見る
▁घड
▁retro
リオ
▁rendre
传
zes
▁バック
▁Chủ
▁Parker
▁zeit
▁régime
▁добре
▁1829
▁Naval
नि
ंच
▁valmista
▁järgi
▁Jar
▁最近
▁kuulu
▁XXI
िका
ários
▁参照
▁主演
▁please
▁فعال
bil
▁đă
▁ผิว
pus
▁రి
▁Toen
يح
▁berubah
▁დროს
ైన
▁akar
▁オープン
▁Müller
▁Irlanda
▁portal
レー
ань
▁efecto
▁있어
లేదు
▁река
মি
深
▁negative
▁האדם
▁reden
ซี
▁espaço
▁Training
▁Canadá
▁Jonathan
▁créer
▁sets
▁diez
▁สมาชิก
▁әрі
▁乃
वून
▁小学校
▁akár
イル
▁пяти
▁الأرض
▁ว
▁També
▁도시
▁olema
베
ngunit
▁basso
▁५
▁Before
▁except
▁Pérez
範
▁Пере
robabilmente
▁속
敦
▁esprit
▁versã
▁belajar
▁試験
kra
▁키
▁Beide
▁Там
hánh
▁בסרט
CM
▁growing
▁ঢাকা
ായിരുന്നു
ელ
▁चे
▁敗れ
▁receive
▁२०१
▁ほ
▁arms
▁esso
▁kente
▁프
▁выступил
▁ドラマ
▁Formula
▁Jepang
▁actuel
▁Islands
RY
▁玩家
▁Audio
▁mayores
▁limit
до
策
▁প্রায়
ంటే
▁Garten
▁eder
▁Imperio
▁tried
▁عدة
▁魏
▁Sebagai
▁constructed
▁1816
▁thiên
ランド
cle
▁amico
▁గురించి
▁פעם
▁आधार
▁ἐ
▁शरीर
▁пи
▁академии
▁reflect
▁dur
ose
▁ചെയ്യ
▁۱۹
▁Eest
▁चर्चा
▁hands
▁علوم
▁حسین
▁ster
▁จับ
▁সহ
▁корпус
▁soldiers
▁risa
▁avion
郷
▁oras
▁گذشته
فة
▁ണ
▁bilgi
▁oldal
▁Bil
▁Anschluss
쳐
ヴァ
▁server
tsch
▁mus
▁музей
با
▁Cinema
▁kos
▁bahka
▁様
▁اسی
▁искусства
▁variante
▁ဖတ္
▁пути
▁260
▁孔
▁Bene
اتی
▁Dean
ě
ۃ
ped
▁Kamera
▁kleiner
▁Wel
▁بے
rem
בין
▁Chart
▁ควร
裂
▁kel
汗
▁Vegas
▁découverte
▁puissance
須
▁kehidupan
▁lieutenant
ούμε
जा
▁找
ंज
▁層
▁машин
▁anciens
▁бил
erbentuk
പ്
▁自治
▁publicada
▁カバー
▁singer
auf
▁তাকে
▁بندی
▁بلا
▁広島
▁弱
SL
我
पासून
▁lễ
▁資料
▁פל
▁horse
▁iyon
▁binne
లతో
▁schwer
▁született
▁הארץ
▁นา
▁двумя
▁卢
▁Später
▁Lip
▁Rodríguez
▁129
▁пункт
▁Lê
▁medidas
يق
▁física
▁оно
ட
▁führen
▁PD
▁Rp
▁知道
▁Negli
sang
▁ที
кин
▁পারেন
▁Orts
sul
▁corto
ụ
▁၄
మి
בתוך
می
LO
▁Nieder
▁同意
▁होतो
▁กา
▁Deep
▁ورد
▁ár
▁Palazzo
▁pek
▁2500
▁Ministerio
istische
ANG
▁赫
▁పని
وق
দার
▁先生
ထဲ
皇
▁1792
▁2.
▁Amateur
عت
▁cul
▁vert
裝
▁Alessandro
▁Renault
▁கேட்ட
▁அதிக
▁Sr
▁立ち
▁voel
sol
▁url
▁tay
▁ধরে
▁পড়ে
▁Amérique
▁الكثير
▁soft
▁centra
▁pemerintah
▁Job
▁trovare
▁akibat
▁Russie
▁truppe
سر
▁hukum
ினால்
▁göz
▁menores
▁பேர
▁dirigida
▁ആര്
▁bisher
▁tracks
▁TI
jugó
▁officers
isé
▁ulko
▁sıra
▁István
াম
▁тай
▁童
▁サー
▁personaggi
▁Córdoba
64
▁連邦
▁raid
▁остров
▁팀
▁โรค
▁beeld
▁యా
▁3%
▁elementi
▁uri
▁olması
▁তৈরি
▁Stewart
▁Bella
ေတြ
▁Race
▁כאן
▁Dallas
ёт
▁不久
holz
▁CAR
থ
▁yap
tty
▁удалос
▁phổ
▁爾
지를
llo
ാൽ
▁bawa
▁協
芸
▁enseignement
▁Nicht
▁ठेव
▁Total
▁obtenu
▁αφ
▁Detroit
▁Мор
▁intended
▁担
mina
▁fila
ισμού
▁Tiene
▁октябре
ره
츠
▁catholique
▁枠
gie
랑
▁piir
▁சொல்லி
▁probleem
▁폭
▁batera
▁ask
▁പോലെ
▁Parlamento
支
▁papier
isin
▁dal
▁көрсету
▁bậ
▁Even
▁Français
▁марте
▁రోజు
▁אב
▁Atlético
▁happy
▁funk
▁跨
▁RO
ור
▁137
38
▁שא
▁Urban
▁לק
▁နာက္
▁korral
婦
▁peda
▁ഇത
▁မ္းေ
▁bahagi
▁departamento
▁hadi
KS
▁tare
这样
▁dulu
▁Julius
▁boss
σ
oma
▁должности
▁история
ôi
▁Königs
▁versa
▁별
lieux
▁清朝
▁కథ
參
▁đôi
▁flores
фа
▁इं
機関
眾
▁extensive
▁توسعه
▁클
▁flag
▁ധ
▁erreichen
▁フォー
▁Because
05
ించి
▁书记
▁hoof
▁Incontri
வர
og
▁理解
▁กําหนด
▁pourrait
▁daarom
하였으
▁четырёх
▁Cher
▁réalise
▁Batu
▁entidad
▁चित्र
▁प्रेम
▁applications
▁勇
star
▁testi
▁каждый
ногда
ις
ధ
▁לבית
▁学者
mbo
vá
ész
▁correspond
▁statut
▁industri
▁本人
▁ওই
مت
dora
訂
功
▁discussion
▁zienda
ики
▁конкурс
与
▁Brothers
▁Fame
예
▁基础
▁comunità
▁notes
▁aurkez
▁চা
▁تت
▁jät
qué
▁лице
▁takt
schrift
▁click
▁existencia
▁деревни
▁రాష్ట్ర
▁chain
▁മോ
usi
▁なし
▁debía
▁级
AE
▁เดิน
▁Mun
▁hd
ंना
八
▁বলা
▁耳
sburg
uki
▁准
بت
▁parce
▁készült
▁കണ്ട
▁mindig
▁cierta
哈
▁性能
ങ്ക
▁ニューヨーク
▁赢
▁perde
ക്കു
▁жени
▁einge
ത്തു
▁pele
ณ
▁Frederick
▁migliori
▁ilman
▁หัว
▁Stalin
▁providing
▁蓝
sine
▁humana
▁height
처럼
▁Only
▁Cloud
▁bied
▁caractère
▁کرتا
വ്
AG
▁sacer
▁marin
▁eastern
▁tiện
▁2561
▁mad
▁음
▁кроме
满
▁خاصة
▁vio
才
▁外交
▁بأ
▁귀
▁1808
쿠
专辑
▁sam
▁continuar
▁毒
▁homem
▁exchange
▁enfin
▁inició
▁Finale
▁গু
rar
▁upper
▁கல
▁Meng
▁canção
▁тек
▁反対
▁அதே
입니다
▁莱
▁площадь
▁nền
▁കര
▁10.000
▁臨
郡
▁leger
▁côtés
▁juuri
▁الخاصة
▁내용
▁1801
▁루
▁Jeux
▁Erik
▁pareja
▁kamp
ွ
▁trying
▁removed
▁ตน
廳
▁象
MM
▁جديد
▁Bahasa
fo
▁politieke
ოდ
▁prati
▁gelegen
▁calon
▁cœur
▁sand
宫
▁sœur
▁Tennesse
▁gusta
▁Fast
▁religiosa
tza
▁எழுத
▁Supreme
▁കൈ
▁néven
▁Position
▁entrambi
▁Drive
▁دیگری
▁恩
▁Προ
▁eset
▁လးေ
▁زمانی
▁короля
▁toán
ונות
▁extend
▁guard
▁жар
▁explica
▁တင္
▁واحدة
▁Chú
ois
▁فما
▁scelta
▁Ketika
열
ンス
▁Pit
▁concernant
▁மணி
▁став
▁Spin
▁यू
▁gekom
▁拜
▁presto
会長
лау
▁مه
▁sert
▁päivä
▁মত
▁Machine
িয়া
▁Forschungs
▁אנו
▁سبب
▁Gary
▁一座
▁tertentu
rap
▁jp
▁opinion
▁newspaper
▁majorité
▁langer
▁gradua
▁بودن
▁caratteristic
▁ఎం
▁beautiful
▁termo
ळा
▁इतिहास
▁partij
▁позволяет
▁cool
▁לכם
με
▁มหาวิทยาลัย
▁国王
▁理論
▁katu
▁골
▁Kel
▁kuidas
▁1-2
▁minuto
▁仕様
▁ib
▁Need
my
▁Fluss
▁أر
▁changement
▁ilyen
▁frentar
▁ngô
liga
厅
▁টি
▁作曲
▁rein
▁berg
▁shimiw
▁ज्यादा
▁కొ
▁এটি
▁برد
▁अनुसार
עבור
▁λόγω
ண்ட
ệt
▁ツ
▁Nazi
▁mul
აა
▁ottenne
▁beteiligt
▁Chan
▁buong
ecek
▁Laurent
▁編集
▁Pod
ירת
▁méthode
▁候
▁Vienna
▁读
▁အတွက်
ñ
▁passo
▁神社
▁႕ေ
▁เล
▁不足
▁bilan
▁atual
technik
▁monitor
▁论
HL
▁passenger
فل
▁Lied
▁hakkında
▁שוב
▁应用
/8
▁കേരള
▁macam
▁birçok
▁iti
▁бур
▁दा
▁politics
▁输
▁vua
▁گردد
kut
zko
▁véritable
▁️
▁bildet
▁llegada
▁niiden
▁۱۸
▁毎
▁dress
▁صدر
▁مشکل
▁Mang
▁viaggio
▁记者
▁पो
aj
▁rapporto
▁戲
▁fallen
▁knapp
▁дороги
▁Male
▁韩国
▁பெயர்
▁가지
nitz
▁決勝
▁ყველაზე
シア
▁Walt
▁Toyota
羽
▁შეიძლება
▁tips
vik
▁paint
▁spelen
▁peuple
▁絶
▁выход
▁kra
▁vriend
▁Barry
▁rende
éis
▁誘
com
उसकी
▁舉
▁raak
▁maître
▁tiro
▁Work
▁Zug
▁install
▁伴い
▁בזמן
dam
▁தே
▁kutu
梅
▁Latina
▁灵
▁Castill
▁conference
▁Kä
▁bazı
чился
AU
▁môi
▁क्योंकि
▁بهترین
▁דו
/4
ฯ
PE
▁planning
дай
▁现代
лан
ალი
nor
▁segera
▁ancient
▁Hope
▁Fritz
▁شان
▁disease
▁vallée
▁Sebastian
▁حاضر
▁valore
zat
▁ensimmäinen
▁smaller
▁Fur
▁Ancak
▁Kin
▁dedicated
▁Nie
رت
▁വന്ന
露
▁曼
▁daardie
▁رشته
▁aces
▁1818
▁idade
يان
▁posted
▁metriä
▁valla
▁প্রকাশ
▁독
▁PO
▁Quer
▁módon
▁Sänger
তি
▁1826
▁گیری
okat
▁hulp
▁partecipa
vio
סה
▁piedra
▁後半
칭
dis
▁מדי
-13
▁fair
▁bana
▁Once
▁سكان
▁pied
▁แค่
▁好き
▁mun
▁Pr
▁Operation
hiều
▁Ecuador
兒
▁palabras
▁としても
▁進め
改
вер
▁xử
▁verband
▁Fernández
▁cioè
▁CL
▁Rest
gado
▁mão
deki
游
▁במיוחד
▁outre
▁kyllä
▁הרי
lio
▁bernama
▁メートル
▁homens
νε
sını
▁Č
стер
ेशन
kä
▁gewonnen
▁שונות
▁dot
asti
том
▁Verkehrs
▁دانش
uko
▁認
▁Kid
▁Mungu
▁homo
▁ചാ
▁royaume
▁ruim
ján
ניות
▁پل
▁Palm
▁言う
▁معظم
ΩΝ
IN
బ్
▁tena
▁breast
▁چشم
▁campeón
▁אנחנו
▁escrita
▁scientific
യായ
ун
▁OR
▁NBC
▁luke
▁everything
زن
▁Meyer
▁ไหน
▁device
▁őket
▁doble
▁商業
▁通販
▁သို
▁Each
▁профессор
▁számos
▁escola
▁擁
▁pemimpin
▁Brigade
▁അദ്ദേഹം
▁चाल
வ்
▁apoio
팅
▁ky
▁plot
▁หนัง
ș
▁Murray
dé
▁acid
த்தி
▁Vel
▁分類
▁couleur
▁நமது
▁occupation
▁végén
▁မူ
▁constante
▁কু
▁obstante
▁値
▁quậ
▁sum
▁тоже
got
▁联盟
▁manifesta
▁Roh
▁دے
▁vivir
▁planeta
▁ဆုိ
▁管辖
▁hacen
ण्ड
▁cobertos
▁ธุรกิ
לת
▁1945.
鎮
▁معروف
▁Herz
▁modelos
▁ہے۔
▁எம்
स्त
순
യം
▁สั่ง
▁Кур
▁सकती
▁pagina
▁Lab
▁ponte
▁军事
all
system
▁நம்
▁入る
▁เก็บ
उ
▁Latino
▁Comics
▁лучше
▁Carmen
ப்பா
tze
▁steel
▁Cy
▁Khu
▁က္ေ
▁रु
▁декабре
ارة
▁खूप
▁рай
升
▁नाहीत
wo
▁Orient
▁quarta
▁session
▁Biz
▁水平
▁سک
▁HO
▁noite
▁域
▁Dès
тай
▁clara
▁Wagner
▁乗り
▁arvo
▁Marketing
▁MU
ヴ
▁ライト
▁1-0
▁앞
డా
ום
אים
▁Wagen
▁பணி
ienne
途
▁Labor
▁قر
▁середине
▁只是
RM
▁地上
▁Swa
▁pequeños
ssi
▁Chang
dığı
bajo
▁doute
राव
ーター
▁Mod
▁tehdä
▁simply
▁Energy
▁بیماری
מיליון
▁rea
찰
▁Graham
▁августе
изации
沼
ష
▁концерт
▁焼
▁pana
▁tip
▁Shakespeare
▁ακόμα
יר
য়ার
▁spielt
▁बताया
▁создания
▁چنین
▁楊
▁回到
▁范
▁Alliance
▁הכל
▁kleinere
▁نتیجه
▁elections
▁Thi
ভ
▁одном
iens
▁เดิม
▁object
▁တော့
▁rota
▁Evans
▁Президент
▁đúng
▁구성
▁133
▁expected
▁侯
▁рублей
▁آمد
▁天皇
▁တာေ
▁евро
▁چهار
▁設け
▁1300
▁perto
▁condizioni
▁วิธี
quels
▁texte
▁Orang
▁korte
▁kati
▁храм
▁crée
▁फ़
▁ブル
ware
▁Yeni
▁ล่าสุด
▁เค
▁चित्रपट
▁asal
▁Vicente
▁ญี่ปุ่น
▁із
▁翻
▁Electric
▁בידי
▁darah
▁sélection
▁产
▁comprar
▁علمی
▁жөніндегі
▁業
▁факультет
▁vuoksi
▁Rennen
▁Seperti
▁circuito
инский
▁Rosen
▁운영
aat
రో
플
▁riguarda
▁Steven
▁גל
▁Brazil
lut
▁‬
pet
▁すぐ
▁vezető
▁código
gé
▁mettere
яване
▁работи
▁四川
▁itong
▁専用
박
変
▁penuh
▁대한민국
▁europeo
▁鹿
▁lisä
▁तयार
▁च्या
pot
▁الآن
▁ベスト
▁européenne
law
▁Ibrahim
▁cur
▁tekst
ұлттық
▁κάνει
▁temperature
▁भाजप
▁piccoli
jal
▁Rund
▁高さ
▁அதற்கு
▁프랑스
▁Senior
uck
▁теңге
▁предлага
▁gabe
▁Trầ
▁ανά
вшихся
▁oppo
▁olnud
▁условиях
▁nothing
▁כפי
▁houden
▁mariage
▁Besar
訴
▁Porta
▁दिला
▁Hoy
伤
▁cielo
▁映像
▁點
▁char
▁Nasional
06
cht
▁cursos
▁Eisenbahn
▁existente
▁Lisäksi
▁PK
▁Stern
▁Convention
▁fal
▁kanan
▁Macht
bis
▁défense
▁Belgique
▁Seattle
▁ہوئی
вы
▁താ
▁۱۳۸۵
▁운동
▁scopo
ось
namen
▁ၼ
▁יהיה
▁feeling
▁Ferro
पा
▁mandato
▁қаласы
▁suara
▁轮
▁hermanos
▁тела
▁கண்ட
▁लो
cin
▁南北
▁Baba
lum
▁лв
▁ยก
▁aid
▁ఒక్క
rial
▁potrebbe
▁lava
▁menghasilkan
▁天然
▁перешё
▁pueblos
ष
▁факт
▁dalawang
▁соответствии
▁中山
TF
▁1824
▁ลา
▁ステ
▁Travel
▁Oriente
ijn
▁intento
収
▁economía
▁islam
▁decise
▁dienen
▁podemos
ctualmente
▁wp
▁Mina
kul
ган
дардың
ettiin
대로
▁시즌
▁kontra
▁вер
▁猫
兹
▁oleva
▁प्रयत्न
נראה
▁പു
▁studie
▁hockey
▁safety
▁简
▁TL
▁စီ
▁wäre
▁kör
ane
kreis
poli
▁מעל
▁simile
▁Jerry
য়ে
▁intérêt
▁Та
▁conhecida
िए
▁руб
▁1809
▁ost
ולה
▁بحث
िल
▁诗
▁再度
▁近年
▁Juden
▁Loire
ardo
▁ас
▁நேர
▁directement
▁שבה
縮
▁página
▁recognize
баев
nais
▁acteur
▁इसका
▁Heute
▁дамыту
▁имат
▁данных
▁большое
▁1803
▁Κατά
▁vrou
▁جای
Vereinigten
▁Lim
▁късно
▁متعلق
▁Make
▁мо
▁എന്നാല്
▁Ό
▁Week
▁kies
▁نمود
卿
▁метод
lov
▁personaggio
禄
▁конец
▁langen
▁jopa
ിരുന്നു
▁crecimiento
▁Britse
まり
KO
▁követően
amt
ów
▁μέσω
▁distint
▁средств
▁находился
off
kom
▁служил
▁bangunan
▁Holy
▁egun
▁използва
▁baita
▁используют
▁cerita
▁argument
▁၂၀၁
▁迁
▁Zone
wasser
▁автомобиль
▁მან
▁英文
▁TT
▁unang
▁ใส่
რა
▁facilities
ต่อ
▁vond
▁Nature
▁menga
▁規定
▁削
more
▁guest
▁Николай
▁kaki
▁报告
▁Hel
▁πρώτο
▁చ్
▁दिले
▁оста
▁items
▁bakal
▁Guinea
▁Oriental
▁ак
▁方案
▁জানান
▁кем
▁latinos
▁numbers
▁Justin
▁Guillaume
▁penggunaan
▁Handels
▁ஏன்
▁paraan
▁Put
DF
▁XVII
ள்ள
▁Союза
ция
▁దే
▁môn
▁artes
▁maat
▁顔
▁työs
▁見せ
▁{
▁باب
▁എന്
SM
▁trabajó
▁ใกล้
▁состоял
מו
▁合併
▁用户
▁driver
▁realizzato
ск
▁فيما
▁tila
▁accepted
▁quite
▁寿
▁structures
▁πε
▁Wort
▁lengua
▁natuur
▁발생
தும்
▁दि
▁חשוב
08
▁программы
▁弘
▁Hur
▁vite
▁käyttää
▁UFC
▁ఇప్పుడు
▁sky
▁Vorsitzender
▁認為
▁EA
▁โต
▁Gemeinden
สมัย
单
▁相同
▁Бер
▁홍
▁rapida
▁踏
▁atte
▁करू
▁培
▁정치
▁తెలి
ây
▁玄
▁อี
▁succeed
▁болуы
▁Kuu
▁င္း
▁Через
ME
▁言語
▁serviços
жан
▁基礎
▁Cine
▁1817
▁очередь
cco
▁şebekesi
▁引起
ned
ηση
▁使い
▁annunci
▁Frage
▁corresponden
ამდე
▁politische
▁gewe
▁trio
▁terwyl
▁మీరు
▁Kaas
▁skryf
▁கி
▁పే
▁goles
https
▁글
gon
כים
▁occidentale
▁列车
▁اقتصادی
▁choisi
კი
▁తెలుగు
▁classement
▁선수
85
▁صلی
▁买
▁كا
▁pesa
▁Rep
▁slow
▁Baker
estä
▁dresse
▁ravi
ტ
▁narra
▁Stefan
▁Lit
▁ovvero
▁vahel
▁dil
▁Louise
매
▁provincial
▁עבודה
▁于是
▁silver
▁teknologi
ဘ
숙
付近
▁Михаил
▁França
▁aspect
▁empereur
▁aste
▁stream
बर
áveis
79
▁Guru
kala
άν
▁különböző
▁exploitation
▁逮捕
▁چرا
▁acting
▁בע
ería
▁בנ
▁Herman
▁飾
▁آیا
ယ
▁aming
▁管轄
▁نوشته
▁సిం
▁恐
▁Bilder
稿
▁safe
웨
▁franco
vol
▁독일
▁複
▁cuente
▁raggiungere
▁összes
ரின்
ına
eus
▁ฝ่าย
▁यांना
▁kaks
▁gerek
政府
▁ഖ
▁Greg
leitung
▁Kö
▁risultat
▁தீ
▁sufri
▁equal
▁Boeing
γ
▁Raya
▁aura
▁capacité
▁ממ
▁giấ
ערך
▁método
وز
▁написал
▁Ky
▁jelentős
diği
▁మ్
▁hoge
▁שהם
▁80%
itud
▁SF
ीकरण
▁ronda
▁човек
▁Ice
▁Kut
onostante
▁1822
▁Pes
ஜி
▁Wayne
▁ஒரே
▁sementara
▁kept
▁Anak
▁ego
истов
▁ίδια
▁direzione
▁गेले
▁cent
▁Daera
െങ്കിലും
▁选举
▁Grad
一個
▁kari
▁Clo
▁吹
ơ
ائل
ిక
stoff
▁Saturday
▁chegou
▁尻
00
▁óta
▁broadcast
aggio
▁בעת
▁ベース
▁โซ
▁vui
▁Robinson
دی
▁animali
技
▁Luca
▁unió
▁Stamm
▁ocupa
岭
▁சிவ
▁veut
▁乙
▁kool
▁chan
▁lank
▁Dewan
▁مساعدة
ינים
▁nghe
▁Rama
▁Palace
▁متن
▁270
sé
▁協力
▁יצא
▁空間
மி
載
▁medicina
▁一切
▁Spag
▁বিশেষ
GS
ukset
▁karar
▁Want
▁министр
▁Staat
▁ビデオ
▁池
▁पुणे
▁kontrol
旬
▁Castel
▁Bachelor
▁玩
▁Suisse
▁soul
дей
▁Uit
▁キー
▁июле
▁எல்லாம்
▁Korean
▁figures
▁често
▁Morris
▁ကိုယ္
▁sijaitse
▁146
並
▁Informationen
▁อิ
▁صور
▁东北
▁masta
덕
▁liet
滅
▁护
ِّ
ulo
▁表明
铁
▁propriétaire
▁модели
▁갖
rez
▁groß
كس
▁рядом
▁قدم
▁נש
▁घेत
ေကာင္း
▁esos
сі
▁dinge
une
▁患者
▁เก
▁completely
▁Ferenc
▁gouverneur
▁peab
▁palazzo
▁Hàn
▁录
上げ
▁службы
▁deposit
нной
▁歩
▁Pilipinas
▁өзі
▁YA
elynek
▁permanece
▁сан
▁디
▁damage
▁Luke
▁отличие
▁setting
▁سنوات
▁گھر
▁mikro
▁míg
▁旅游
иться
▁لوگوں
▁الرئيس
hăm
▁일부
▁vitamin
▁lê
▁crea
▁dirigido
▁dispute
▁loà
▁wish
▁поред
▁발표
▁informa
▁одновременно
▁fix
▁kanta
亮
கா
▁voto
▁Jules
cina
▁ဆရာ
רד
▁entfernt
▁典
▁受ける
▁物語
кен
▁olympique
▁née
▁Missouri
▁领导
zone
▁达到
▁rank
▁propri
ల్ల
שה
▁大陆
▁переписи
▁犯
▁distintos
▁asti
▁loin
▁kuji
▁tunnel
▁Challenge
وش
▁Teresa
▁pitkä
▁בתי
▁यदि
uru
▁చిన్న
▁mulher
▁จํากั
▁challenge
емых
▁adolescente
▁leeftijd
▁弹
▁改名
▁kinder
▁utilizzat
▁internal
▁gioca
▁機械
ण्याची
返
▁Mobil
▁Сам
▁1795
▁Kalau
ై
さん
▁вариант
▁ကု
ars
▁ഉള്ള
▁কেউ
▁Stiftung
SV
▁ismert
uga
▁itud
▁prepara
▁Domingo
▁含め
▁Puis
▁presence
ဆ
▁dollari
▁株
▁जग
▁library
лов
ppe
▁Μετά
▁Δια
▁செல்ல
თვის
▁6000
SK
▁प्रा
▁expect
cano
▁motive
▁informations
دا
▁Campbell
▁neun
▁パリ
▁批
▁housing
▁choice
▁Plata
▁诸
례
▁қорғау
▁reeks
▁produj
梨
▁将軍
lä
▁Außen
▁Honor
▁Egypt
▁Manhattan
▁많
▁อายุ
▁spielen
励
ظ
觉
▁azok
▁记
וני
లలో
wissenschaften
ერი
▁arrêté
▁tecnica
▁শিক্ষা
살
▁Din
▁Bul
ৈ
▁ثابت
▁semaine
▁تعالی
वार
▁Knight
▁pocos
▁lát
▁進入
▁producto
owski
▁Gymnasium
diglich
▁기업
मेंट
▁즉
▁خوب
▁شمار
▁よれ
▁bali
ิต
▁aband
bad
汉
▁Olympic
半
▁attore
▁Afghanistan
▁مسجد
▁shall
児
▁Aufgrund
▁kapcsolat
▁minu
▁tecnologia
▁韓
▁अनुभव
▁၅
▁influenza
▁Neil
▁Julie
▁出て
▁צריך
▁máxima
▁ఉంటుంది
▁Poe
▁എന്നിവ
၄
▁いずれ
get
▁képes
▁UV
▁小学
▁먹
▁nostro
镜
▁まとめ
▁mű
▁انت
▁มือ
▁Xxx
▁ikut
▁самого
▁стать
▁mail
▁Tout
▁خیلی
gabe
kü
▁அவ
▁মানুষের
keit
▁kelas
700
▁拡大
▁రే
▁提高
▁ώστε
▁posee
▁azken
ỉ
▁politico
▁وزارت
jának
▁jaoks
ár
▁Enrico
▁serviço
▁sukses
▁Frankrijk
▁инженер
▁impose
▁asteroid
▁ندارد
ที
▁стране
▁पार
▁Верховного
ний
▁clients
▁produtos
▁小时
▁armes
▁tedesco
SR
▁惠
بي
▁کوچک
▁historische
▁グラ
▁がない
وع
奥
αμε
▁เล็ก
▁Eta
坡
▁Werner
▁wang
▁соң
▁loss
ジー
ice
▁ONE
▁итоге
▁Voll
자들
▁基金
▁Building
▁အခု
▁വരെ
▁誤
▁үлкен
▁vaja
▁Junta
က္
▁Oleh
▁पानी
▁successiva
▁classé
▁Television
عد
▁Brad
▁adult
嘉
▁Myös
iah
minated
▁करती
führung
▁drop
▁waarde
▁Arm
▁Cá
▁मंत्री
חות
▁నె
▁yards
▁рек
nsa
▁منتشر
▁hali
▁抽
▁बड़ी
▁♪
▁პირველი
▁クラス
▁Price
해야
▁Fat
▁سپس
▁विविध
inha
▁Pusat
▁알려
▁ауыл
ించ
▁млрд
▁并不
▁Pie
▁גיל
▁convento
減
▁instance
▁nda
▁148
▁मध्य
▁hoor
剤
dak
イト
▁ระยะ
druck
BO
ирования
▁รัฐ
▁théorie
▁giocatore
▁ライン
▁πόλη
EB
▁Ouest
▁esk
▁30-
င္
▁équipes
珠
▁marido
▁hacía
▁عکس
▁زمینه
▁Inghilterra
▁הכי
▁capacità
▁执
▁économie
▁är
薩
▁Prior
▁ไ
▁立法
▁記載
▁фильме
環
▁Ка
▁mod
▁zahlreichen
▁zouden
▁מצ
▁salida
▁Hills
▁állam
▁Mare
▁plays
▁niitä
▁Voi
уса
▁utiliser
▁pembangunan
▁точки
▁அவரது
▁igreja
ウム
▁கண்
▁ვა
▁ქ
▁Kou
▁仲
▁Kings
▁Fund
▁女の
▁encuentro
ők
▁tower
▁هل
▁Kunden
▁黎
▁असतात
မာ
гу
▁団
▁лав
▁ордена
▁creation
▁Yhdys
שום
▁药
▁origem
▁teoría
ала
▁辦
床
▁cola
xi
▁kilometer
▁verseny
ói
▁niên
▁टी
▁mence
▁आगे
ఫ్
▁miền
▁mila
ách
▁Vladimir
▁ubicada
▁ortaya
▁движение
amo
设
हर
പ്പെട്ട
あ
▁alcanzar
isen
▁kormány
▁bijna
றி
▁Papst
laan
ũng
▁ர
▁britischen
▁Scottish
ணி
AO
▁เพื่อน
▁မယ္
▁contacto
▁officially
▁wider
ън
▁افزار
览
▁つつ
лей
▁pierre
▁reality
▁करण्यासाठी
투
틀
פל
▁சே
etik
▁இலங்கை
衡
▁আরও
▁протяжени
警
σης
మని
ణి
▁င္ျ
▁вида
▁risultati
▁成長
▁डी
▁convert
▁学会
▁Richter
▁作り
デン
▁కొన్ని
▁داستان
లోకి
▁België
▁greater
lais
▁Zeitung
▁trắng
raad
▁futebol
▁dá
▁15-
ப்பட்டு
▁buscar
▁praat
▁שמו
ഖ
▁destroyed
▁Stunden
▁больш
▁আবার
▁என்னை
▁волости
▁Первый
▁Lý
▁Ayrıca
وٹ
duk
▁治療
det
யம்
פר
▁materials
▁RA
▁ยิ่ง
▁听
▁Groot
尚
▁竞
▁باسم
▁народ
▁שש
▁ปรับ
▁Marseille
▁Federation
毒
▁antico
▁アップ
జి
▁drug
utan
▁မန္မာ
يون
▁blijven
▁встреча
fahrt
wick
mun
▁貝
克斯
▁kir
▁favore
▁hê
нер
▁уровне
▁dedica
▁hielt
▁jangan
reg
▁Quân
▁கட்ட
▁kepala
▁saak
▁люб
▁Sementara
▁expand
▁კო
▁حوالي
ün
固
▁kumpulan
▁chapelle
lijk
▁DR
▁Bros
▁intera
ლო
▁attacco
▁함
チャー
▁ρ
▁処
▁ধ
▁Rin
▁מב
▁request
▁reviews
▁ساخته
▁തു
nze
▁volo
▁90%
▁piutto
▁женщины
▁moes
들에게
▁40%
▁1811
▁ည္ေ
▁dekat
▁destra
▁Mode
▁சென்னை
llisesti
葬
▁entrega
▁000.
CI
אט
ങ്ങളില്
ოდა
ํา
শন
▁篇
▁Glen
▁formó
hard
णा
▁అమ్మ
았
▁Koch
▁Helen
▁bantuan
▁fuego
▁خل
▁সালে
▁یافت
▁വഴി
▁Tol
uf
▁военно
▁agriculture
▁יי
▁जिसमें
▁மிகவும்
▁பார்த்து
▁چھ
▁diario
런
room
▁الأمريكية
داری
광
umba
▁แม
▁manque
▁tardi
▁famosa
רים
olla
茨
▁invloed
▁失敗
ან
▁Bạn
▁சிறு
स्
▁Zahl
▁ngữ
▁養
▁wedstrijd
▁అంత
eth
▁tugas
▁ပေး
▁genomen
கர்
▁essi
▁இப்போது
▁background
▁implica
▁Logo
▁clave
েই
▁ప్రభుత్వం
▁Kah
▁understand
▁moitié
▁featuring
▁βρίσκεται
▁澳门
▁Москва
▁aplikasi
▁Championships
▁שיחק
去世
▁glass
▁palabra
▁ero
▁storie
▁yaz
▁136
▁Bass
▁egyes
▁韩
▁Eli
▁福建
▁信号
ினார்
▁NHK
▁existen
▁soek
▁अं
▁cima
rate
▁proyectos
▁ѝ
▁meine
▁kr
▁amerikai
▁מנ
gono
莎
mpi
▁খ
▁sci
▁naissance
▁diens
▁Αυτό
▁Polish
▁Chelsea
▁vitesse
▁ouverture
放送
ヨ
vä
▁Prize
operating
▁murder
ნე
▁belegte
▁দল
▁следует
▁一般的
▁iPad
▁昆
还是
▁weinig
▁流れ
▁ერთად
▁έτσι
▁チャ
▁matan
▁περίοδο
▁Fal
▁伦
▁Hunter
核
▁woorde
▁directamente
43
▁creó
rei
療
▁फार
▁Gala
kh
▁ontstaan
▁президента
zahl
▁sortu
▁sh
▁Александра
舰
ятся
▁عز
▁وإ
▁減少
▁Zeitpunkt
▁聞
▁이를
ères
मन
▁relazione
▁친
▁екен
▁bella
▁vorhanden
మో
ത്തിനു
▁HA
▁ذ
▁许
▁bloque
▁clean
▁करणे
▁Gray
▁Hil
न्
tage
tera
קת
▁カン
▁報
▁わ
▁правило
▁успешно
ък
▁composed
▁Alba
gni
▁}
▁다양한
kant
▁したため
▁Tos
▁mesin
▁copy
▁vak
▁155
നു
▁അത
需
▁информации
▁דוד
▁ovest
▁犬
▁sarili
▁europea
▁1805
▁أثناء
imento
▁unas
▁Nancy
тов
▁والی
▁ली
▁شرایط
沟
▁घेऊन
▁Vale
▁rug
▁反对
▁Fri
活
▁britannic
▁Kampung
▁小说
▁vocal
▁進出
▁मैंने
▁undang
يز
▁വീ
▁lokal
▁bestuur
ément
ழ
纸
▁Tower
▁morto
▁कार
గల
▁σαν
▁Alguno
▁holding
拍
▁למשל
▁दक्षिण
▁алған
▁солдат
▁共产
▁zituen
ंनी
▁কারণে
▁溶
▁อุปกรณ
▁حالة
born
▁ecc
▁пет
▁134
▁aiuto
▁Гар
▁कुमार
▁制定
▁destaca
▁Website
かし
▁词
퇴
▁Bah
▁ശേഷം
״
▁loan
▁Punkte
药
▁严
▁مليون
▁ligting
▁ஒவ்வொரு
▁Sé
▁مگر
▁Thompson
▁עי
▁selain
okban
▁reference
▁Augen
▁работает
▁propuesta
녀
▁fiscal
▁pla
LA
LP
ular
▁thuyết
▁המלחמה
▁trái
ラル
▁dista
▁加拿大
▁वीडियो
▁達成
▁Rain
▁ping
▁περίπου
▁abbaye
▁zein
ымен
▁Пре
▁çıkar
▁propaganda
▁membeli
▁habría
▁止
▁médaille
▁融
▁Herzog
길
▁討
GE
▁బు
kirja
▁сами
ിയ
▁套
▁小説
▁velocità
▁孩子
▁acer
aco
聲
▁baren
▁Secret
▁reserve
▁Certain
▁migliore
िन
险
▁GR
▁Benz
▁ezzel
اته
▁படம்
சன்
▁獲
▁ordu
ัง
▁bloed
▁Mate
▁tindaka
▁vía
▁18-
▁业
▁怀
▁Kr
▁婚
▁garden
▁perkara
▁avis
▁landen
▁وبعد
▁combina
▁느
▁이러한
▁Royaume
▁کسب
/6
▁lignes
inta
జా
▁131
▁海军
▁viszont
▁Wilaya
▁oppi
▁straight
▁וג
לית
▁ketiga
▁۸
▁academic
▁tepat
▁मेरी
▁amici
▁mahal
▁comprende
▁Delhi
mannschaft
▁לקבל
▁離れ
▁GE
nez
▁Roth
TO
▁pien
▁научно
νη
▁Dai
पणे
▁funcion
▁talle
▁essas
▁147
colo
評
tiin
▁الو
▁시장
▁作成
lane
▁ミニ
▁hauteur
▁Bremen
▁konu
▁ടെ
백
▁jana
▁ไม้
▁boot
▁jong
евой
▁mêmes
▁ใด
тардың
▁certa
▁RAM
识
ké
▁aumentar
▁fear
ellen
▁nimmt
▁aguas
▁habitat
▁అన
▁حج
壁
▁Til
▁实现
▁השנה
نز
ARA
▁coro
uhan
▁memory
▁rise
▁横浜
▁pergi
▁良い
▁گئے
▁вкус
▁besitzt
jana
▁每年
▁Iraq
▁boca
▁Mall
▁பதிவு
▁feed
alia
ирует
▁projek
▁vid
▁برنامج
▁launch
ên
▁Lie
▁широко
▁Kraft
▁専
▁ဖြ
toon
▁বাংলা
day
hun
omba
▁нов
▁безопасности
▁gelegt
▁werkte
ിലും
▁abitanti
▁1802
▁missions
▁άλλα
ေသာ
▁nhằ
▁ഞാൻ
▁risulta
▁comuni
▁filmes
▁storm
▁sicurezza
▁sine
▁riferimento
turm
▁zeigen
▁मुख्यमंत्री
▁繼
▁Гу
▁titres
مه
▁1794
▁ремонт
তো
၂
▁Lloyd
rot
9]
ημα
▁dianggap
▁খুব
▁tee
▁امکان
▁семей
▁BO
▁Три
▁பிற
▁противника
▁בד
▁Congo
TB
▁ロック
▁막
▁卻
▁transform
▁osta
▁语言
▁continental
קס
RA
▁靠
טי
βα
▁Clara
▁derrière
▁व्यक्ति
▁nabij
▁mira
▁ధ
▁selfs
sä
▁surat
▁కొత్త
▁เหล่า
▁client
▁xả
▁Command
▁ငါ
ások
▁岡
藩
▁legte
၁
▁hiver
▁الدول
▁correct
▁comincia
▁Boot
▁közel
▁解散
▁morì
될
▁pape
▁deutsch
▁ос
▁πρό
▁힘
▁latest
▁病院
▁kilala
▁Gilbert
ദ്
▁considerable
▁西北
▁غرب
▁مركز
▁ホテル
▁দেওয়া
▁전쟁
▁Salah
▁bras
▁систем
ә
▁какво
洞
ực
▁Sunga
▁wichtigste
▁essentielle
issant
▁中学校
▁తే
▁yaptı
▁準備
tjie
连
ాను
▁โรง
▁табылады
▁episódio
▁numéro
▁Direct
▁pesawa
▁烏
▁inime
▁yhdessä
▁режим
far
horn
▁dist
▁Basis
▁1807
▁eva
▁matar
▁cari
seront
▁bomba
▁Möglichkeit
茶
/3
▁frontera
▁てる
▁Happy
▁geldi
ווה
▁Ministry
▁rechten
▁ব্যা
стан
▁였다
▁allows
▁देता
IE
▁Asociación
妙
▁sall
▁probablement
▁Five
▁efeito
▁buruzko
▁ultimate
▁過程
谋
▁鼓
▁filter
▁частью
▁فل
▁terrestre
بی
▁問
▁Bot
▁മേ
▁puerto
▁corrente
▁לצד
▁defend
▁任務
▁voll
▁पाठ
▁נו
▁portion
▁улица
▁confitta
▁隠
সা
▁பெ
▁linen
▁ساز
▁Minuten
▁concern
▁Grenze
扬
▁июне
HC
▁1798
▁dưỡn
▁quellos
▁کاری
णं
▁lose
lho
▁ဘုရား
ৎ
цу
▁وقال
▁тепер
▁emmän
▁באתר
▁Nice
▁Info
▁benannt
▁Xbox
능
გან
▁Нұр
ợ
▁Phoenix
▁пят
▁ζωή
▁1827
▁বল
▁生涯
▁వారు
▁ముందు
▁lanzado
▁vila
▁thơ
▁театр
nő
▁দেখে
アン
▁खान
٫
ဏ္
▁menang
▁Zentral
▁জি
そ
▁kuuluu
-21
राज
▁山东
▁teste
▁จัดการ
▁csoport
▁kruis
ír
▁จีน
▁Wisconsin
כון
ေး
▁移民
▁عمومی
▁صفحه
دان
▁Rum
▁فارسی
▁Monaco
âm
▁medal
▁Blood
▁алады
▁執
UE
▁üles
tisch
▁انتخابات
▁orientale
▁صد
▁எடுத்து
▁ഗോ
▁facile
▁strike
▁eğitim
▁niversitesi
▁太陽
▁Wikipedia
▁ardında
▁الأمر
ׁ
▁gestellt
▁ഉപ
▁مال
في
▁zero
▁testo
▁사건
▁درست
zott
▁대통령
או
▁层
▁البته
▁مربوط
▁тұр
▁Ant
▁কী
▁危
▁سوم
▁委員
▁membaca
▁Utara
▁críticas
▁Selle
▁vuodesta
▁Rena
説
▁portato
▁沖縄
▁arrest
▁يوجد
▁organized
▁siku
▁buon
▁bağlı
onia
▁izquierda
▁ชนิด
▁elf
▁vốn
▁picture
▁kertaa
▁wenige
▁hoop
▁Pai
▁газ
▁Carol
gno
▁Renaissance
▁得点
▁크
▁ऐ
షన్
▁রা
艺
▁hồi
▁pal
▁humain
лом
▁കോണ്
▁contar
▁adlı
▁ถ่าย
▁karya
▁Anlage
▁arena
frühen
▁กิจกรรม
сына
bot
ంది
▁ruang
put
宿
▁neuer
▁സം
レット
▁laste
▁计算
ဂ
▁dituen
▁Schauspieler
trò
▁وعلى
▁पर्यंत
▁Wei
▁سیاست
▁కల
FL
▁इसलिए
89
▁چا
▁vidad
▁lançamento
▁Vancouver
▁тү
▁ester
▁Room
▁galt
柱
▁つけ
▁観光
τι
▁Nation
▁régi
ഫ
▁правления
▁öt
▁காட்ட
▁Speed
▁χρησιμοποι
▁nomina
▁تب
▁filhos
▁۱۳۹
▁auteurs
▁できた
▁机械
▁注册
秋
▁moni
ак
áról
▁mura
ται
▁contexto
▁eers
ıp
▁많이
carico
ארגון
▁regista
▁証
▁Still
▁pit
ására
▁kailangan
▁nero
▁razón
▁cono
▁construido
▁ı
iak
еб
▁josta
▁siano
▁occupe
▁bera
ör
▁เส
表記
▁ブリ
▁novos
됐다
▁抱
▁大臣
▁Fischer
▁困
INE
▁وهذا
▁综合
▁أفضل
tine
issent
▁Elles
▁例えば
▁Rugby
▁הגדול
▁Mut
มา
▁Turner
▁నాకు
▁açık
▁入学
▁regelmäßig
▁제품
▁счет
▁فال
mad
kun
ండ
▁апреле
▁ibn
وان
▁Độ
▁stil
▁Parmi
▁cải
תהליך
▁αυτο
圏
▁中部
▁dahulu
▁турнира
▁နား
▁отношение
▁naturaleza
ूर
lari
▁αιώνα
hti
▁שו
ത്തി
yor
▁tingkat
гар
NA
thái
▁کلی
▁üç
larla
▁Double
▁Please
▁Viet
▁gör
▁こともある
▁שימש
▁PU
▁fill
క్ష
▁enquête
▁malla
▁Lago
▁environnement
▁雲
▁ဘဲ
▁போன
kään
▁abge
旋
▁แม้
▁sari
▁俄罗斯
▁Bordeaux
▁Ян
▁பட்ட
ától
வோ
▁кредит
▁resources
▁ยาว
▁informações
▁बनाने
▁spor
▁popula
▁아니
▁kê
▁Pap
▁రాజ
хи
▁पूरी
▁בג
ларын
▁Senate
jak
▁货
▁谢
▁delen
合い
▁गाव
▁hangi
▁哲学
▁किए
▁Wereldo
▁Iso
▁запас
▁薩
▁perjalanan
▁Nuevo
نس
▁কেন
▁למד
▁Thiên
余
▁வேண்டிய
muk
▁dieself
▁บา
▁respectivamente
▁Annunci
▁ပု
iba
▁Masters
▁Dra
ием
▁mood
▁marito
▁Pope
▁жүр
單
第
▁Mohd
▁шоу
▁tennis
▁拠
பா
▁გამ
▁越南
▁bianco
▁imágenes
▁kin
▁berkaitan
▁牌
ró
▁Ernest
▁bawat
▁주장
▁န္းေ
נט
▁cra
▁Ezek
आई
▁الثانية
▁punya
靈
▁кара
鱼
ക്ഷ
▁আইন
▁設備
▁effetti
▁看到
▁тра
▁စီး
γκ
▁leaves
▁बड़े
▁オブ
чки
▁previsto
▁遭到
社區
▁ema
▁信仰
▁Rand
meye
▁Seven
▁核心
▁commandant
▁Brooklyn
▁hubo
▁elas
▁目標
ieve
ấp
▁issa
-25
▁lanzamiento
▁constant
▁peluang
▁Angelo
עה
▁കൊ
▁erzielte
▁arrière
▁könnte
ander
▁Ан
▁maksu
▁143
▁sha
▁terres
▁segala
▁Marcus
▁1819
▁medium
▁అన్న
▁stuk
▁כמ
▁своём
▁播
igkeit
▁Polonia
سون
▁sofia
▁กุ
ങ്ങളെ
VO
▁garanti
▁Beck
▁выпуск
▁қарай
rò
▁rövid
▁Adi
▁சீ
▁книга
gra
▁ἀ
成為
▁义
▁ezen
▁提升
▁Serra
▁Edgar
▁LO
▁Drama
▁proximité
daki
▁sch
▁Telefon
▁منظور
▁kale
sem
▁exist
▁கட்சி
▁центре
▁是否
▁получить
▁מפ
▁здания
టో
satz
▁公开
▁танков
▁Swiss
ható
▁sepanjang
ATE
瑟
▁Touch
▁siapa
37
▁Staffel
rend
▁kellett
вшийся
▁oficina
▁males
▁فتح
chy
▁analyse
▁verlor
▁紧
▁مک
▁обучение
ұлы
ensis
▁ezin
▁Alaska
用于
ָה
uku
▁pap
▁Mix
▁ভা
unu
▁Weise
▁balance
▁לבין
▁jardin
▁工事
▁Palermo
▁بالإضافة
▁ปา
▁quanh
▁Taka
▁Cau
▁വേണ്ടി
외
对
▁ผ้า
ाव
RL
▁蒙古
▁Nigeria
▁Klaus
▁Maryland
ses
ताना
▁رب
▁ঠিক
炎
thal
▁असतो
יף
गाव
▁szabad
昂
▁annuncia
▁нес
▁introduction
▁select
▁دکتر
▁Tân
▁Gin
▁lokasi
கு
歸
▁程序
▁ഹാ
לם
51
ലാ
▁painting
▁fête
▁শেখ
▁जानकारी
ылған
▁опубликован
▁Τσ
▁XXX
▁thấp
かり
다는
▁évben
평
ray
▁autori
이었다
▁dicht
▁熊
၆
▁naast
▁ஷ
▁thoạ
▁νέο
▁पुस्तक
▁сети
▁Audi
▁жон
▁ツアー
▁tais
▁γιατί
▁네
ऱ्या
▁같
▁Mehr
ڑ
▁అంటే
▁حوزه
▁Grace
▁mineral
▁罗马
▁Generation
יעה
▁жағдай
▁이번
▁תש
▁Desember
▁Lane
▁stampa
▁weekend
▁بإ
▁Herbst
▁Bobby
▁Administration
▁меньше
▁行为
sında
punkt
▁heard
▁suivre
▁コース
▁正在
▁Poland
▁UNESCO
▁belül
▁Belanda
▁verloor
▁বাংলাদেশের
▁大人
▁suuri
▁نشر
หน้า
▁позиции
轮
▁পু
▁arriv
▁权
भर
▁ทั่ว
▁suelo
▁gegeben
▁الأم
▁andingan
▁فرا
▁আল
▁အဲဒီ
▁异
शा
▁العربي
▁minggu
▁机场
oon
▁नगर
▁plata
▁cookies
▁CT
▁tulong
▁영국
డ్డ
▁大幅
▁ホール
▁avulla
▁നിയമ
▁perang
▁Matthew
hus
▁tratamiento
▁campagna
▁pati
▁קיבל
▁முயற்சி
蒙
▁cells
▁Ev
▁agter
pil
ומים
▁bala
표
▁fifth
▁Kiel
▁என்றால்
▁kaniya
▁luas
ப்பட்டது
ைய
scher
าย
▁名字
▁ですが
▁1988.
▁decisión
▁قم
ượng
kow
▁kamay
▁bekende
დნენ
▁administración
▁pengguna
ост
▁pilih
▁برج
▁indem
▁בל
▁Hir
▁포함
▁rango
▁Hannover
ണ്ട്
▁Arsenal
▁Tek
ण्यात
▁partito
▁變
pon
עת
▁にあった
▁tentu
ето
▁kerran
▁Gur
▁جد
▁públicos
▁winner
▁정도
▁bomb
▁appearances
▁져
▁ညီ
▁bâtiment
覧
▁พล
▁Ward
呂
▁refus
▁اصل
▁rekening
মে
▁puesta
▁appareil
▁hoi
▁Giả
SB
▁uygun
▁千米
▁sabihin
▁vih
▁जारी
▁戶
託
▁vendo
▁seur
▁connected
aar
דם
▁Государственн
▁Negro
▁ریاست
▁HIV
▁۱۰
▁ပြ
▁淡
▁Debido
▁bond
▁번째
ბი
▁பே
णाऱ्या
▁Malta
▁集め
stre
▁책
98
▁जु
▁tiempos
▁சேர்ந்த
▁железн
▁قل
▁Assim
▁அனைத்து
▁ví
▁erschienen
▁பொது
▁أمام
▁刻
משך
תקופה
rent
▁特色
▁Таким
▁Constitution
▁eut
▁células
טים
обаче
▁ataques
▁gris
▁שהו
▁oog
▁eröffnet
▁essendo
▁Avant
▁ממש
▁ноябре
▁Manila
▁كتب
▁ایم
▁Guide
▁Вер
▁許多
▁hor
▁users
▁относится
▁孟
▁oppure
▁公布
▁Works
▁Daarnaa
▁μπ
▁visa
▁鱼
宜
▁primarily
▁ชอบ
▁جواب
▁szerzett
▁creating
▁κα
▁melyek
獎
▁durchgeführt
▁冒
▁გაი
லில்
▁エア
▁sinabi
▁lente
▁registro
ဟာ
ذر
▁잡
▁Maison
▁Γκ
ến
kerk
▁残し
▁წა
▁葛
▁начали
散
▁FL
▁随着
▁एल
pak
▁orchestra
オン
▁নিজের
▁樣
овского
▁чемпионат
▁enkel
▁同じく
▁seasons
▁escena
▁燃
▁necesario
▁פרי
мана
▁တီ
▁ベル
ghi
▁لوگ
▁გაუ
▁Мин
▁batzuk
▁parish
جا
▁आनंद
▁pake
▁지금
▁Capo
▁exception
▁אס
▁Julio
▁familias
ZA
▁quatrième
▁Hero
▁போல்
▁跳
▁gewoon
▁machines
▁Date
▁历
▁cam
▁inicia
esh
▁pais
▁Chal
rama
▁päeva
▁ดาว
▁plants
▁rimane
▁kéo
▁sangue
▁된
NP
▁رسید
▁früh
▁മാത്രം
ick
▁รี
▁baka
▁conduit
96
議会
্
句
▁גור
▁здание
▁esas
▁profil
▁مارس
▁MD
loop
▁beza
▁審
▁各種
▁continues
▁Susan
▁Toulouse
▁arrondissement
▁schreef
▁technical
▁campanha
▁സ്ത്രീ
▁constitue
▁数学
sız
▁Bord
▁いくつ
▁हिंदी
▁veld
▁கொடுத்த
▁lotta
▁ру
▁貸
ない
▁叙
▁النظام
▁होतं
▁साहित्य
▁cambia
▁1/2
▁Juego
▁letters
▁Fenster
▁142
▁respuesta
▁canale
▁masse
▁flanzen
▁齐
▁vince
▁награждён
▁桑
▁transition
趣
sis
ström
▁काफी
▁vannak
▁Haag
▁Württemberg
▁zusätzlich
సు
▁海岸
▁劇場
▁सम्
AI
额
耶
▁marco
lier
mista
▁declared
▁heutige
▁公演
▁Liste
33
szt
tır
▁統一
▁внутри
▁西南
tig
▁sơ
▁carbon
▁efectos
▁লোক
▁避
▁公园
▁bent
▁rendez
▁Provincia
▁décadas
▁Match
▁बाहर
▁இதில்
▁месяцев
▁بناء
▁있
▁계획
னம்
▁จํา
▁साध
荣
▁लग
▁Abend
▁скоро
▁thiế
응
▁شهرستان
ishi
▁केवल
▁ロンドン
▁fighting
▁קול
▁med
iéndose
▁Fuß
▁physique
▁словам
▁Metall
▁Montréal
massa
▁valid
▁पुढे
▁പാര്
▁పాటు
▁нача
▁duque
▁começa
▁တာင္
▁utiliz
▁Daha
▁امروز
מית
ларға
▁بلند
▁ematen
ures
▁לפ
▁הט
▁existing
▁clubes
बा
▁massive
▁Auftrag
▁犯罪
▁לאור
νά
ിട്ടുണ്ട്
▁nanti
ầ
▁yakın
▁trabaho
筒
ukka
▁leo
浪
နာ
▁elimina
▁median
▁ナイ
▁Nii
னும்
辺
되지
▁کیفیت
▁ensure
▁შენ
▁dah
統
▁paesi
▁yleensä
▁Yoshi
▁basta
▁രണ്ടു
▁secrétaire
▁ψ
▁佳
▁קשר
▁retire
据
ிருக்கும்
▁Tätigkeit
▁২০
▁Tommy
▁келеді
RP
▁tomó
▁Steuer
34
▁சம
▁выбор
▁essay
▁tradizione
▁commerciale
▁ஆம்
▁estrutura
mez
▁rules
▁Ezt
▁reports
▁Verwaltungs
▁चीन
क्स
▁痛
താ
bio
dah
कों
▁lied
霊
▁امر
▁genommen
▁Medal
▁armi
có
▁Julian
▁جمهوری
▁밀
▁DB
uak
▁თავის
▁ملت
▁विजय
ders
▁vertical
लेले
▁जर
▁6%
▁доста
▁Musical
▁adopted
霸
▁ランキング
▁geführt
▁erwarb
▁ఎలా
▁hool
▁جديدة
zie
kaa
▁Ese
▁kapan
▁Gelände
▁inizialment
▁fenome
▁cambiar
▁妹
ஹ
▁правительства
▁பாட
ensa
▁тан
മോ
▁खो
ക്കും
▁Meta
някои
▁産業
▁Москвы
▁Xi
▁titolare
精
▁съвет
綱
▁Кол
▁institution
▁브
▁retain
၃
▁Aero
ावे
▁novas
نڈ
▁criação
▁besoin
▁Harrison
▁использова
▁ακόμη
▁Isaac
▁Kama
▁perubahan
▁กล
▁faible
テル
▁gate
▁Youth
кам
▁terület
EA
bon
▁mantuv
▁pert
ंच्या
▁आरोप
ပ္
▁món
----------------
▁lebte
▁トリ
ICA
▁mengikuti
▁kand
▁परिवार
▁sar
▁bevat
▁phi
▁Organ
▁всю
▁incluyen
▁蒸
▁変わ
했던
бор
▁Йорк
ington
▁胸
وة
იან
▁routes
ক্ষ
▁الاتحاد
▁Mã
▁Düsseldorf
▁tournament
▁қор
弱
▁apparent
تو
▁kiri
▁接近
▁侵
▁committee
▁occhi
▁פשוט
▁contrado
ვ
▁peringkat
▁marina
降
▁comercio
▁loppu
▁Steel
▁kiế
▁উপর
▁وقتی
ించే
込ま
▁maire
▁MW
▁pres
▁argi
▁מהם
▁architect
its
▁נשים
▁lutte
▁165
ạ
▁romanzo
▁espera
▁wear
▁назад
ער
▁Seconde
ליגה
▁стен
批
▁Collection
▁entro
▁Novo
▁كانوا
▁গা
▁ကည္
▁孝
▁исследования
▁1823
tár
ိုး
هر
вшись
▁maneira
▁volk
▁ページ
▁WhatsApp
3/
▁tamil
▁显
▁另一
▁ügy
▁Samo
▁დე
▁yazı
ует
▁انہوں
▁ABD
fläche
▁Mä
▁tenere
藝
▁车站
▁აქ
▁түрде
ける
儀
ске
▁occupie
▁тел
▁Eddie
▁まだ
▁בצורה
▁fehér
▁করুন
▁شکست
▁UTC
▁captain
▁Château
▁مكان
ラム
▁momentos
लि
▁厅
म्प
▁مقام
▁Başkanı
▁Biblioteca
▁soli
ул
kraft
▁காண
▁communities
▁sod
▁semplice
▁Olympia
▁防御
▁Roche
▁역사
sak
▁شكل
▁伸
▁ผิด
▁スター
▁fonctions
▁九州
ισμός
▁получили
▁peak
ांवर
▁youtube
▁letto
▁重量
ဏ
▁അനു
▁ika
▁祖父
▁limita
▁Consiglio
▁proveniente
▁Verwendung
▁порт
▁keseluruhan
▁和平
▁Bauern
▁החיים
▁Satu
სი
▁peine
▁menurut
▁356
▁वाला
▁سمت
יט
θηκε
vara
▁隣
▁Oil
▁தலைவர்
▁volgde
▁труда
▁আরো
▁могли
of
▁ofrece
▁국제
ούσαν
▁всичко
embentuk
▁そこで
▁claims
▁vend
▁उन
▁charges
▁олар
вин
▁proprie
▁480
▁KU
编
▁Pem
▁regno
▁eventi
▁modu
▁egiteko
▁dança
▁käsi
▁réserve
▁kick
▁軸
▁Penge
▁acciones
▁maganda
▁kısa
▁绝
▁скоре
▁பழ
▁télévision
haft
▁Là
関
▁Finland
吾
▁میلیون
敏
▁ғылыми
사를
覇
▁gestione
▁завода
▁Fuji
▁รอ
▁версия
▁陽
nap
占
▁език
▁Tale
▁พูด
▁tato
ेज
▁χώρα
▁belangrijke
▁Orleans
▁concours
▁commander
ホ
▁خر
▁এস
▁மத
▁ホー
▁Klub
ლად
▁авиа
▁nâng
▁മുന്
▁documentos
▁installation
azioni
book
вен
▁Bund
▁феврале
▁園
▁illegal
▁diadakan
▁joh
▁Comisión
▁الي
▁Vũ
▁Mississippi
▁যখন
ises
▁advanced
▁Monate
▁fuga
タル
▁কারণ
▁Halb
▁Presse
▁重庆
▁সাধারণ
▁گرد
▁႐
tron
▁maintain
▁勢力
▁coupe
▁-1
▁Friday
▁lihat
▁ജെ
裔
▁작품
配信
პ
▁საქართველოში
▁RI
ရဲ
社長
aksi
▁domina
▁Rotterdam
▁چار
53
▁政権
▁सात
▁Lon
▁thoá
▁ประเทศไทย
schlag
▁quiera
▁Chance
▁opportunity
ста
▁miten
▁宫
▁ပည္
▁関西
▁bati
▁있고
▁gedoen
▁capitaine
▁físico
▁многочисленны
▁Draft
テン
六
▁לראשונה
▁push
▁qualidade
▁부분
aram
▁表演
▁表现
▁küçük
▁rating
▁oficiales
ulu
▁Sophie
▁tenha
▁בעוד
про
▁建物
▁Sánchez
▁Player
▁میزان
▁nonché
▁aarde
סיים
ֲ
▁proto
▁జా
▁程
άζει
tim
বেন
▁လည်း
▁वेळ
▁уезд
▁reina
▁1804
δ
▁grass
▁Py
▁mitään
▁maintenant
▁확인
▁pat
▁sâu
▁हु
▁演唱
ίστηκε
▁lunghezza
▁സംസ്ഥാന
▁ding
▁vähän
▁المست
▁기관
▁parro
▁verkoop
▁Sá
▁нещо
▁母親
▁beträgt
சை
▁मार्ग
دخل
▁tours
诉
▁κάτι
▁Dazu
▁როგორ
मुळे
▁compagnia
▁荣
▁候補
▁putih
▁що
▁rais
▁hermana
▁pé
▁phiê
▁Homo
▁לאורך
曜日
விட்டு
▁fanno
eksi
▁cím
▁सामने
▁策
▁creado
ax
▁sample
▁नस
▁盗
▁انتقال
रो
▁钱
בת
▁переход
▁Rah
▁LI
וד
▁Pohjois
▁maaari
▁pies
▁одну
▁Hindu
▁матери
황
leiter
slag
▁Andre
▁1.
▁doc
▁gawin
▁Tha
▁costo
▁als
異
εία
मधील
▁ger
▁soy
רי
yat
▁montagne
▁услуги
▁Kiss
▁Februari
▁konden
▁meninggal
徳
iyor
ordnung
▁唱
▁sexe
▁brit
▁cro
▁בלי
riam
▁Sicilia
▁naturelle
▁Bert
▁universo
▁実現
▁Martínez
▁фронт
▁初代
▁พระองค์
तम
毁
▁블
▁строительство
▁پنج
▁لے
▁成人
鳥
▁laser
▁і
▁roles
▁あまり
▁diretor
▁hum
▁zee
▁Caroline
▁Yes
▁solche
▁Perdana
▁skool
תוצאה
▁rement
ậu
▁successivi
▁湖南
▁Nat
▁主義
▁குறித்து
ruk
规
▁союз
▁áo
흥
▁Tôi
फा
▁ലെ
▁最多
▁большинство
udi
▁nasce
▁jpg
▁спустя
▁menti
lok
▁batas
▁russo
▁adı
station
▁Storm
▁ပါ့
▁사실
▁tropical
యు
ksen
▁chiamata
ското
▁လေ
▁フラ
▁aspecto
▁معهم
▁ఖ
▁arca
jos
チン
▁Phone
ющего
овский
▁комитета
▁lil
▁moteur
dag
له
زم
▁hätte
▁Bürgermeister
▁hyper
▁Alfa
▁โร
▁francia
ино
▁Arbeiter
▁aumenta
▁chiara
▁影片
▁newly
▁येथील
▁neden
keta
ijo
▁वर्ग
寿
릴
염
▁hervor
▁gallo
▁Kammer
ကာ
▁贸易
▁にかけて
▁Maler
бен
▁terve
ഗ്
▁おっぱい
▁genda
▁nichts
▁70%
▁บริเวณ
▁groter
▁Reform
inde
டை
柄
▁दुनिया
▁တိ
▁редактор
▁ลีก
▁hoogte
▁renta
▁habilidad
lijke
▁tienne
▁heen
▁قلب
▁Lega
▁体制
่น
▁Clinton
▁lähes
▁钢
▁colori
▁dut
စာ
▁principaux
弦
▁combined
▁هنر
▁Singh
▁historic
ไม้
▁DM
▁أسرة
టా
▁დი
▁ডা
▁officials
▁Delta
▁iç
▁sağlık
טר
▁তিন
▁చంద్రబాబు
▁кладбище
▁canon
hl
▁そのまま
▁allemande
▁돌
▁Bari
▁perdu
▁widely
illy
▁पता
網
▁备
▁限制
▁votes
▁தனி
▁Mean
謀
▁mặc
ௌ
▁вероятно
▁വിജയ
DO
גה
▁ఆర్
пер
▁Bab
▁ready
لو
▁prática
▁continente
▁Maya
▁otto
▁главе
▁bác
ワー
▁ഇവിടെ
▁江戸
▁versie
hut
▁தொ
▁အစ
▁诺
▁neuf
▁تور
▁accordo
▁строительства
▁Executive
▁Münster
▁الخاص
▁ထိ
▁नई
▁Cer
▁confor
▁дали
抗
▁rig
ẽ
kop
▁הגיע
לנד
▁خواه
▁klasse
▁ニュース
▁mentale
超
▁언
▁Liu
▁1797
▁MG
▁Mädchen
▁идея
▁1799
ระ
▁ekkor
▁รางวัล
▁पुन्हा
▁သံ
▁baron
▁Sergio
rro
▁ഹി
▁הממשלה
▁文件
▁literature
▁vermutlich
▁फोन
▁ผลิตภัณฑ์
▁فعل
▁umfasst
▁NATO
▁joita
ുണ്ട്
▁शोध
▁급
십
▁在此
▁seigneur
▁なん
▁प्रसिद्ध
▁갈
ικ
▁copia
▁καθ
▁tava
інен
ம்ப
▁figuras
▁활
▁MV
▁explique
▁rápido
▁首相
▁neljä
▁escape
악
▁Στα
▁連載
▁Brandenburg
▁才能
▁daarop
▁宽
নো
▁അതി
▁experiência
▁نماز
▁prendere
▁HE
▁eesti
▁騎
▁Petersburg
UK
▁gained
87
▁ogget
▁Moto
▁Buda
niendo
▁מז
▁appelée
▁bekas
▁לך
▁доме
▁উত্তর
aran
ాలి
▁brasileiro
▁מכל
ぜ
등
٬
泳
癌
وض
▁príncipe
▁پاسخ
▁kha
▁Cut
▁വില
▁offensive
▁wirkte
▁傷
▁smartphone
▁водо
၇
▁членов
▁اختیار
▁Grecia
▁وجہ
อง
▁парк
▁india
▁Sing
ổ
▁Ғ
ట్టు
▁возможности
▁卵
▁iva
του
▁रा
▁ارتباط
कडून
▁alueen
▁пайда
OM
▁yhden
ミー
▁hits
▁αποτελεί
▁مهر
▁Εν
▁posse
izmus
kam
▁范围
тель
▁profissional
▁თქვენ
▁inspired
▁deshalb
▁östlich
▁Wand
▁Schmidt
掉
▁легко
handel
▁цен
inos
▁維持
▁цели
▁fonds
agi
nsä
გი
▁Mass
ène
av
▁۱۲
岐
▁機構
▁база
▁съд
▁Vertreter
▁hood
翼
▁چی
liselt
▁합니다
്യം
▁カメラ
смотря
▁συνέχεια
▁biblioteca
mittel
▁Strom
nun
▁jaga
▁examen
▁Sistema
▁kö
▁gram
▁teria
▁אנשי
▁adelante
lev
▁турнир
കളെ
▁broer
▁Bois
লার
▁அதில்
媒
▁welke
▁Maine
lisi
▁contemporar
▁ஈ
ఠ
▁Nou
▁kaitse
▁adanya
▁十一
▁vuelve
▁заявил
▁イメージ
▁موسیقی
▁ennek
▁asian
▁journée
tı
rebbero
▁FBI
liit
▁ään
▁dates
тся
▁加上
▁disque
▁Leonardo
▁ศูนย์
▁身体
σκ
▁Tie
▁pesca
▁โม
▁magas
▁مح
ี้
▁കൂടി
琴
靠
▁출장
▁температура
▁ウェ
▁jatuh
▁匹
▁ersetzt
▁Independent
람
▁Snow
▁obispo
▁Alejandro
▁കേന്ദ്ര
▁түрлі
▁groei
▁kwamen
▁Seks
▁vollständig
▁ну
▁midden
▁должна
▁dituzte
▁käyttö
▁ჰ
▁participante
▁उनका
▁אתה
▁ולאחר
อย
ást
▁Kü
▁Vereins
▁区間
▁灯
▁Bl
▁Amor
▁pequeñas
ακ
▁ír
כל
▁کس
▁담
тары
▁ikus
▁tuhan
▁иска
▁戦後
▁доктор
igny
▁apply
▁Elena
▁आर्थिक
ẫn
▁vũ
Ц
▁Child
▁Nov
▁をした
▁σειρά
చ
▁만들어
序
ഹ്
▁프로그램
▁الحياة
▁ခား
자의
▁Betriebs
▁হলো
▁ראשון
▁గో
▁समझ
▁লেখা
▁CPU
ప్పుడు
▁campos
▁exposition
▁позднее
▁酒店
▁ჩვენი
▁дори
妃
▁床
▁მეორე
▁bilden
▁puente
▁提案
▁legjobb
▁புது
▁2-1
5%
▁農業
▁tuna
▁দি
دون
▁формы
▁patient
▁teljesen
▁segment
찬
▁vinse
▁суда
▁Ruth
▁мед
▁Ри
▁ideia
▁nesta
▁مز
has
▁walaupu
▁juge
σα
▁cousin
▁Sabah
▁жай
▁László
▁endroit
ple
▁هزینه
▁beyond
▁defense
▁לג
▁initiative
▁Support
▁قطع
▁Extra
▁Ted
▁gek
▁agricole
▁సమ
▁организация
νει
שים
▁లేదా
rino
▁Quest
▁בגיל
▁liver
▁алғашқы
▁өзге
▁lahir
▁కె
▁матч
▁veri
ीच्या
▁تیر
▁líneas
▁Pea
▁Militar
▁Amerikan
カン
▁matin
veld
▁semaines
▁되어
▁ikinci
▁搬
چی
▁കൂ
▁جاری
▁閉
▁ორ
wat
▁NT
▁funzione
ిం
▁lands
▁linh
▁---
▁눈
▁lake
▁relacionada
posiciones
▁Ibn
▁Hammer
▁euskal
▁ฟุตบอล
▁バッグ
▁текст
▁काल
▁Jabatan
άκι
▁cable
▁トラ
▁berjaya
▁訓練
ussa
▁力量
ίδα
▁გე
▁Pack
▁پوست
▁कल
visão
▁revient
▁milik
▁celebrate
mie
▁предприятия
▁Bà
▁भाव
▁అన్ని
▁গো
▁방송
▁سکتے
▁rom
▁近い
wesen
ീസ്
▁পরি
wert
▁высоко
▁יהודים
▁chambre
▁beach
▁Cộng
▁築
▁اخذ
vy
54
▁1960.
▁产业
▁γίνει
ível
▁sake
ades
▁Thế
▁Италии
▁नी
帳
▁Dah
▁yaptığı
▁medieval
▁appare
▁lies
▁license
▁Fil
▁Zusammenarbeit
ჯერ
▁ആദ്യ
▁голов
姓
▁dam
▁Sozial
eseorang
▁முடியாது
▁Alman
റു
▁pilota
▁vé
▁Мемлекеттік
▁eko
▁Nh
osi
▁historian
▁trap
ở
EG
寨
▁Gegensatz
▁niks
dig
▁ราช
▁أد
▁conocimiento
▁határ
▁path
▁Vì
▁எல்லா
▁সং
▁nối
▁Alpha
▁பின்னர்
ене
▁buru
▁เชื่อ
▁ბ
▁intelligence
lichkeit
▁vee
▁prijs
▁बाल
▁décrit
▁Umgebung
פי
▁guns
เท
iết
▁maglia
ड़ी
kol
▁330
ỹ
鏡
침
eken
▁ervaring
▁URL
▁bairro
▁Giáo
▁旋
▁2-0
▁wound
ướng
యం
▁നെ
gg
▁shore
▁rosso
▁Successiva
▁update
▁ولد
▁ごと
▁сохрани
庄村
▁alcun
▁Reg
▁लिये
▁turismo
▁internacionales
جو
▁смог
▁Nama
▁enää
▁الإنسان
вшая
▁Vä
▁1791
▁presenze
▁Minden
▁puhul
▁فترة
▁判断
▁8%
禁
▁庄
▁革
▁مہ
▁ani
▁mä
▁személy
▁Edge
▁antola
▁tugu
宇
▁περί
▁Runde
ιτ
▁cance
raj
jét
వ్
▁ก็ได้
▁magát
▁absolute
▁azért
▁comté
▁attacks
▁класса
▁pr
ér
▁baixo
▁identified
▁OP
▁khởi
▁பேர்
▁לד
▁libri
▁törvény
▁இனி
胶
▁maiores
▁แบ
▁Virgen
▁അവര്
▁edificios
▁Бу
▁明らか
▁执行
▁Accademia
lyn
▁переименован
BU
▁फोटो
▁گرم
יקה
সে
▁lanzó
▁الجيش
▁Haute
▁চার
▁Kam
▁delberg
mettant
▁bound
▁получава
▁არც
▁پاک
▁термин
▁vanda
▁сила
▁覆
FI
▁tells
ющей
لز
▁בפני
▁Tutta
▁அடி
▁ന്നു
kunst
▁Fiat
oka
▁काढ
▁دھ
▁שכ
▁แรง
▁Polo
▁Bible
▁игре
▁положение
นี
▁пу
▁merasa
▁évolution
閣
▁Lanka
▁Woman
▁μεγάλο
രു
ender
▁жена
獲
lor
skap
▁comida
δα
hua
▁brain
▁מצב
▁Beatles
cca
▁チェ
▁lider
▁ട്ടി
ians
▁クレ
▁szem
▁肌
太郎
PD
▁habla
▁போட்டு
▁populares
▁своими
拠
▁என்றார்
▁organizations
▁Portal
▁командир
ду
▁أحمد
▁gesto
독
▁ပညာ
▁Jet
▁шар
41
▁Ole
▁ც
▁verstaan
▁Torres
ിക
▁комитет
▁جزء
ड़ा
▁iliyo
▁জেলা
▁inferiore
▁Loe
▁KB
▁affaire
▁మో
▁artigo
▁frequente
▁חבר
▁اتفاق
▁hauptsächlich
▁economy
▁passion
▁baseball
ssero
▁confirmed
▁wuchs
ქ
▁Lumpur
▁に関して
▁korda
▁piel
▁Stra
▁passar
▁سرمایه
▁Vali
istes
קיים
▁朋友
mä
▁ON
▁derecha
▁栄
900
▁standing
ွေး
▁mill
ены
▁Га
▁stra
▁Cai
철
▁Sweet
▁دان
▁линия
▁sebagian
▁Check
▁മാര്
OI
▁எண்ண
▁ontwerp
▁λα
цов
▁Eco
▁pressi
로서
▁символ
▁alimentos
藥
▁objectif
▁खास
ih
▁Rakyat
▁electronic
▁225
▁namen
▁Danny
▁совет
׳
▁diocesi
▁Schrift
▁historiques
▁dahan
▁longueur
▁इससे
▁حرکت
▁有些
▁Warren
▁Napoleon
▁bringen
▁paru
tiese
▁analysis
▁多次
▁count
▁पत्र
▁防衛
▁hogar
▁theme
▁进士
▁গ্র
▁芝
▁capita
▁vượ
▁領域
ضع
▁reine
▁salva
▁militaires
▁Continue
▁waarna
▁sario
▁लि
▁binêre
▁сельсовета
tés
▁religioso
SD
وار
aronder
▁õigus
▁示し
▁Saba
▁日本語
자는
्यु
▁物理
▁diritti
▁вокруг
▁cabinet
▁hại
ating
▁lĩnh
▁pertenecía
IK
éhez
மு
▁ново
▁meen
▁sair
▁vợ
▁1796
▁régiment
kia
▁cash
▁אתם
▁တရား
91
OK
▁震
▁прямо
▁sir
uddin
▁mountain
kammer
▁sorozat
otti
ाऊ
▁excelente
▁Shanghai
▁寫
κυρίως
▁Vita
▁တုိ
▁వచ్చిన
▁Beberapa
▁برگزار
▁מכ
▁理论
▁misura
▁hafta
▁Professional
▁tark
▁Vergleich
▁aspectos
dro
▁ঘ
就
▁productor
шей
担
▁भेट
스는
▁kre
▁chấp
▁дочь
▁zoek
▁連絡
▁ソフト
▁الوطني
▁மேல்
▁มอง
▁등이
▁Feuer
▁povo
▁núi
▁pieni
▁誕生
▁நெ
▁رشد
▁1100
▁अभी
▁nosso
▁収納
▁batang
▁gesamt
▁解放
တယ္။
▁損
▁చెందిన
▁投稿
▁chute
▁Books
▁میلادی
▁populations
ُّ
▁مالی
▁חוק
▁accesso
替え
▁нови
▁Nutzung
▁பர
ні
▁Chen
▁architecte
▁شبکه
▁围
다고
dun
录
▁edelle
▁Fro
赫
▁페
▁siap
ант
▁kerül
▁edita
▁الرغم
اج
▁علیه
爆
▁Mama
47
▁ausschließlich
▁CDU
viennent
▁Genel
▁поли
▁dile
▁检
pf
▁mussten
▁stieg
▁ന്ന്
▁開業
▁ലാ
▁ち
▁Dol
bei
▁Newton
▁вечер
▁rivista
▁Birmingham
▁prensa
▁tradición
▁gezien
▁உண்மை
▁董事
▁takım
▁Liebe
▁坂
▁அப்படி
▁stadium
▁ga
▁maladie
תית
ières
▁тиіс
▁수도
▁უკვე
ojen
▁fla
▁ép
விட
▁tab
▁Esse
▁reprises
nio
▁neer
▁minut
▁经营
লেন
▁egingo
це
▁статус
▁alternativa
▁algemeen
釈
▁امور
▁ワン
▁Collins
anlagen
▁vuole
▁דה
▁skills
▁Rolling
▁решил
▁бірінші
▁دستور
▁stable
მე
▁acres
▁generation
▁仙
▁kate
▁ठ
▁Yah
▁sieht
gor
▁promozion
▁quarter
斗
▁dagi
▁举办
▁परंतु
▁panas
တြင္
▁rear
▁crianças
봉
▁artiste
▁废
▁மொழி
61
▁domestic
▁santo
▁ATP
▁偶
ását
vier
▁verließ
▁பகுதி
лд
▁Petit
▁Granada
▁NI
▁destruction
▁Gö
ဖို
▁河北
▁vent
▁avat
▁ше
▁писал
lab
ели
▁thú
▁Corn
▁Sche
▁住民
ച്ചു
菲
裡
▁πολλά
▁誰
▁הזמן
▁روح
▁suure
▁powerful
▁سابق
▁Saudi
bos
▁போய்
ჟ
▁lycée
וב
▁construite
▁斗
▁बड़ा
ορ
▁स्थित
▁classique
蘇
ষ
▁植
▁தமிழக
▁состава
тердің
бы
▁Tir
cke
▁neki
▁bakit
อด
سٹ
绝
rica
▁浦
▁nemzetközi
పా
▁Nha
▁Buck
▁Europäische
▁Leopold
▁ون
▁نزدیک
ेंट
▁υπερ
▁体系
▁fundado
fal
▁கேள்வி
▁seems
▁potencial
▁injury
▁참여
▁methods
一样
▁granted
▁산업
▁veren
▁Tä
▁阻
mba
iling
PF
▁hata
▁ဒါေ
▁posisi
鬥
പ്പോള്
ási
ترین
▁succes
▁област
▁épreuve
▁formação
kkal
▁없이
▁ยอด
▁международн
▁aastat
▁Sarawak
▁vry
▁микро
otta
ائر
▁Produkt
▁عرب
▁여성
▁мост
▁描述
▁reprend
▁Money
▁einzelnen
▁富士
▁tera
▁Moscow
िस
▁percorso
▁density
ႏွစ္
▁keresztül
▁kh
▁começar
레이
▁ziet
▁होगी
▁Сол
▁trust
▁hidro
წ
ót
▁dud
חוץ
▁concepto
ათ
٪
▁nostra
▁Io
▁weten
▁খা
▁уақыт
▁apparition
▁அரச
▁続き
▁HI
ेट
▁Taman
▁分野
ıyla
▁संबंध
▁Soo
▁arrested
▁inge
▁Colegio
56
meisterschaft
▁بول
▁өтті
▁mekaar
財
▁moontlik
▁फक्त
▁מל
▁เกิน
▁纪念
▁kodu
▁passando
▁mismos
▁caccia
▁überwiegend
▁végül
▁நடத்த
▁ลักษณะ
▁difesa
▁ficar
▁이야기
▁basse
▁Paar
▁چل
블
جة
▁संख्या
όν
جر
▁Hasta
▁ประตู
▁довольно
▁іске
▁輪
▁meerdere
ித்து
▁หมาย
▁持续
▁fuel
▁Richards
▁szintén
ירות
чка
வேண்டும்
▁khas
▁balat
▁درمان
▁asli
▁கல்வி
▁islas
▁castillo
▁epi
▁桂
▁successive
▁serious
▁großer
ância
▁Vand
▁тар
kkel
zos
研
▁மாதிரி
▁lettres
हार
▁Vista
▁gradu
▁gebruiken
▁จิ
gata
▁इसमें
▁井
▁terlal
▁ביום
uksi
▁tool
▁breed
魂
▁stammen
▁señor
▁maks
ంత
▁Connecticut
ーブ
▁കാല
▁ट्र
牛
▁Abdullah
▁答
▁banco
▁secure
▁хотел
付け
▁نفسه
sdorf
▁tuyể
树
▁Ανα
▁ใช่
▁khóa
▁dedicado
▁दूसरे
▁sisse
▁corner
▁軌道
▁yellow
▁reserva
▁қай
▁Musta
▁nombres
▁双方
▁秘密
גם
▁ред
▁экономикалық
▁respective
▁మొ
▁occurred
နည္း
▁heißt
52
▁洞
發展
▁各种
aya
▁空间
nig
▁ég
▁joué
▁众
▁Mozart
▁oda
▁有效
▁业务
▁期待
INA
▁tira
iệt
▁従来
▁reconocimiento
▁길
▁eyes
リス
اح
ough
▁اعظم
▁Kha
▁emperador
▁സ്വ
▁József
ชั่น
▁қа
▁מגיע
▁vég
▁vedere
▁mixed
ട്ടി
▁撃
▁παιδιά
ító
竹
▁รูปแบบ
▁fazendo
▁urbano
ivät
ุก
נר
▁westlich
▁扩
▁judicial
tech
▁Здесь
▁Between
▁Military
▁Poker
▁rece
▁กิน
▁พลัง
▁уровня
▁司法
▁campeã
▁soldats
▁decisione
▁pika
▁respond
▁পাওয়া
ein
▁Meisterschaft
▁האו
izada
▁კიდევ
▁zio
▁850
▁estudiantes
▁盤
ומה
अर
lain
▁bütün
▁Florence
▁xanh
డానికి
▁ორი
▁סט
▁敬
▁FI
▁scholar
▁書き
▁tied
טן
▁상태
▁今年
▁coût
вести
▁Verder
▁Cool
▁volledig
▁самом
▁орын
BE
ရွိ
▁დ
埔
▁ჩემი
▁dochter
▁Affairs
ộ
充
▁pria
יזם
▁жасау
נשים
▁हात
▁藝
र्
▁suomalainen
▁heat
▁奏
BL
▁Kart
▁которому
▁სადაც
▁BI
▁χρόνο
▁Zer
▁Bandar
▁วง
▁Größe
▁nice
▁Mrs
▁Suomi
▁küll
▁wys
▁välillä
▁اندازه
tores
▁клас
вышла
ving
▁लाव
▁エン
▁Ένα
▁Sera
▁ikaw
ωση
хан
يلي
ダン
▁ABS
▁Ace
▁بھ
▁selten
▁Share
▁మరో
▁tapos
енные
▁அக
▁Theodor
▁marked
cino
▁bước
▁minimal
ত্ব
▁اه
妇
▁contaba
ٹر
▁personagem
yama
ளி
▁Sebelum
▁Stockholm
▁خطر
▁前身
▁helyi
ண்டு
ళ్ల
স্ত
▁SL
▁事情
▁Bird
▁uploads
▁别
▁σύμφωνα
▁הכ
▁recibir
▁近代
▁baki
▁ίδιο
辰
滨
▁cart
▁middels
▁ευρώ
▁март
▁kelle
▁Gent
▁処理
▁icon
▁腹
▁imperatore
欧
チャ
ینگ
67
▁founder
▁contrast
▁vä
▁生き
休
യാ
▁¥
▁ministère
▁貢献
▁حمایت
▁gelijk
▁გი
גים
stan
▁Mk
▁توانید
▁60%
▁casual
敵
رار
▁अधिकारी
▁Programa
▁Pendidikan
▁HTML
▁maailma
▁comum
▁בתפקיד
▁коп
▁keel
▁класс
/7
▁保障
▁couleurs
▁trainer
▁coloca
pangan
rách
▁Kids
▁courant
אר
▁Foreign
▁üst
பு
객
าน
▁guna
tega
ház
救
▁기자
▁頼
▁utilizando
▁ဟုတ္
▁şu
▁Kane
▁রহমান
اف
▁iyo
▁국민
▁wollen
▁פני
▁보고
▁Distrito
▁Ча
▁masti
▁bron
لے
▁攻击
▁háború
▁Fernseh
▁MAN
▁jin
旺
▁broken
▁主人公
お
cre
▁cierto
▁verdade
▁körül
▁buona
большие
▁肥
▁なってい
▁தேசிய
▁Vision
▁مشخص
▁כמעט
elijk
缩
엘
▁行為
יץ
▁tratar
▁किती
▁dikkat
▁حب
▁Eisen
▁Συν
▁Peace
▁argentino
▁跡
nı
▁打ち
▁Tran
licht
▁Ruf
▁やっ
陣
▁sinto
▁購
▁Rev
▁pengalaman
റിയ
▁leitete
屬
▁Cali
▁conférence
elijke
認為
▁Kand
▁დრო
▁automobile
జీ
▁დღე
WA
▁Ihnen
▁kohtu
όταν
▁楽曲
▁Dann
▁Survey
▁メディア
▁प्रवेश
ünü
▁électrique
▁Diana
▁главного
▁Tags
▁zar
▁réalité
▁Мари
чен
▁Kok
夫人
▁حص
▁पड़
▁ranking
环
נג
▁姓
▁rep
▁بالم
boek
▁pond
אות
▁Cover
▁Alain
▁了解
▁杰
▁заедно
▁الآ
▁Opfer
iş
FS
ξη
וז
▁composer
▁Finanz
▁windows
▁Франция
▁लोकसभा
म्ब
نظر
▁Donne
▁उत्पादन
▁152
▁buried
▁شعب
▁lucah
▁消息
ുടെ
▁出席
▁seker
ami
▁usia
osos
▁خانواده
▁ақпарат
ült
▁kisebb
▁高中
▁اے
▁Dag
▁ہمارے
cc
59
爵
▁centros
▁elem
қан
▁железнодорожн
tt
▁மற்ற
▁sih
▁saga
▁vér
ולים
▁名古屋
ボン
▁bunga
弾
▁hors
▁халықаралық
ھ
▁مرکزی
גו
▁vroeg
▁骑
▁昌
▁резерв
▁منزل
EE
▁Samen
▁原本
▁स्ट
▁പെ
▁פו
▁येणार
్యం
▁ני
▁Bald
▁త్
linie
▁의미
▁顶
▁佩
sser
▁песен
▁joista
▁Bak
نى
▁最早
▁တစ္ခု
NO
▁చేసే
▁самой
▁terceiro
▁鬼
▁twice
▁rojo
▁Minas
▁Гер
tav
条約
sos
迷
▁माल
لم
▁בירושלים
▁Kentucky
▁prote
▁時には
▁kulu
▁Oltre
▁connection
▁BP
sco
▁formada
▁Hä
▁facility
▁बाजार
▁ジュ
답
▁وجه
▁πολυ
▁Bud
▁champ
▁блок
僚
▁اقدام
▁गेल्या
לר
會議
▁करके
▁കട
▁지방
규
▁Sofia
▁長期
berger
▁chacun
▁poole
▁trägt
▁misel
لات
▁maji
▁gov
▁disciplina
▁国会
▁イー
▁Oli
▁xét
▁Schon
▁Know
▁lắ
▁flor
▁כלי
▁policía
▁meilleure
▁빠
▁საერთაშორისო
▁অর্থ
▁Wet
வரும்
▁ประเภท
۰۰
▁revue
▁लाल
Veröffentlichung
▁kho
▁говорит
▁miento
▁言っ
hem
▁besser
▁enak
▁అను
▁applied
▁परि
אם
▁Egyetem
▁朝鲜
▁mí
▁salir
▁६
▁범
リーグ
▁uscita
▁vuo
ങ്ങള
▁႔ေ
▁weite
▁हाल
টো
▁feliz
▁မို
97
▁湯
▁زنان
▁militari
▁ႏွစ္
дары
▁zamanda
豪
▁broke
▁compositor
▁Quả
▁рус
▁ရွိေ
ites
図
▁Boss
▁cn
▁Pau
▁印刷
▁എന്നു
AT
▁Alonso
ஸ்ட்
▁Finn
கிறது
▁泉
▁序
▁Pio
цами
▁patron
num
▁楽し
▁cidad
▁측
▁сега
avam
弃
▁毫米
▁remplacé
▁والد
villa
▁นาน
랜드
kari
აძე
მი
▁élève
وى
77
▁Olen
▁人类
▁Hop
▁指摘
▁Dec
దీ
▁пользу
RE
ś
▁Rangers
كة
▁利益
▁DIY
▁细
▁פחות
বা
pä
▁Aziz
95
▁משרד
▁yerine
ğ
▁frères
▁precio
▁AND
榮
▁uite
▁Kauf
▁чист
▁Ро
▁tap
ドル
▁ΠΑ
▁nehmen
شد
▁nông
▁事務
▁असताना
mate
▁álló
▁zuletzt
▁राह
▁tipi
மோ
▁으로
▁دم
▁davanti
▁జగన్
▁Semua
▁войне
▁eletto
▁асыру
▁ikka
▁Мак
▁영향
▁assume
▁произ
▁í
▁nuôi
▁valo
▁பள்ளி
ஷ்
▁menambah
▁Islamic
▁rápidamente
▁圖
▁夺
▁Serbia
▁극
▁Terry
▁மனித
▁представители
▁Kala
▁könyv
▁Paper
▁aard
▁Commonwealth
▁motiva
úr
▁fondée
▁ок
▁площади
ோர்
▁Corea
▁realizzazione
▁కుం
▁السعودية
▁divided
▁جریان
▁โอกาส
▁BS
▁Город
▁второго
▁広告
▁anual
▁связан
▁lascia
▁伝統
anne
ांमध्ये
▁constitution
▁ガス
▁calor
国道
remos
▁horiek
▁vragen
▁serial
halle
▁相互
वत
▁दिल
▁Европа
▁Engel
▁inner
▁récit
▁tape
▁Mwen
▁行き
▁определя
▁เร็ว
▁Карл
▁izin
▁آمده
נן
▁Hunt
cat
▁ért
▁bike
▁saad
▁segurança
▁zwölf
▁заң
▁speech
▁футбол
▁Ida
nk
▁పెట్ట
▁сатып
istic
▁Ave
▁Ángel
▁Kino
▁פעילות
▁Sei
▁オリンピック
▁viola
▁écrivain
▁Paulus
▁শুধু
▁ทั่วไป
راد
▁nasıl
▁এবার
ANA
▁rode
▁fogo
▁حسب
▁畫
▁productie
▁hergestellt
▁이에
hon
tuko
▁instant
▁tecnología
▁authorities
NS
▁aurrera
▁любов
▁Hudson
▁electric
▁দেয়া
ARI
ésére
▁extrême
alla
▁இன
▁docente
agdagan
▁題
общей
▁紐
ิก
▁õ
yō
▁everyone
▁kufanya
ალური
ане
76
▁tro
ulan
dere
▁യാ
▁இவர்
▁呼び
▁храма
▁دین
▁bí
▁Nguyên
▁ưu
▁Эр
కం
▁তাহলে
▁Мария
ίσει
▁hadir
ора
▁bạ
幅
▁pension
▁eindigde
ates
▁720
▁במאי
▁বিরুদ্ধে
▁Fine
▁cánh
arte
▁vertel
▁kust
▁karoon
▁Funk
▁המס
မ်
징
▁faixa
פות
▁അടുത്ത
▁assistance
ани
▁oop
▁圆
▁Felix
顯
▁beni
tief
ĩ
▁لك
уд
▁компьютер
▁Zero
▁설치
▁Κο
ability
▁مجال
▁essential
▁Ту
▁Environ
שרה
▁主角
▁Among
▁ألف
tch
▁突然
▁conception
▁disponibles
▁отлича
▁aksi
▁televisiva
head
▁haha
▁saúde
▁Thị
▁主持
▁capilla
rios
▁demand
▁訪れ
▁പൊ
▁Athletic
▁計算
▁sajan
یق
▁மூன்று
して
▁อันดั
▁穆
기가
מון
▁stagioni
▁術
▁违
▁brengen
▁調整
▁결정
▁飯
▁στ
▁некоторо
toi
▁トゥ
刀
▁前後
▁Aki
که
▁ارتفاع
▁발전
▁הז
▁Edinburgh
▁Wit
▁Ху
▁nacque
▁chim
▁continent
▁criar
衆
▁IL
▁ஜி
▁difficoltà
模型
▁فلم
▁播放
éről
▁causes
▁فرهنگی
▁Θε
▁רבה
▁colección
▁Boris
ビン
▁安定
▁discuss
গত
▁corriente
▁azione
▁兒
▁души
▁actief
▁शिक्षा
▁лов
▁paix
▁滿
81
▁formando
▁judge
▁دنبال
▁alcohol
▁namiento
isto
▁업
▁ఒ
▁อําเภอ
▁25%
▁noble
▁invita
▁gép
▁രാജ
בל
假
▁森林
▁females
▁Па
▁futur
▁严重
▁ఇక
▁басқару
▁chiese
▁istri
овать
▁256
▁رہی
сін
▁হে
▁করছে
▁образ
▁地点
獄
▁آم
▁южн
▁animaux
▁kut
▁halten
▁Eye
▁销售
▁gestión
▁dedicato
▁bandas
▁养
La
▁樓
▁сего
▁Ел
▁arrivo
ipun
▁Sobre
▁brown
▁قدر
wissenschaft
▁soir
കം
▁külön
မိ
▁Bruxelles
▁матчей
שרת
▁11-
▁territory
▁copie
▁найти
▁వరకు
▁complesso
紋
יחה
▁努力
干
▁Admiral
▁pieces
▁Amar
▁kaste
వచ్చు
▁propósito
▁เว
BB
▁Ер
▁परिणाम
▁hầu
▁regresó
▁เป
▁dessin
▁意見
θεί
イズ
폰
▁нам
▁projets
▁relief
▁לראות
gau
▁월에
მის
टिंग
▁dị
▁Parma
▁မည္
▁ul
▁погиб
▁鋼
▁maschi
▁engineering
▁玛
▁സിനിമ
▁بنسبة
▁사이트
▁암
▁宣言
akan
▁musicales
들과
▁violent
▁坑
▁arrêt
▁ช่อง
▁مشکلات
要素
▁regio
▁settlement
▁públicas
▁בש
▁المر
ringan
▁बघ
▁fondateur
▁మాత్రం
бо
▁生じ
▁动物
▁danks
▁فکر
▁capitán
▁Filippo
▁概
▁Escola
ობით
ణ్
▁အိမ္
▁märk
ファー
▁തന്റെ
▁канал
▁indique
▁durée
▁nood
▁गयी
punt
▁否
▁Kinh
▁commande
לכן
▁maggiori
▁->
▁probablemente
claró
71
▁remember
▁polizia
▁perspective
ура
亿
▁衰
▁Ralph
▁統合
▁улице
ீ
親
ania
▁קשה
▁сторону
ွဲ
chten
▁नवीन
▁നടന്ന
▁годаря
▁בסוף
▁Bagai
▁boys
▁Berufs
▁sonora
▁תר
▁鲁
▁lait
▁actriz
▁倫
▁welcher
▁Soldaten
▁aikaan
गड
▁paket
cado
▁Nicola
▁质量
▁モー
▁Metern
▁Zar
▁Augusto
▁糖
▁Baum
▁mindestens
▁Nik
▁نمونه
▁анализ
ヶ
▁originaria
▁jawat
▁防止
▁presentado
▁languages
▁burger
ざ
gus
▁anchi
لي
▁מעט
▁函
▁weather
▁სამ
▁финансов
▁facto
▁tornar
范
部屋
▁ていく
▁চি
▁Prä
blad
حن
ike
▁αυτές
▁Scho
▁lumière
▁poll
▁دیکھ
▁row
قدر
ावा
▁airport
▁తప్ప
혀
▁organizzazione
▁góp
▁letras
▁restore
▁supérieure
伟
hel
తే
▁Metropolitan
▁ימים
▁कॅ
▁põhi
ాలని
יפות
▁económico
▁慈
▁Olivier
▁悲
▁öğretim
▁Stuart
▁joiden
▁Amy
board
▁胜
▁Perry
▁switch
wahl
▁пан
▁شرق
▁ข้าง
ട്ട്
▁Leg
▁parlement
▁mayroon
▁гидро
▁ちゃん
▁oppervlakte
▁定期
▁chansons
▁elk
По
▁Rem
▁Spirit
▁Why
olt
▁повод
▁医療
▁ذکر
▁Ari
▁शिक्षण
▁kính
▁இயக்க
▁Istanbul
檢
▁αποτέλεσμα
-50
▁asu
зу
▁isu
▁گران
▁پو
▁играх
▁పీ
beck
▁implement
▁Queensland
▁Stahl
▁উপজেলা
▁Michele
ларының
ั้น
▁жағдайда
▁wichtige
▁Such
▁ഗ്
▁Yh
med
▁حر
▁Ful
▁duda
▁Partito
▁คง
▁приходит
▁siti
▁قادر
mist
סים
▁közös
▁trờ
▁ming
▁арасында
▁kahe
▁crash
▁တူ
▁animals
inden
▁기능
lice
▁venir
▁追い
ধা
▁Mitchell
ึก
▁இங்கு
▁Pää
▁cadena
▁स्पष्ट
▁Planet
tzaile
▁nuestros
▁állt
▁Abteilung
▁सामाजिक
▁piedi
вшей
▁นาง
▁lebt
▁Libre
▁Philosophie
▁పేరు
▁Unione
gebied
▁Handel
▁игрок
▁médecin
वाद
▁toimii
▁trama
护
ซ์
सं
▁収め
eiros
▁толкова
▁bertan
▁боевы
▁வாங்க
灵
cas
иране
▁monta
лай
▁思わ
▁protección
尼亚
▁Guardian
▁comments
▁български
▁Brut
▁आवश्यक
▁seien
▁Marin
▁定義
▁береді
ளை
▁đốc
▁giornata
▁Bolivia
▁artistique
▁أبي
▁جنوبی
▁desarrollar
▁ettei
رى
▁API
▁कं
▁육
▁ilha
まる
▁готов
▁योग्य
ukan
▁معمولا
▁వు
▁עקב
▁Chí
▁mại
▁blind
▁ரூ
▁침
kir
▁venti
▁Salz
童
▁офицер
▁eigentlich
▁வே
▁aspects
▁思っ
▁数字
▁tán
▁größere
בא
▁सुन
▁mês
▁accessible
▁piezas
▁своя
▁உரிமை
▁tram
ம்பு
ൂര
▁willen
▁laurea
▁streng
▁κρατ
hit
▁รายละเอียด
emia
yk
नल
▁commencé
抜
▁VR
baan
itu
▁secondary
▁twenty
▁Doc
▁Flo
enstein
▁人工
턴
▁وتم
応
gian
▁Tee
▁mengikut
tana
▁gem
▁खु
▁سنت
慶
笑
▁жатыр
リック
▁Lauf
▁profunda
رات
▁vlak
▁zerstört
▁ക്ര
▁Governo
▁rooms
▁сказал
▁Pla
▁franchise
▁חיל
医
▁contenido
▁έργο
▁Ма
йтын
▁പറഞ്ഞ
▁Dato
▁arbeiten
▁attenzione
▁segura
シャ
▁一百
▁เว็บไซต
▁சங்க
▁biên
dest
▁ganze
▁Province
ورة
▁salvar
▁Augustus
▁Fit
▁geprägt
▁寛
▁リー
▁Vom
cel
▁цар
▁Vat
▁hiszen
לין
▁탄
▁იქნება
▁عنه
ٹس
▁exclusive
illon
▁عامل
▁Emper
▁Ellen
▁需
眠
EY
ыңыз
ските
▁giai
▁كي
▁緑
EF
▁Và
▁ירושלים
▁ор
利亚
▁ఎంత
▁pruebas
რო
▁mengo
▁nặn
▁ہوتی
▁instruments
▁난
▁днес
▁じ
ище
▁bestehen
▁publicación
▁贈
▁ubica
렌
▁沖
▁ending
▁लिख
▁произведения
▁desire
▁particolarment
▁назван
▁輝
▁芸術
▁Seksi
▁สําเร็จ
ங்கு
▁記述
▁盟
▁Fern
▁édifice
VP
▁మంత్రి
▁cargos
▁Αρ
▁Dennis
▁Vic
▁सदस्य
rian
▁joissa
мыз
▁雖然
▁이라고
▁രാഷ്ട്രീയ
▁Darüber
▁levy
▁cấu
lina
▁относительно
ంతో
▁Sole
vez
▁séries
▁protes
▁изменения
▁แต่ละ
▁francesi
▁Yi
▁kot
τον
ических
▁méter
▁사람들
▁Sep
▁Fútbol
pool
verband
▁联系
▁9%
▁Heiligen
▁உடல்
▁Jong
▁အခါ
▁سوال
▁فرهنگ
▁catch
▁destination
▁gử
▁piloto
▁兰
▁ဆုံး
▁проходит
▁đọc
▁قبول
▁soorten
▁GA
▁minyak
▁hydro
▁يقوم
▁Scar
▁西方
▁frecuencia
lerle
ثر
▁равно
▁perust
▁Bug
▁diverses
хме
dale
▁turva
▁trattament
▁hiru
▁kategori
▁Apollo
▁valmis
▁модель
▁pesquisa
▁vuosi
atura
▁석
▁retraite
▁parle
▁سایر
▁kullan
42
▁項目
ത്ര
രെ
▁מונה
▁싶
▁Geschäfts
sor
▁yapma
▁Rodrigo
alis
▁сборную
ింగ్
▁nessun
▁Rossi
▁পে
▁ลูกค้
▁Parlement
▁彭
▁reduc
▁العالمية
مین
▁অংশ
▁melhores
▁savaş
▁کنترل
▁Hess
▁fl
▁העבודה
▁defender
ရေး
▁oitti
ジュ
▁funding
▁excellent
▁αφού
llen
▁Ple
▁leve
▁矢
▁प्रदान
నూ
▁Grün
ょう
▁البعض
袋
▁ဆီ
mien
诚
▁实验
▁Enfin
ையில்
▁Pic
▁lähi
싱
دت
▁создани
▁дальнейшем
▁целом
▁আস
▁자유
▁제작
ல்ல
▁Copyright
▁స్వ
▁manter
stus
▁fortuna
▁Agency
▁unable
ỷ
ITA
اط
▁sait
ניים
▁tumor
▁Tuo
▁രു
fs
▁ş
ิน
▁americanos
▁क्रिकेट
▁Grote
▁lucht
▁мар
কাল
▁있을
▁حکم
▁Сергей
▁salvo
▁ibig
▁fund
▁employed
▁扎
▁keha
머
▁ഫോ
溝
▁phậ
▁寝
▁درجة
▁siddett
▁Pearl
telen
▁ouvre
▁Rosario
▁duidelijk
▁любим
▁Oklahoma
▁mềm
פעמים
▁ниже
▁fuoco
▁कळ
▁Spider
▁confronti
▁Kemudian
▁обороны
▁Blut
▁استاد
▁처
▁derrotado
▁出任
▁PL
▁messi
ങ്ങളിൽ
unan
▁感染
▁altında
▁负
▁ज्ञान
▁Kang
▁somente
▁аудан
緒
িম
ял
▁alusta
▁姉
▁agents
▁dun
▁商业
▁lood
▁Шу
ษ
▁peri
梁
▁lecture
él
बल
較
▁aplicación
▁luma
▁রো
▁perdió
▁شہ
▁第五
▁ప్రభుత్వ
▁מידע
μιας
▁affect
▁வழங்க
▁partage
▁basado
char
▁出し
▁مقدار
▁kondisi
▁participação
▁fly
▁дивизия
ITE
▁hút
▁Оның
गे
ardi
▁நம்ம
ается
▁authority
▁uniform
ции
press
▁passant
adó
▁vọ
voir
▁отделение
▁barat
되었으
ברים
▁აი
02
tör
▁בנו
▁לעית
▁קבוצת
▁시스템
▁свят
거나
▁شی
▁Klima
▁巴士
▁younger
▁деца
▁options
ూరు
▁తెలు
▁하였다
▁Kho
▁unut
▁எனது
ān
▁ginawa
▁fields
oko
▁Singles
▁arquitectura
▁খান
▁Scha
▁tulis
▁လို့
▁deben
▁袁
▁Stefano
▁มหา
ают
▁यहाँ
▁anne
▁liquid
▁७
โร
▁Track
▁制御
ורים
▁Cream
▁सौ
▁gazte
क्
allowing
▁fini
▁アンド
▁журнала
▁kola
▁cập
▁кандидат
jában
▁大家
▁ин
▁május
▁趙
pes
▁sluit
▁Tampere
▁مجھے
▁gala
▁continuó
▁Première
▁晴
▁Lees
▁indígenas
rite
▁Javier
▁laps
▁Century
hala
札
▁условия
4]
覺
gt
▁dini
▁rates
▁ple
▁எதிர்
▁நடந்த
AMA
▁Tämän
DM
ాలకు
艘
▁Israeli
▁naturale
ட்டை
ებმა
▁sentence
▁Verwaltung
ാന
옥
▁ontvang
▁nations
▁занимался
pping
▁競技
เตอร์
▁Weiß
▁এম
يك
hường
▁链
▁irmão
კ
▁شدند
▁jarri
▁譲
▁कैसे
▁chosen
▁Belgische
▁approved
▁попытк
▁восток
▁деньги
पूर्ण
▁২০১
▁dollar
gens
▁დამ
▁效
▁יהודי
▁respectively
▁június
▁ám
▁vehicle
▁ngắ
CT
▁Member
▁歐
ain
ارت
იც
ítő
▁கருத்து
▁Oak
▁settled
▁toinen
▁जिस
▁歷
▁doce
▁မင္
▁跑
▁แทง
▁صنعت
▁دفاع
▁organisé
הם
▁แผน
န
▁گھ
▁בנושא
xe
▁سین
ائية
▁inclusive
▁heure
▁स्तर
esti
▁உங்களுக்கு
▁gift
spel
▁बैंक
▁проблемы
▁दिस
unun
▁selection
▁شورای
▁投資
▁MHz
FT
welt
▁köy
▁تھے۔
▁الوسيط
داد
▁amel
▁cri
forming
▁fratelli
▁χρήση
▁vierde
▁141
GM
▁ระ
▁tenne
▁trein
betrieb
lek
▁görev
▁εγ
கி
▁強化
▁trabajan
続く
▁harm
ده
▁Pian
ढ
uel
▁மத்திய
▁自动
▁Editor
▁daarmee
▁саны
塁
▁Ey
▁impacto
▁珠
▁ရာက္
▁creare
▁brothers
▁oben
▁isteri
▁ലോക
▁Problem
▁distanza
▁намира
▁FF
輔
▁vesi
▁Fen
▁disc
▁بانک
▁الفترة
▁Deportivo
▁市立
▁elezioni
▁ajili
▁fundador
▁Canon
▁egyre
▁ভাবে
נק
▁卫
▁abbia
▁مار
▁โจ
▁risque
▁lalaki
▁жители
▁حفظ
わり
tuz
ნო
▁меж
▁правительство
▁dalk
▁വളരെ
▁Ahmed
▁usko
裕
hy
ล์
缘
▁계속
▁intention
▁gaur
▁guardia
▁المللی
LD
▁intervention
miz
▁stijl
▁吳
▁Emmanuel
▁passes
▁Великобритании
俊
▁تصویر
▁গিয়ে
▁silang
▁podrá
▁Shaw
▁mendi
▁กอง
▁unserer
▁IU
▁strip
▁战斗
▁sondere
▁まず
▁Wein
ир
▁寻
pre
빈
▁Linda
▁ギャ
▁selling
▁학교
▁ビー
▁裁判
▁bell
▁ছেলে
▁Dua
▁রে
▁покинул
cz
▁หนังสือ
▁easily
çu
▁ბე
▁previa
▁Ibu
▁მათი
▁ისე
▁степень
▁demasiado
▁sonido
▁भाजपा
▁movies
ידה
▁عراق
ति
ATA
▁inkább
▁отдела
▁tuak
▁sides
▁McG
▁pump
tara
▁Alemanha
▁虚
सह
град
▁alien
▁음악
▁broad
▁Jeanne
▁ай
▁pem
▁เที่ยว
▁NET
gos
▁millió
cabou
▁首页
▁Plant
▁पाय
▁spos
ستر
▁wapen
werke
▁Ор
▁programmi
▁glas
основной
▁Bangladesh
▁الجديدة
▁Triple
▁organismo
▁erbaut
ტო
▁వచ్చే
▁tune
סת
不断
▁Salt
אמן
▁Technik
jet
öffentlichen
▁adaptation
▁valtio
▁有人
▁Verfahren
胎
▁Fried
▁形態
لاء
zig
stimated
▁குழந்தை
▁Ő
▁हाथ
▁Rag
▁jovem
ego
▁ဆာင္
▁letra
▁революции
▁뉴
ുമായി
▁プ
로부터
▁శ్
ieri
▁比べ
▁orta
онымен
▁Pina
▁لهم
▁벌
▁mbalimbali
▁სულ
▁わか
▁سان
▁செய்யும்
▁注目
▁guitarra
▁হোসেন
▁ஆர்
▁bands
▁nef
▁Англии
▁avons
▁legno
▁대부분
ின
rado
▁ঝ
▁Malgré
▁дам
রের
▁tutki
▁माध्यम
▁Questi
▁Doktor
혜
▁funciones
▁伤
▁Giang
खा
离开
▁poderes
枪
▁Hü
▁флот
▁promote
炉
▁análisis
▁peaks
敬
▁נע
hật
梯
col
▁関東
▁珍
▁Guard
▁سکتا
▁elokuva
▁هند
▁Engelse
▁意大利
чев
▁перевод
▁intervento
▁кончил
kum
▁выпуска
▁serves
▁pendapat
▁Tres
▁Australie
▁プレイ
▁அல்ல
▁ابتدا
▁kasu
▁seguro
▁Rak
显
▁Россия
▁órá
墙
▁ခင္
tà
▁hosted
roy
▁पेश
▁drink
▁вывод
▁мере
▁Tea
進行
▁Abd
▁lograr
▁niño
ΗΣ
▁1080
突
▁drag
▁bildete
▁theatre
▁向上
▁piccole
▁ними
▁Search
▁gras
▁yarikat
▁monumento
▁petites
▁hír
▁jeden
▁צי
▁composée
▁المجتمع
சா
▁苏联
▁ვარ
▁改为
▁यु
ило
ニック
ността
▁rente
▁فوتبال
▁Spence
▁takaisin
▁اللغة
▁菲
▁1780
▁قطر
靖
▁Mother
తీ
▁രാ
▁ဆံုး
▁сот
▁Pittsburgh
▁英雄
▁mật
▁menulis
▁blijk
▁begins
▁faktor
響
▁dunque
व्ह
IZ
▁Sinds
▁сделал
▁Bun
▁paroisse
▁Española
▁kelompok
▁станция
LM
atus
▁október
▁erős
▁archi
▁halb
▁আম
▁déclare
▁விலை
▁genti
廟
▁阳
▁φιλ
▁nomination
▁ดิ
zeichen
▁Mori
▁True
▁Solar
▁เตรียม
▁Explorer
▁topic
▁வருகிறது
▁verskillende
▁contoh
körper
▁バイ
hilfe
▁funds
▁25-
▁ကိ
▁石油
▁actuación
▁kaysa
раз
▁vitória
▁წარმო
ango
▁开放
▁നില
▁桜
▁епископ
▁даму
學生
brand
▁abbando
煙
▁デート
▁heidän
請
▁Kum
剂
▁嫌
▁hasi
▁geç
▁amante
▁lijn
▁flora
▁כוח
▁possibilité
▁위원회
▁ξ
▁bottom
▁yleis
▁біз
▁Kapelle
▁पोस्ट
▁mende
▁Ở
வரை
▁Ronald
▁هنا
▁漁
▁trek
▁لباس
▁Sağlık
▁NCAA
▁دختر
折
▁Talk
▁ভাই
▁اد
peserta
▁วา
يع
▁Pom
▁コーチ
▁累
▁loom
▁材
▁stessi
▁Osmanlı
आर
▁अभि
▁Baltimore
▁赚
▁Article
ைத்
▁Watson
isa
▁zat
▁CB
誉
▁سخت
▁reca
ုံ
▁混合
▁étage
▁タイム
▁Rachel
▁भूमिका
museum
lito
▁dispositivo
ины
瓜
▁天文
лері
▁modelli
▁GM
▁সম্পাদক
▁需求
커
▁tarik
▁銃
ukat
▁تس
▁passado
اه
▁pera
▁devlet
▁consul
▁テーマ
▁ә
ters
▁команде
öm
▁rajo
इ
▁Anzahl
▁Rau
▁語っ
▁Grammy
▁turbo
▁पाच
▁வைத்த
hấp
▁Omda
ंब
▁തട
▁scan
▁agrícola
▁Johor
▁bumi
▁บริหาร
▁แก
▁麥
▁diesel
উ
▁berlang
▁belong
▁utile
hou
سن
▁服務
▁撤退
kopf
▁подписал
▁sano
▁известен
▁خوان
▁números
다가
▁メイン
▁Ortsteil
▁കോടതി
▁Fantasy
▁emberek
▁task
▁рак
▁新加坡
ít
ึง
▁comportamento
▁bermula
xia
hart
λου
▁MK
▁Giappone
▁incluía
ילה
▁になると
▁Bla
▁139
▁Сер
존
▁shape
▁مزید
ிலிருந்து
▁çeşitli
▁μπορούν
▁мектеп
PU
▁Esi
▁Metz
▁grow
84
▁kalan
▁Larry
▁مسائل
▁idioma
▁représentation
엔
▁ET
▁0.0
▁lien
▁وزن
いう
▁פרס
▁propone
▁Spielzeit
▁プロジェクト
▁bekam
▁conti
▁quần
57
戒
▁Sweden
니아
▁últimas
▁कुल
▁மாற்ற
▁appeal
▁concerto
▁vra
▁числа
기는
했
רס
▁gehoor
▁jobs
▁米国
gelegen
▁lados
▁Terdapat
▁Hạ
▁sắ
▁Nico
▁современн
lí
ണി
▁cappella
▁கொஞ்சம்
▁действие
KE
çi
▁klass
aldi
▁အခ
▁ערך
tón
▁أيض
▁Adel
▁kek
▁建て
ὰ
▁pagamento
အား
▁nacionales
▁blues
▁ボー
▁違い
▁شي
नं
▁ánh
▁непосредственно
▁Sinne
lings
▁edilen
▁kasutada
▁الأسرة
▁никогда
▁maanden
▁Obwohl
بات
▁終わっ
▁hep
▁Lock
كي
슬
ését
▁enthält
όλες
▁좋은
▁đế
▁בלתי
▁తె
▁gone
▁WM
今
שׁ
▁exército
▁ออกแบบ
▁capace
▁좋
హా
▁sì
लेली
▁genitori
▁misión
▁破壊
▁лат
▁될
یات
▁loo
▁कला
▁엔
▁Laufe
liku
▁ammatti
ē
▁hojas
▁สวน
▁財布
▁ар
▁VN
▁fela
▁ভাল
▁bleiben
ilo
▁않고
CL
▁Leonard
▁unité
▁kapi
▁περίπτωση
5.000
▁éducation
▁取代
▁РФ
1]
▁megfelelő
▁täit
▁רו
▁Zor
▁Tư
▁राष्ट्र
uß
رق
▁templom
▁отново
▁Labour
▁understanding
▁efficace
▁severe
▁सामान्य
▁Tradition
▁لگا
▁వల్ల
овый
▁محصولات
▁桥
SH
గానే
▁келе
▁Weber
▁ხელ
▁hoà
▁Contra
▁ragazzi
▁ultime
▁抜
▁Führung
▁原子
▁hof
▁ไฟฟ้า
▁Bernardo
▁empire
GO
▁戸
▁జ్
▁น้อง
gruppen
▁Schriftsteller
▁كر
▁denken
انے
▁เลข
ഞ്ഞ
▁ככל
访
勞
▁raccolta
▁nő
ニング
▁Diamond
▁cookie
▁Dünya
▁copies
▁Kelantan
▁tốc
▁хората
▁poche
த்தையும்
▁TS
▁สังคม
▁провинции
▁ganado
holm
fanya
▁ഡോ
پر
▁jarige
▁Ac
▁choose
▁இந்தியா
▁fábrica
▁नदी
शे
▁крест
▁தோ
یاں
幸
▁models
ưng
▁thử
▁Ленина
̉
▁โปรแกรม
储
▁Hawaii
átor
▁Einige
yy
▁आया
▁대회
алық
▁Ira
▁ছোট
▁auszu
雜
▁déli
▁distingue
▁false
MT
▁लगभग
▁atra
▁تح
▁Европе
▁description
▁Senator
▁人生
▁Claire
▁θέμα
▁yakni
▁时时
ၤ
▁tadi
sun
▁கொடுக்க
▁ரா
కో
▁адрес
vár
▁იგი
▁сюжет
▁כשה
▁арнайы
▁cuba
▁所在
▁romaine
trúc
▁lỗ
▁август
▁있었
abile
▁Schwester
▁आमच्या
▁carry
▁Initiative
▁väli
لام
▁nouvel
▁বেশ
▁Mio
شی
▁Hub
▁жу
▁缺
▁Early
▁envoyé
▁처음
активными
▁Ark
▁samalla
▁입니다
▁parcial
▁설
▁standards
▁domain
▁Mặ
▁expert
▁fondé
▁pensar
▁করবে
▁Στη
▁szemben
▁हूँ
▁தேதி
جد
▁Кубка
▁مج
▁SG
▁उसने
जे
▁BL
▁recuperar
▁மாத
▁potente
▁πλέον
▁criado
▁военного
▁接続
▁合成
ိုင်
utorità
▁Viele
نٹ
險
▁トレ
▁FE
▁nakin
▁Conte
sek
▁東海
لس
▁สถานที่
▁معرفی
gou
▁anim
рек
sik
ела
▁defini
▁épület
▁maniera
▁Ris
▁observe
יהן
▁siz
▁rejoindre
▁similares
bouw
▁गिर
▁tribu
▁vormen
▁scompar
▁toon
▁piti
नगर
▁جي
▁企
未
▁evening
▁বিষয়
ânia
▁ซั
قول
▁Kementerian
▁Waffen
▁చూడ
液
▁आने
▁落ち
▁belge
▁fokus
▁വൈ
▁కేంద్ర
▁გვ
▁手段
▁syö
tino
▁commissioned
▁一段
ხ
▁slaap
ʿ
歡
▁Undang
▁pH
▁Unternehmens
▁сақтау
▁успех
▁Moro
▁Tibet
▁permitió
▁kuitenkaa
קות
▁постепенно
▁kuului
▁汇
▁โรงแรม
▁ұ
▁sostituit
▁شناسی
▁connue
▁NC
▁Hul
▁اجرا
▁diper
▁белгілі
▁തോ
ám
▁kenyataan
▁บุคคล
▁имели
▁抵抗
▁hawa
▁主力
انية
berry
▁ပုံ
▁বিষয়ে
▁أس
▁textos
▁रख
▁จําหน่า
isco
佳
▁Wing
친
▁начальника
▁それら
త్త
▁بارے
▁câ
ζ
▁находятся
▁сбор
▁描か
자를
-22
рт
▁passare
▁tanya
▁данни
▁namens
▁之外
厚
voor
ப்படுகிறது
▁邮
▁brigade
▁Seura
▁الدم
▁signifie
▁Forces
cil
▁aparición
▁eginda
▁sociedade
lli
▁모습
▁muiden
▁cắ
▁scoring
سازی
▁指挥
▁被害
▁လက်
خر
▁ház
▁gets
▁trà
▁王朝
▁Zentimeter
▁scientifique
▁quota
▁classic
▁pict
น์
▁Allerding
▁pha
▁parang
▁jeweilige
▁dedicada
▁개인
လဲ
▁wins
▁tratto
賛
sivat
▁тро
कल
▁伝え
▁phút
▁創設
llis
▁Daarna
▁taux
▁Register
▁temporar
▁рекорд
▁პა
▁niveles
▁জীবন
▁ఊ
▁loja
ილ
โก
▁Го
▁歯
▁Giá
▁काँग्रेस
▁拓
▁denominada
▁território
inä
▁тест
ঞ্চ
▁Cell
▁1980-
▁ahí
灯
▁Ming
▁partecipazion
▁tratado
ической
▁วาง
▁huge
▁かけ
ళ్ళ
▁silah
번
ネス
▁演じ
▁separa
▁అవ
▁силу
査
▁bilin
▁Ге
▁faça
宰
麼
▁afroamericano
▁бассейн
-23
▁gehörten
▁страната
▁descend
▁諾
mir
▁bisnis
dang
▁染
▁لدى
pide
လား
▁スタート
ിലേക്ക്
▁versche
▁ရှ
▁découvre
▁अधिकार
▁correr
▁штаб
▁calles
▁パイ
▁appelle
بين
スク
▁decline
▁hitz
▁Potter
▁boz
▁不要
▁卓
нат
▁direta
▁しようと
▁خیال
▁variable
netz
▁外国
▁一致
▁tett
▁онда
▁lad
消
▁tablet
▁мор
▁370
▁نفت
ошли
▁дворов
▁Че
▁antwoord
tul
▁lanjut
▁丰
▁ámbito
iyle
▁Philippine
▁আন
▁၇
blatt
инской
rias
▁vivre
▁factory
▁corsa
▁uue
▁parasito
▁Portland
▁polo
▁पट
▁helyen
▁亮
▁baş
▁始建
鄉
▁сайте
▁отряд
▁asiáticos
▁группу
拉斯
▁Indi
▁沉
脱
▁মুখ
▁לע
ジャー
▁Regisseur
▁अलावा
▁kivi
▁отправил
ဇ
abilir
▁volumes
▁kasvu
▁núcleo
▁rito
▁Baha
▁parecer
03
▁vala
pé
▁ডে
▁conhecimento
▁ارسال
sinin
▁菜
▁ครบ
▁高雄
Φ
▁producir
▁คาสิโ
▁बह
▁saanut
▁ترک
ებას
▁graves
▁בכ
tari
▁earth
69
▁phái
▁Ги
tong
▁Helena
ぞ
▁liberté
▁observ
داء
rekin
▁discipline
▁خدمت
▁၌
▁Corona
▁குறை
▁caractérisée
▁Christoph
转
▁Kongress
▁книг
▁斯坦
▁koms
▁soviétique
IF
eh
▁办公
▁keskus
▁били
した
岳
▁மறு
戦争
▁占領
▁孤
న్స్
▁nueve
▁枪
▁läpi
иш
▁бақылау
సా
▁బీ
▁tür
▁Links
▁Private
▁раза
读
68
▁שלושה
韓
▁jonge
▁الض
▁แทน
▁использования
▁מדובר
▁parler
▁ध्यान
▁sabit
▁investigation
▁منابع
нь
▁ממנו
▁נת
▁mannen
เว
▁환경
▁温度
ares
圍
諾
ंची
▁tenga
html
▁pitch
▁Nhân
▁สถาน
▁מצד
isée
▁juurde
▁Jaya
▁メール
▁Peu
▁passaggio
▁frau
▁தேவை
▁Mort
▁员
▁Wappen
انہ
▁alcanzó
DL
▁FR
gger
بد
▁category
▁maisons
ász
▁مطالب
meter
יד
▁Ramón
▁habita
▁बच
▁어떤
▁γίνεται
חים
▁飞机
імен
träger
tero
wali
▁こう
▁עו
▁意思
▁Friedhof
▁比较
▁അറിയ
▁Gaz
▁プログラム
▁menemuka
meer
十二
▁מד
▁Люб
▁不明
▁rapide
▁Gian
▁Interesse
̃
▁ties
▁対策
▁positif
पे
▁Stadtteil
ティー
sas
▁وع
▁Dub
▁meant
okra
▁sarja
▁Bybel
72
▁tavo
оз
▁1950.
▁मामले
▁Ξ
▁تجاهله
▁Sammlung
▁trotz
▁অভি
▁edge
▁Мал
▁Reed
棄
▁прежде
▁Koh
▁Mana
ंचा
verkehr
▁viime
rina
▁neues
ákat
▁खुद
്യ
▁Level
▁walls
▁régulièrement
TR
▁മന്ത്രി
▁herri
▁сто
▁favorite
▁書い
▁Carr
مز
▁giản
▁شک
▁situe
▁общество
▁Reis
▁sikerült
▁цена
▁shock
▁governor
▁poderia
▁lun
寶
▁Mayo
ებთან
▁بش
▁않
▁significativa
▁მარ
▁града
▁hív
iamo
宅
▁扱
▁мемлекет
ည
სთან
▁Lille
▁1.8
▁سور
▁colores
▁اردو
▁Phú
▁較
▁conflit
ၼ်
酷
囲
▁江苏
ဟ
▁strength
▁Sempre
▁обнаружен
▁Германия
▁focused
▁距离
▁നടത്തിയ
▁而是
▁రామ
▁littérature
▁председателя
▁Tah
▁انتشار
▁tuotta
▁ஜா
▁кез
▁ích
strom
ノン
▁tässä
اذ
▁Fragen
▁Bulgaria
▁تصمیم
▁普及
▁തുടങ്ങിയ
▁छोड़
▁అదే
▁bakar
▁studeerde
▁380
齊
▁teet
▁termini
▁флота
▁terminada
▁Tiger
▁သံုး
▁ดูแล
ഠ
▁entlang
▁屏
▁בתחילת
▁해당
▁wahrscheinlich
▁huvi
לות
▁ခါ
▁pasangan
ンズ
weza
▁Kana
坑
패
サー
hab
lers
▁دادن
▁artículos
▁คืน
▁τίτλο
▁chồ
▁الأمريكيين
▁ძ
▁அங்கு
▁أصبح
▁任务
▁ביולי
▁gust
▁területén
ירים
▁Güter
สึก
دير
ฉ
▁صدا
敢
▁レベル
▁gehouden
べ
రం
▁iTunes
▁Soft
▁HK
▁ทัน
▁estudos
▁bete
▁Zan
ృ
ரோ
▁Pres
▁puerta
▁وكذلك
▁정책
▁berjalan
▁Lü
▁解決
▁餐
бе
▁Grazie
▁szeptember
▁nascita
▁توانند
▁Pul
▁merah
나라
wirtschaft
▁журнал
▁ciel
▁Voice
トロ
▁股份
▁entukan
▁colaboración
▁nasceu
രാ
jährigen
▁медаль
▁פעולה
тын
▁tahap
▁בשנות
▁စကား
อร์
▁धन
▁pemerintahan
istica
▁regreso
▁hon
ric
▁ഗ്രസ്
▁collections
▁carril
▁extremo
▁إذ
▁redor
iri
atu
▁Berry
▁attrice
▁ป้องกัน
▁Ponte
▁مادر
utta
鞋
벽
▁nevű
▁사진
ప్ప
▁residente
▁সেটা
▁pendente
▁Wirkung
▁藍
▁Luís
▁Netherlands
ിക്കുന്നു
▁בספטמבר
▁losing
▁integra
▁देते
▁provoc
▁החדש
▁நன்றி
▁emploi
十四
▁quadra
mper
▁రెడ్డి
▁oferta
▁участок
ابة
ес
▁页
▁nécessaire
▁mt
▁verkauft
▁სხვადასხვა
▁具体
▁ничег
▁部長
ുമ്പോള്
▁kanila
▁Ante
▁presión
▁जाना
pati
▁बर
▁سرعت
▁انسانی
▁palais
▁independencia
▁connaît
▁पहली
銀行
ൂർ
dão
▁తర
▁romance
▁jár
▁槍
▁crédito
▁Avi
ႉ
アー
▁教堂
லோ
λη
έλ
▁ดํา
▁Universitas
측
▁Gru
78
▁Vene
かい
▁dritte
▁بهره
▁शक
▁сияқты
▁[1]
▁sección
FE
کہ
▁заңды
лес
▁légère
晨
▁daging
▁खेळ
▁Leone
ace
শা
▁Inde
▁differenza
▁Champion
ఘ
▁大使
▁JO
▁Eigen
sége
▁dedicata
▁Ciencias
▁필요
▁堡
▁tinham
▁formé
▁licencia
▁יד
▁सुरक्षा
▁igen
▁pintor
▁населённы
▁jolla
▁உதவி
osaurus
र्ट
▁enviado
▁Grenz
▁شه
▁ဆး
ลับ
மாய்
▁τέλος
rut
▁Teh
▁అంటూ
▁Nicholas
▁quell
▁régimen
licher
▁wrong
kö
▁hechos
宣
▁נבחר
戰爭
▁hectares
▁feita
▁szinte
▁считается
орденом
▁तेल
isiä
▁bagus
▁thuê
▁начальник
รี
▁사랑
▁神戸
▁สภาพ
▁мать
▁intitulé
तः
▁военных
▁מעבר
▁เฮ
▁қыз
Ã
▁│
▁יורק
▁생산
▁sezione
▁racconta
▁receiving
▁tor
▁suu
锡
осковской
मे
▁زیاد
▁מחדש
▁ganhou
▁Princess
top
▁สนาม
▁जगह
▁sentir
▁лиц
▁같이
▁belangrijkste
▁actress
▁ooit
остью
stri
▁Joachim
▁בגלל
▁Flügel
Не
മേ
▁wave
▁Ру
▁銅
▁luo
▁zeker
▁gagal
עין
ыр
▁спорта
▁เสริม
атор
▁狂
▁demo
▁beheer
▁Zeitschrift
夷
▁reasons
ిని
▁kb
▁spécifique
engo
وط
▁entsprechend
னே
▁opgenomen
▁לגבי
▁Fuerza
▁ステージ
▁keras
▁cd
▁丘
▁선택
▁היהודים
▁插
אה
▁Andrés
jahr
▁व्य
▁suicide
iat
ത്വ
250
▁lancia
▁pili
ske
AX
▁एक्स
ருக்கு
atori
▁தங்க
▁בב
▁Singa
▁roda
▁importanza
料理
▁あれ
▁Oslo
▁รอง
5]
行业
▁ojos
▁ပံု
▁pukul
▁gravi
ण्याचा
效果
▁Monde
▁Padre
▁Pick
▁部长
kko
▁gue
痛
רית
▁кв
▁रोग
व्या
▁blow
▁lyk
▁Révolution
▁Pública
▁元素
▁faisait
▁eskura
butó
▁Bola
เล
▁Gio
ூ
▁زد
▁למצוא
▁πολλές
▁appropria
▁Oost
▁ఇలా
ası
頂
▁сайта
▁drawn
妮
拟
▁Lamb
▁prefer
やか
▁১২
vere
▁MAR
▁Walk
▁dituzten
▁sleep
▁Указ
▁Xavier
eit
▁функции
▁Sad
▁большим
6]
▁備え
▁лично
eten
ော
шёл
▁होईल
▁центром
▁missä
▁категории
▁студент
▁コード
▁Third
▁کیلئے
▁దగ్గర
यी
प्र
▁সো
▁ชิ
▁সদস্য
▁líderes
▁lép
▁weiterer
▁Eve
▁Bata
迹
▁presença
▁Comune
▁Genova
▁चला
▁Grafen
热
லம்
▁usato
▁pertsona
▁ხოლო
▁atto
▁觀
seite
vil
▁Mutta
慣
▁तू
▁באוגוסט
▁maradt
▁procura
lein
▁Επίση
▁elég
зе
▁Президиум
므로
▁conosciuto
▁nguy
▁вице
άσει
▁狭
▁זכתה
sso
▁Rita
сколько
▁жертв
▁tocar
▁بسته
களைப்
▁Nokia
▁hinta
kunta
▁localiza
▁доход
▁зерттеу
▁地址
▁стиле
▁içerisinde
ари
shire
ίζουν
ونی
▁iniciativa
▁途
▁労働
▁Baptiste
▁electro
▁جوان
▁Darwin
чик
מר
▁άλλο
▁Guardia
啟
▁tekrar
▁輕
▁prosent
▁கலந்து
lijn
▁سلام
賢
вшиеся
▁pelanggan
▁సై
▁cache
RK
▁领域
▁ভি
ाया
▁اح
▁developing
▁капитан
▁خاک
▁Edmund
▁Pisa
lightly
▁ста
▁किस
ιού
▁interested
▁لعب
Die
▁வெளி
▁చేర
эр
▁ố
▁扶
▁عالی
lás
▁wine
▁Every
▁সকল
ést
▁salto
▁شاید
▁သုံး
gers
▁faveur
ফা
▁συμ
▁débute
▁Studenten
▁llevan
▁യാത്ര
▁बांध
▁बाहेर
58
▁Whit
▁больших
पर
▁Hendrik
▁फे
▁এসব
▁چاپ
▁Syria
糖
▁205
▁Vega
▁შემთხვევაში
▁император
ிருந்த
▁chóng
▁Performance
▁عقد
▁Nike
▁Horse
ota
▁wist
▁機器
況
▁Guillermo
▁eco
▁acabar
илась
▁نهاية
▁cũ
▁పద
ลาย
قر
▁پت
очки
▁कप
▁ၵ
▁העונה
▁ジャン
▁圈
▁planes
▁направи
▁ปิด
▁赞
▁Joy
▁Ensemble
ै
クター
▁ပြဲ
კო
赖
▁võimal
▁басшысы
likult
▁参考
▁буд
▁hajó
▁Пер
▁arbeitet
욕
באוניברסיטת
▁مثلا
▁articolo
▁Rumah
▁الث
▁리그
▁え
▁kadang
▁éviter
▁св
▁racial
▁siehe
▁eiland
▁สอน
▁Bitcoin
▁သင်
▁刀
лады
▁втором
▁massimo
▁Noch
▁kuku
▁Ví
▁ხ
ikan
▁झालेल्या
ঞ্জ
▁مختلفة
▁кап
staat
beli
▁rápida
जर
▁survey
▁klar
▁국내
▁élèves
▁எனவே
ूट
ிக்க
▁coin
▁Selama
गल
▁технологии
िये
▁Heim
▁发动
▁западе
লের
▁灰
▁unterstützt
ene
▁escultura
▁생활
▁१०
На
▁luna
য়ের
▁棒
▁Claudio
▁焦
▁resistencia
▁一時
▁pri
కీ
▁批准
▁ചെയ്യുന്ന
▁filles
▁Париж
炮
▁mulheres
tenção
ikat
▁Städte
LER
▁Hafen
▁മുഖ്യമന്ത്രി
▁moto
▁文明
▁трех
▁vem
▁貴族
▁figuur
▁electoral
▁главный
دين
▁봉
▁Sean
▁هفته
יום
▁ferme
▁ezer
▁לכן
▁Mem
▁ചിത്ര
▁đáp
ug
▁pattern
▁sesión
lic
▁orde
ropped
ূ
ван
▁دفع
iks
▁malige
▁树
▁南方
▁vertreten
▁修正
▁важно
▁locai
顺
▁xuyên
▁裡
▁zes
▁Σα
эль
ႆ
▁climate
▁Medio
нию
▁situação
ково
▁Italiana
▁divisione
▁Image
▁тұрғын
▁mwa
▁menuju
▁старше
▁funciona
▁训练
▁Vogel
▁Fish
▁высше
▁census
▁organi
▁Tro
▁請
קרה
▁grens
▁trees
▁enemy
▁samping
▁timento
▁detect
গা
פור
klasse
▁Iowa
▁Virgin
▁тер
ından
uyên
lakukan
сом
▁context
▁עשוי
▁wirklich
▁kehit
▁몰
▁یو
▁ทางการ
▁bevolking
titel
gai
▁kejadian
▁segundos
▁スタイル
▁امیر
▁divide
ΙΑ
€
▁duur
▁Bed
贴
▁Hoewe
▁Egli
▁nutri
▁ட
ラス
▁basada
▁cuisine
▁意識
▁基づ
▁Eduard
ინ
▁Native
▁apakah
▁보호
▁排名
▁რომლებიც
っと
▁졌다
▁שאי
▁yekit
슨
▁Internationale
rre
▁Lange
bildung
▁olmuştur
▁muoto
neen
▁assure
HS
▁employees
▁দেয়
▁аб
▁sepak
רע
ーツ
▁खिलाफ
▁raio
▁ruta
▁oyun
直後
വേ
▁принимал
▁alb
▁Luz
▁இதன்
▁וְ
ियम
▁luy
▁spiritual
▁Bernhard
▁бор
কারী
▁hur
▁ایس
▁生まれる
▁SW
▁Holstein
▁бет
▁provoca
▁Guido
▁グリ
굴
▁pendek
▁dokter
▁مشروع
▁gebouw
▁حالی
▁эм
▁เทคโนโลยี
ología
▁переехал
ę
▁Επι
▁группе
▁проходил
▁tools
▁убит
▁marche
▁Cameron
▁науки
釋
ுள்ள
▁మరి
▁習
▁陰
▁đỏ
▁话
▁鄉
▁浪
▁インチ
EO
нда
▁طبق
ലും
дин
▁スト
エン
▁காரணம்
▁tarif
▁надо
▁projekti
TER
▁14-
▁Schön
VB
▁étudiants
ーション
▁acque
▁കഥ
▁travailler
▁নেতা
▁alussa
hoff
▁lip
enses
flug
▁fatal
▁凌
▁listen
▁Indo
lian
▁trì
렸다
▁عصر
▁integral
▁जाएगा
▁熟
▁ၽြန္ေတာ္
▁pani
▁atteindre
▁pedido
▁aves
ற்று
▁fatti
▁Bewegung
▁poran
▁possession
▁恒
▁தற்போது
▁közé
▁Kri
▁evidente
▁tx
▁Filipino
▁permettan
译
טור
כות
▁BU
▁siglos
▁Method
▁上映
准
▁τελευταία
▁മത
▁ensino
▁Burn
▁Японии
죄
▁Léon
▁acto
▁улицы
▁დაუ
ที่
▁Blanc
▁fundó
▁خانوار
▁ひとつ
▁त्याचा
▁mantiene
๊ก
휘
▁viral
▁Bücher
▁basketball
▁ക്കാര്
▁narrow
▁gamot
▁Bright
▁historien
▁väri
▁söz
▁போட
▁posteriores
▁tenger
▁Upon
▁البلاد
eltmeisterschaft
▁スタジオ
▁浜
▁Avenida
▁이런
lal
货
▁puro
▁ospita
法人
▁мер
▁食べ
▁zina
▁پڑ
▁blad
▁habitual
▁इंडिया
▁eaux
탁
▁действий
▁réalisation
▁ouvert
▁చూ
▁Cent
▁Lorsque
▁mehrfach
▁トン
▁Orlando
▁verläuft
▁דר
ותיו
▁Hugh
▁وزير
▁função
എസ്
▁casó
▁돌아
▁Кара
▁စစ္
▁1968.
▁jeugd
களாக
▁lokale
▁האל
▁pc
▁medalla
▁meto
婆
▁római
▁몇
tou
งาน
▁תמיד
धा
▁Baie
▁generate
ิล
▁Essen
▁terlibat
▁Lion
▁الدولي
worth
▁송
▁hina
ωρ
▁kasva
ცა
▁Straf
▁patent
▁ท่องเที่ยว
леп
▁Много
▁なので
▁өс
▁eid
▁bull
▁crimes
▁तिच्या
▁Villa
▁ヒット
▁anderer
▁シーン
▁সংবাদ
▁férfi
▁デイ
▁стил
▁обратно
▁beginnt
▁piso
▁motivos
▁membuka
▁Access
▁公民
तर
▁esan
▁実験
▁memastikan
▁保守
▁kang
▁Slam
▁enthalten
כמה
్యూ
▁الشركة
▁Officer
▁verliehen
▁Mono
▁शो
▁职业
▁hendak
▁arah
▁武装
ikus
▁sempat
გა
▁Жан
▁склон
▁مطلب
▁Nang
▁Medicine
▁anch
▁победу
ndan
▁Freedom
კა
▁בהמשך
یس
▁bg
▁گذاری
끼
▁Sum
▁beharko
▁telle
▁Arn
▁colonia
▁保留
▁citizens
−
fort
▁감독
▁Miles
gericht
▁ปลา
ψε
ob
▁vont
▁करोड़
▁亡
ေပး
aw
tijd
▁축
▁NE
ified
▁ど
▁collo
▁إدارة
▁bangun
▁магазин
맥
▁Germain
▁nhớ
▁tota
▁conseiller
▁mát
▁-2
▁משה
▁ragazzo
KU
ıyor
▁시대
တို
▁residien
▁hoogste
▁延長
▁Fläche
▁stap
▁permitir
▁创作
εν
▁versucht
▁آی
▁xế
box
▁دعا
▁開幕
шка
taka
▁မဲ
▁comporte
立て
▁хозяйства
nelle
большая
▁выпущен
▁هست
▁программ
▁စေ
uksia
▁Großen
▁ஜெ
▁अंग
▁grau
▁HC
êm
▁Север
▁Kamer
▁exact
▁nebula
▁professionnelle
ப்பட்டுள்ளது
▁abandonar
ড়ে
▁fiesta
▁Economic
▁ъ
▁מאוחר
▁duro
AR
▁شرح
▁nut
負
▁hạt
▁علاوه
▁户
▁άλλη
▁hayo
กรรม
▁Further
▁ماشین
▁теории
▁섬
▁האחרון
▁estableció
vindt
▁sakin
▁деле
▁joko
garten
hout
▁תואר
almente
▁junge
▁kuhusu
▁美國
▁serem
اع
▁باقی
▁ദൈവ
▁textes
▁کافی
▁Madison
▁מרכז
YS
▁llegando
▁人類
▁aanlyn
▁مدیر
▁wer
▁solutions
▁குடி
▁기간
岗
譜
▁regula
▁प्रकाश
▁매우
▁ביוני
▁टो
▁輸入
schiff
▁بدأ
越し
ైనా
▁مك
▁שהת
▁प्रभाव
▁distinct
▁Kla
▁1783
หา
▁巴黎
▁jangka
▁fresh
▁或是
ี่
کل
▁União
▁lire
▁اخبار
rebbe
▁υπάρχουν
▁东南
PG
▁पूरा
▁Перв
▁dra
లూ
▁1973.
לס
▁এখানে
摄
▁входил
▁كرد
▁Round
▁sorella
▁пап
▁Future
▁voorzien
▁设立
▁famiglie
▁濃
▁البر
▁ప్రధాన
▁Τον
▁жүргізу
സ്റ്റ്
▁finit
енных
▁зависимости
▁эффект
▁యొక్క
▁Fol
▁Ling
▁amerin
▁Derecho
缴
▁pseudo
▁अगदी
▁jungen
ăn
萊
▁1.000
▁каз
▁باشید
▁bl
▁அவரை
▁автобус
▁نده
sim
IDE
鮮
▁東部
▁TER
▁Wallace
▁Panama
▁指示
▁Nabi
ạt
ーム
▁αργότερα
▁谈
▁коле
▁activa
▁只能
▁Falls
▁đen
▁avesse
▁scenes
فاء
▁Phó
▁kura
gre
▁Å
▁форме
▁ജീവിത
▁회원
▁Hua
▁защиты
kers
▁Sous
▁報道
▁Heinz
▁tornare
▁Aja
▁ธรรม
▁ష్
ικός
▁crowd
▁Aufgaben
גר
suz
▁omgeving
▁위치
▁gede
▁중앙
▁ကြီး
▁จบ
▁HS
▁185
▁instrumental
▁éclip
▁dikenali
▁大学院
ật
▁desca
▁lunas
▁穴
▁参戦
▁õppe
▁إليه
▁Punkt
pää
▁popolare
▁ক্ষেত্রে
▁لبنان
▁rough
▁Than
▁מחקר
▁χώρο
ρά
ობს
▁Heilige
▁отделения
▁طب
seks
▁sağlayan
▁Câmara
▁офис
▁comedy
นะนํา
▁Hala
▁Herr
▁决
▁Banyak
▁והת
▁responsabilidad
сел
▁明朝
▁Trang
▁ول
▁রু
▁Sale
יפים
活動
▁дал
▁szükséges
onder
തായി
▁fundación
▁존재
TU
תחילה
▁נח
▁mondial
▁elección
докато
▁dinheiro
▁铜
▁tô
▁מים
▁Auguste
ാനുള്ള
▁กรม
▁tecnico
▁پڑھ
杰
႕
▁ros
ிற்கு
▁व्यक्ती
แก่
▁ক্যা
▁तुम
▁бірге
▁柯
パー
▁Agen
▁comenzaron
▁특별
▁sele
▁Pete
▁Mentre
▁בינואר
▁ട്ട്
▁अज
▁doet
▁להגיע
▁Член
▁rendszer
▁თბილისის
歩
▁Sham
ലോ
ומות
cchi
יל
يدة
▁پسر
ιστεί
▁monuments
▁رابطه
kte
▁הפר
▁ജയ
▁εκεί
▁广告
▁premia
▁השלישי
▁ഇന്ന്
lán
▁重大
▁côte
▁голяма
▁Tito
▁جذب
▁Bod
bir
টের
▁رحم
▁Stadion
▁基本的
şe
▁қандай
▁soltanto
▁החלו
▁sista
▁holder
投
▁opleiding
▁Pam
▁Jews
▁tragen
▁שעות
മ്മ
▁ဏ
חת
▁luse
▁käytetään
▁আওয়ামী
▁agricultura
▁dominante
▁khăn
rig
垣
▁Vasco
▁существует
ုိး
▁vuur
髪
▁publiko
▁ดอก
▁בח
▁सांग
▁ဒီေ
စား
ẩm
▁Sour
▁открыт
ริ
▁премьер
▁ഇനി
▁lévő
▁공격
▁Netz
▁étend
tang
▁записи
▁Craig
▁राजा
▁윤
▁tidur
▁மி
рен
ங்களும்
▁missed
▁सोड
ছিল
दर
▁коллектив
▁返回
耗
▁定め
▁первое
▁Bala
▁lua
▁BD
▁kampung
▁grec
▁RNA
▁impossible
▁Thô
▁增长
▁ヘル
olta
▁学位
▁Prozess
rano
▁beschrieben
▁качества
▁бал
▁algum
▁competizion
▁الوطنية
▁Tanah
▁grosse
راب
పో
▁조사
▁construire
▁Saar
▁vet
▁놓
▁美術
▁zomer
ادة
▁นับ
▁نسخه
▁Δι
▁रोजी
▁Tree
ঙ্গ
▁Alfredo
▁Bristol
▁แจ้ง
এস
▁במשחק
▁последний
▁weder
▁bebas
▁personen
ющая
▁காமிக்ஸ்
уі
▁ब्र
igan
ισε
uzi
▁חל
▁Pac
▁atelier
▁Παρ
▁כה
▁nüüd
▁Mint
▁正常
వర్
▁деді
ימון
▁نخستین
▁Then
▁Eh
▁catégorie
ర్మ
tse
▁έκανε
▁mañana
ไทย
▁objetivos
▁बहु
▁आग
ेस
▁प्रदर्शन
▁ജ്
▁Colin
▁entrance
anse
▁proteger
▁hablar
▁செய்தி
▁Expo
▁誌
▁Altar
▁परीक्षा
▁raga
>
тау
த்துடன்
▁đêm
▁戏
▁datu
▁हवा
പ്പോൾ
▁thuis
റ്റി
mayı
escu
▁Bildung
▁והיא
▁pekerjaan
▁幻
tab
▁示す
▁élő
▁描い
▁alın
▁ソ連
▁อาคาร
▁acquisition
tors
eeritud
▁容量
▁Living
▁cope
▁trad
鸟
▁利亚
▁ماده
▁laptop
▁largement
▁निकाल
▁viet
▁ümber
▁giochi
▁رکھ
flächen
▁கண்ண
һ
కర్
▁कविता
▁smart
逸
▁不再
▁privé
▁peny
ORE
ˈ
▁חברי
▁maja
わっ
aquela
▁engagement
▁elmúlt
▁katso
▁välis
ஜ்
▁bleibt
▁simplement
kamp
▁kaas
▁సె
▁gebeur
▁kuha
▁mínimo
▁gedaan
▁боях
▁Senado
▁feuille
▁مدار
▁coisas
▁Ennek
▁laid
▁esetén
▁hü
▁באוקטובר
ansa
▁Ridge
▁außer
▁لیگ
련
▁မျ
▁siinä
▁主题
▁악
▁suyu
▁자리
thi
uke
▁présenté
▁燃料
ഞ്ഞു
▁پول
ッキー
▁Î
▁其它
▁フラン
ock
大臣
▁жал
▁שהיו
▁Lub
▁英尺
▁trasladó
▁1990-
▁antiga
▁പദ്ധതി
▁terbesar
档
▁曾经
▁下さい
経
▁Spanien
▁partecip
▁Ұлттық
▁सध्या
▁报道
▁rivier
▁Jus
▁legend
▁gyermek
▁DEL
▁beau
▁168
▁辽
▁Gerald
▁Myanmar
▁スク
▁நேரம்
▁hebt
▁പ്രധാന
ষ্ট
▁アマチュア
▁locaux
▁profile
▁tons
▁맡
▁אינה
▁ამის
ങ്ങി
عيد
▁рук
▁גדולה
bing
▁kubwa
▁exhibition
▁വീണ്ടും
ープ
time
▁probable
ностью
িতে
▁높
▁Trip
▁friendly
画面
▁Angola
بور
▁यांची
▁Alabama
▁wedding
▁Roi
Θ
▁conflicto
キー
▁寒
▁gawa
遣
▁folyó
▁storage
▁同社
▁दाखव
▁tör
▁chegar
▁Lé
▁ומת
▁สุข
▁SEO
▁録
你
▁ทา
▁chien
rito
▁اجرای
▁ഴ്
UD
ംഗ
魔
▁arteko
▁একই
▁理事
▁haite
▁资料
▁推進
▁Row
▁κου
▁parent
▁الجديد
ுக்கும்
▁Utah
▁kalian
▁исследований
▁екінші
▁判定
爭
▁danza
▁attempts
▁Mohamed
▁العرب
▁σχετικά
▁Daneb
▁போக
▁malah
▁Umwelt
▁Bosnia
▁24-
भूत
▁Vall
▁สัตว์
▁лидер
็ด
▁abrir
▁Фа
ယာ
▁музея
▁100.000
▁menawarkan
祀
▁attempted
▁משנת
υλ
▁dollista
▁обл
ल्स
▁Palacio
▁drew
▁allenatore
▁жив
▁живота
▁Ninh
▁ขาว
▁surprise
▁труб
▁prof
▁coronel
▁медали
琳
мар
▁írt
▁connaissance
魚
▁白色
vasta
▁บ้าง
▁hp
▁VIP
▁rasmi
▁Verona
க்காக
ရင္း
otte
▁窓
▁Train
▁startete
▁sons
▁خوبی
▁sections
▁újabb
▁pianta
▁Jal
▁TOP
▁écoles
يش
▁critiques
▁1784
▁squad
▁Alpes
wer
▁Israël
▁بھر
▁tests
말
▁ასე
▁规划
▁organise
NE
ിച്ചത്
▁escribir
▁Step
▁Mess
▁കുടുംബ
▁empre
▁Munich
▁グリーン
▁آنان
▁ওয়া
▁Koko
▁تاریخی
σι
▁ദ്
▁הזו
▁ΑΝ
▁にあた
廊
▁สํานักงาน
遊
▁comic
▁ராஜ
▁Eg
▁window
▁europäischen
اتها
▁lengkap
▁ทะเล
▁utara
▁времена
▁Sher
▁семья
▁gelir
▁hil
▁منهم
▁encima
▁kk
泡
▁||
▁rod
▁मीडिया
인이
▁موارد
▁extérieur
▁اعت
▁oposición
uks
حت
脉
▁skill
▁Hồng
▁കേ
▁فرض
▁Darstellung
▁نصب
▁Bả
▁牡
▁horizontal
▁Add
▁ქართული
▁ottiene
▁tir
▁Days
▁системе
▁சூ
ெல்லாம்
沃
ורה
▁혼
▁Oregon
▁bestimmt
▁gender
ajan
▁APP
▁وزارة
▁forças
▁Rho
▁Thủ
ΟΥ
دور
▁tha
ards
eita
▁Haji
▁Gerhard
▁suoja
▁belangrijk
翔
▁trabalhar
▁canzoni
▁佛教
▁ciri
▁Volk
▁saria
▁officiel
uten
▁promedio
öt
anos
▁僧
▁daran
▁loogia
▁telles
▁ظ
▁böyle
ल्ड
▁高級
มือ
▁inspiration
▁combination
▁وك
▁музыки
مون
▁知識
▁ჩ
▁Neubau
▁jury
儿子
▁Wegen
בות
▁軟
絡
▁ша
▁gyakra
▁หล
▁Vienne
▁шести
▁greco
▁trabajadores
▁caída
▁blok
▁killing
ол
▁Gara
ตัว
▁כוחות
▁période
▁maki
▁Russland
▁Nouveau
▁משחק
φαν
▁detrás
иль
▁Sak
သည္
▁Event
▁llä
πα
▁afstand
▁poid
▁Klinik
▁competitie
usu
▁défaite
▁parasites
▁Kritik
ировал
腊
▁kuul
▁cord
▁чи
▁तुमच्या
▁bough
闻
▁Parte
ीम
▁درآمد
▁समस्या
talan
abilirsiniz
كا
▁φορές
▁نادي
▁גי
▁portes
▁народа
▁käy
▁konsep
σεις
ルス
▁Hem
▁山西
▁澳
▁Omar
kle
▁yanı
jia
▁欢迎
▁ряда
開發
ωθεί
▁chỗ
▁többi
▁βάση
▁risiko
▁диск
▁doren
هن
▁হাত
▁カナダ
▁பிறந்த
▁ပီးေ
ストン
▁missioni
▁Beta
▁अच्छा
▁alá
▁RAF
▁studente
▁שירות
▁designer
▁اخته
టర్
▁Rü
▁Provence
▁laws
▁حرف
سم
▁Ше
▁весь
▁Eles
▁nhẹ
▁ตก
▁Parijs
▁medicine
ezza
▁residence
▁續
▁audi
▁配合
▁collège
▁क्र
▁dest
스의
▁promover
▁denuncia
▁Между
▁corazón
▁駆
▁ends
▁Chia
▁titulado
hil
▁royale
▁satis
бер
▁március
▁trovan
▁moyens
▁Regen
▁போர்
▁盐
▁ウォー
▁დავ
▁Suite
úa
▁प्रक्रिया
▁நம்ப
▁ปฏิ
▁следующий
▁pulang
▁मिळ
▁кү
▁маңызды
▁bora
▁Gros
▁세기
켜
▁Swedish
▁فرمایا
ющихся
▁潘
ച്ച്
▁तुम्हाला
▁tum
▁foundation
▁путь
▁menye
▁buite
▁discos
▁vesti
▁gratuit
▁ارزش
▁tồn
dul
▁verfügt
异
▁toont
▁안전
▁निकल
చ్చ
▁japanische
▁इन्
yt
▁poet
tation
▁déroule
値
▁stella
▁участник
▁muni
▁Youtube
▁Mondo
▁angle
▁meri
▁フライ
▁ൻ
tah
iek
▁Ти
▁ター
gur
▁Casi
▁Siya
▁өзінің
▁გიორგი
舍
▁nih
▁Alten
▁счита
▁מלא
ுள்ளார்
▁التعليم
尿
▁Dante
▁awards
灣
▁ملا
▁Café
▁específico
▁ダン
▁zullen
▁сегодня
▁berusi
angan
▁နိုင်ငံ
▁תוכנית
▁dui
военной
▁bắc
▁הצבא
▁ضرورت
▁mines
▁Squadron
ण्या
▁İş
▁telugu
▁VE
ките
▁január
▁eventual
▁روشن
▁Perse
▁фигур
▁Gómez
▁میدان
▁قرن
вшим
▁párt
▁کنم
▁cuor
rada
ႏွ
▁странах
▁โน
▁ണ്
mühle
▁חש
▁茂
▁קרי
▁困難
闭
есьма
▁ilalim
▁carretera
▁명의
▁فور
▁mesa
▁مستوى
▁無い
▁bracht
кс
▁войсками
▁қосымша
▁власть
▁רע
▁محصول
▁rong
▁rapid
▁ug
▁Mason
▁デジタル
せる
▁blogspot
▁資金
▁尤
▁Brücke
נא
fat
▁役割
▁کف
▁Gener
▁בכך
▁regiones
ук
▁Wirtschaft
▁hieman
▁ahead
▁至今
▁启
▁練習
▁راست
▁অভিযোগ
逐
▁alcanza
▁压
▁failure
▁डाल
▁কর্ম
ета
▁라이
ערים
avat
▁恢复
▁tiada
▁ফলে
▁Астана
▁XP
▁Massa
ghe
▁Productions
▁chemical
▁فأ
▁livros
鳴
▁huduma
▁Cash
▁pobreza
▁റോ
▁konusunda
▁atti
▁толық
▁ကာင္
ónica
스크
▁Pela
▁subir
▁जय
▁村落
▁მიმართ
▁将军
▁propios
▁العراق
▁ANC
▁FX
▁स्क
▁1770
गार
tiveram
▁capacidade
▁lende
▁القاطن
house
▁福岡
▁wame
▁ento
▁ninyo
▁이라는
▁헤
▁കാര
▁ساختمان
▁umumnya
▁impor
▁korban
▁guztiak
▁जिसे
▁triple
▁vorge
▁viisi
▁hitam
▁equivalente
適
▁faccia
▁naturales
▁uus
▁149
▁உண்டு
▁mémoire
红
▁یه
▁ROM
▁hôn
▁額
▁Flu
▁בארצות
▁triề
▁министра
▁базе
▁Isla
▁zeuden
ッカー
enza
▁lok
▁programmes
▁ауыр
▁derro
▁படிக்க
▁議員
▁Flores
тағы
▁Schneider
▁valit
tér
της
▁invited
▁matka
▁jump
▁define
▁レッド
▁мнение
▁халық
長い
▁instrumentos
▁pietra
▁شریف
▁investment
▁नजर
凝
▁Language
▁فلا
▁அப்போது
▁ам
▁banca
uhok
▁شہر
▁Basketball
▁روایت
▁patu
▁EF
▁versuchte
▁అలా
걸
▁MIT
озже
▁ξε
▁Ore
▁règne
▁読み
▁♀
▁terlihat
▁gevonden
▁והמ
▁مرگ
▁測
▁TC
iyah
▁درخواست
▁بيت
碑
▁participer
▁יכולים
▁lử
▁広く
▁Vie
▁चू
elo
▁macro
dim
джа
▁manage
▁осковского
▁alliance
▁今天
▁Status
「
קי
▁sobra
▁effectue
▁Beth
▁причин
▁لذلك
▁intensa
▁墨
▁вес
▁มัก
▁tuto
▁یہاں
▁বো
▁yapan
▁sevelt
▁プリ
▁Dir
▁banque
▁καλ
筆
豆
▁폐
samuti
꾸
▁bird
▁cég
▁bibigay
rata
▁ലോ
▁葬
▁ê
▁勒
dat
▁militärische
▁Rua
▁博物
▁パラ
▁журналист
σή
▁tuin
▁Cé
▁tran
▁prêt
▁sisä
▁してきた
▁मदद
▁蒋
иц
▁بك
uni
▁sesi
▁sangre
ेड
▁puhu
▁دریا
▁ร้อน
▁tambahan
▁แฟน
▁Angaben
▁الرئيسية
▁висок
▁overeen
▁никак
▁ndani
▁iv
▁alias
▁haj
mor
▁パー
sok
usega
▁נוספת
വുമായി
▁басты
▁syntyi
▁Ã
kker
мо
▁получен
▁پروژه
zentrum
دى
RU
kt
▁指名
HF
ญา
▁אומר
▁พนัน
▁costs
▁achieved
▁melyet
▁помощ
▁Lá
▁проведения
▁הישראלי
▁ปกติ
▁развива
ंगा
▁Hab
емые
直播
▁okulu
▁Kill
lie
▁Hadi
▁Harga
▁Ländern
▁责任
▁Path
кина
▁toisen
▁讀
▁sik
粉
逊
▁Parlament
▁отбор
▁尤其
▁mature
▁마음
▁altas
▁Trio
▁గ్రామ
▁dirigió
▁အသ
▁성공
▁yes
▁সামনে
▁الكو
▁突破
ẩn
ြဲ
UP
▁jiwa
▁যেতে
▁серия
▁senador
▁पं
晉
맹
▁Forschung
▁sweet
▁ख़
▁انہیں
كر
▁Magyarország
▁海洋
▁nedeniyl
▁hôm
▁ence
▁όνομα
▁какой
GI
▁siellä
UC
▁пра
▁स्कूल
aks
▁directo
▁blanche
▁сторон
ρκ
lip
শি
ట్ల
▁đâ
▁отношении
▁importants
▁следва
▁mees
erin
1000
该
க்கி
▁म्हण
▁Gad
steen
▁ჭ
ച
лығы
▁аль
幫
▁Educación
▁fore
▁நகர
▁fondation
▁رسمی
industrie
kampf
▁준
▁benne
▁Sali
ison
▁cabeça
SN
▁plasma
ംബ
▁consecutive
▁mukan
▁تل
▁kada
पन
▁Джо
▁युद्ध
dad
stellung
front
▁যারা
▁Karel
stil
▁услуг
▁1776
▁corresponde
▁أهم
▁340
▁Sabi
▁трудов
▁inglê
▁histórica
▁ട്ര
▁waki
קנה
▁berarti
▁tanti
▁Etelä
▁אג
▁Fahrzeug
டன்
▁Fashion
▁দেখ
▁mots
ンダ
▁günü
▁प्रथम
▁والأربعة
▁Mia
健
▁faced
▁自体
▁rẻ
رية
▁parcours
რე
▁जीत
▁Pilot
▁קילומטר
ual
▁Tore
▁возраста
bok
▁ascenso
▁שלכם
▁8000
▁parking
▁ハード
▁episodes
▁రీ
▁రో
▁defined
▁lettre
▁reinado
▁lib
▁勤務
▁杭州
▁בראש
▁certifica
▁cân
▁fungsi
▁compose
暦
▁乾
ιμ
▁adat
ामध्ये
▁Continental
▁Author
▁wards
▁সেখানে
▁buổ
▁tall
▁Sicht
▁kadın
MR
绘
▁בפ
▁山口
▁makai
▁professionnel
▁évi
▁lalo
▁مان
償
בורג
▁الحق
▁ユー
▁والستون
wärts
ذي
▁Table
▁trao
llista
▁Rip
caractéristiques
▁Heer
▁Xu
▁پشت
▁sababu
▁Kris
▁420
▁טיפול
▁శా
▁นั่ง
▁buurt
▁convention
ней
▁potencia
▁automatic
▁Ekonomi
饰
▁menjaga
▁organização
▁الحر
▁scopre
▁Finance
▁Jennifer
順
▁चौ
kuu
▁Berkeley
▁אחרת
▁Look
▁emple
▁बॉ
▁Mü
▁искусств
▁Kindern
▁داخلی
▁satellite
ণ্ড
▁asawa
▁кого
็ค
▁Vu
▁teatro
▁Congresso
▁juures
[...]
